<unk>	0
<s>	0
</s>	0
<mask>	0
<sep>	0
▁	-3.00574
၊	-4.1205
ကို	-4.62044
သည်	-4.7997
နှင့်	-4.94535
မှ	-5.23233
တွင်	-5.23978
၏	-5.29869
က	-5.34697
မ	-5.41398
များ	-5.44228
သို့	-5.47835
မှာ	-5.64384
▁တမ်းပလိတ်	-5.8243
▁ဝီကီပီးဒီးယား	-5.89355
▁ဇန်နဝါရီ	-5.90487
သော	-5.90537
ဧပြီမေ	-6.0591
ဩဂုတ်စက်တင်ဘာ	-6.05914
အောက်တိုဘာနို	-6.05918
ဇွန်ဇူလိုင်	-6.05918
ဖေဖော်ဝါရီမတ်	-6.05918
၀၁၂၃၄၅၆၇၈၉	-6.064
မြို့နယ်	-6.06802
▁မီနူး	-6.09409
▁ခုန်သွားရန်ပင်	-6.09433
▁မီနူးပင်မ	-6.09441
မာတိကာ	-6.09497
▁ရယူရန်	-6.15972
၌	-6.2048
များကို	-6.25986
ကျေးရွာအုပ်စု	-6.30222
ရှိ	-6.3126
၍	-6.32506
ပြီး	-6.35077
▁နောက်ဆုံး	-6.35081
▁မ	-6.35602
လည်း	-6.35682
ဝင်ဘာဒီဇင်ဘာ	-6.36744
အား	-6.37397
▁၁	-6.38569
ခြင်း	-6.40413
ရွာ၊	-6.41234
▁ခုနှစ်	-6.44565
▁အချိန်တွင်	-6.4544
▁ဤစာမျက်နှာကို	-6.46232
▁ပြင်ဆင်ခဲ့သည်	-6.46851
▁၂	-6.47846
ကာ	-6.4803
။	-6.489
ကြီး	-6.49734
ဖြင့်	-6.50433
▁နှင့်	-6.51427
သည့်	-6.52705
သည်။	-6.58883
▁ထို	-6.60323
▁အ	-6.62408
နဲ့	-6.64702
ရန်	-6.65513
▁ဆောင်းပါးများ	-6.696
▁၃	-6.73397
▁က	-6.77271
▁ဦး	-6.78483
ပါ	-6.7856
▁ဖြစ်သည်။	-6.79693
ခဲ့သည်။	-6.82145
အဖြစ်	-6.82983
ဟု	-6.83196
၁	-6.83283
တို့	-6.85092
ရာ	-6.85449
အ	-6.86124
▁၄	-6.90786
အတွက်	-6.93879
တွေ	-6.93927
ပင်	-6.94822
▁ခုနှစ်တွင်	-6.95545
်	-6.96774
▁တွင်	-6.98439
သာ	-6.99646
ပြင်ဆင်ရန်	-6.99873
▁မြန်မာနိုင်ငံ	-7.01232
တိုင်းဒေသကြီး	-7.03204
မှု	-7.03388
ရ	-7.03779
ဖြစ်သည်။	-7.06762
▁ပါဝင်သော	-7.06854
တဲ့	-7.07342
▁ကို	-7.08104
▁၅	-7.1195
ရွာ	-7.13937
လင့်ခ်များ	-7.14276
ရေး	-7.1514
မြန်မာနိုင်ငံ	-7.15359
▁မြန်မာ	-7.18006
▁ရွာများ	-7.20638
▁သို့မဟုတ်	-7.22601
▁ဟု	-7.2288
▁စာမျက်နှာများ	-7.22894
တာ	-7.24279
တို့ကို	-7.24309
ဆောင်းပါးတိုများ	-7.26339
▁ဤ	-7.27817
▁ဩဂုတ်	-7.27876
၂	-7.27964
မြို့	-7.29651
သူ	-7.33339
▁ကဏ္ဍ	-7.33553
▁၆	-7.33641
▁၁၀	-7.33793
ဟာ	-7.34253
တ	-7.34849
▁တ	-7.34863
များနှင့်	-7.37376
▁အခြား	-7.4235
ကြောင်း	-7.4274
▁၇	-7.43732
▁ရက်	-7.43997
▁ပ	-7.45494
ရဲ့	-7.45543
များသည်	-7.45545
လာ	-7.45995
နိုင်ငံ	-7.47905
▁ဇူလိုင်	-7.48691
အောင်	-7.49104
▁သည်	-7.51045
တော်	-7.52903
ဆိုင်ရာ	-7.53143
တို့သည်	-7.5359
▁အသုံးပြုထားသော	-7.53847
▁မှ	-7.54187
▁၁၂	-7.54928
ဝီကီပီးဒီးယား	-7.55525
▁နှစ်	-7.55693
များတွင်	-7.55745
▁ရက်နေ့တွင်	-7.55849
တောင်	-7.55888
နေ	-7.57017
င်္ဂလိပ်ဘာသာစကား	-7.5721
၃	-7.57375
တွေကို	-7.57423
▁ယင်း	-7.58181
▁ဦး၊	-7.58474
▁၈	-7.58516
အတွင်း	-7.5881
▁တည်ရှိသည်။	-7.58995
ခဲ့သည်	-7.59132
▁ဖြစ်သည်	-7.59364
လျှင်	-7.59582
ကြောင့်	-7.5981
ကား	-7.59888
ပုံ	-7.59961
ဖြစ်သည်	-7.60866
▁အမေရိကန်	-7.61017
ခဲ့ပြီး	-7.61254
▁ရန်ကုန်	-7.62715
တို့၏	-7.62987
စ	-7.63473
ဦး	-7.64129
အားလုံး	-7.65449
▁ပထဝီဝင်	-7.66056
ဝ	-7.66438
▁ဒီဇင်ဘာ	-7.67312
▁မေ	-7.67474
တော့	-7.68113
ဖို့	-7.68445
မြန်မာ	-7.68669
▁၁၁	-7.70474
▁အမျိုးသား	-7.70962
ကိုဩဒိနိတ်	-7.71354
ကုန်း	-7.7157
▁၂၀၂၃	-7.71851
▁ပြန်စစ်ပြီး	-7.71872
▁၉	-7.73266
တွင်း	-7.73536
င်းပါးတိုအားလုံး	-7.7379
အရ	-7.7448
▁ပတ်ဝန်းကျင်	-7.75269
လ	-7.76687
ဖြစ်သော	-7.76988
၄	-7.77899
▁၃၀	-7.78408
▁လူ	-7.78728
ခြင်း၊	-7.78783
▁အဖြစ်	-7.80318
▁မတ်	-7.81872
န	-7.81983
▁လို့	-7.82051
▁ဖေဖော်ဝါရီ	-7.8233
ပဲ	-7.82422
▁တည်းဖြတ်	-7.82901
▁၂၀၂၅	-7.83332
ထက်	-7.83734
ပါတယ်	-7.83848
▁ဒီ	-7.83935
တစ်ခု	-7.84053
▁နိုင်ငံ	-7.84118
လေး	-7.84183
လို့	-7.84248
▁နေရာများ	-7.85312
▁၁၃	-7.85742
သဖြင့်	-7.85762
ပြီးနောက်	-7.85844
ကြသည်။	-7.85875
▁ပြန်လည်	-7.86415
▁သ	-7.86571
အထိ	-7.86642
လေ	-7.8694
း	-7.87337
▁အဓိက	-7.87347
ပေါင်း	-7.87431
▁၁၅	-7.8748
▁ခု	-7.87961
လျက်	-7.88327
▁၂၀	-7.88364
▁၁၄	-7.8899
▁အကြမ်းဖက်	-7.89487
▁ရေ	-7.89654
▁အသက်	-7.89708
ဖြစ်ပြီး	-7.90318
များ၊	-7.90579
စာမျက်နှာများဆော	-7.90615
▁သို့သော်	-7.91083
▁နှာ	-7.91181
ပ	-7.91586
▁ဇွန်	-7.91613
ဖြစ်	-7.91702
.	-7.92408
နီ	-7.92408
▁စက်တင်ဘာ	-7.92585
▁ရှိသည်။	-7.93114
ြန်မာစံတော်ချိန်	-7.93196
မင်း	-7.95126
▁အထူး	-7.95244
နိုင်ငံမြန်မာ	-7.95536
၏။	-7.95675
▁ရ	-7.9579
▁ပြောပါတယ်	-7.95848
▁ဍ	-7.95933
စီ	-7.96583
သ	-7.96769
ထားသော	-7.96795
ကုတ်မှာ	-7.96875
▁နိုဝင်ဘာ	-7.9704
▁ရွာနေရာ	-7.97117
လို	-7.97241
အချိန်ဇုန်မ	-7.97626
▁ဧပြီ	-7.9769
စွာ	-7.98125
နိုင်	-7.98254
▁လ	-7.98399
သား	-7.98501
၅	-7.98946
ကိုလည်း	-7.99248
▁၁၆	-7.99611
စာမျက်နှာအားလုံး	-7.99904
▁တည်းဖြတ်သူများ။	-8.00367
ရွာအင်္ဂလိပ်သည်	-8.00716
ရေ	-8.00898
▁၂၀၂၅၊	-8.0114
▁အောက်တိုဘာ	-8.01345
▁နိုင်ငံရေး	-8.02995
▁ပြည်ထောင်စု	-8.03041
တင်	-8.03704
▁စတင်	-8.03975
သွား	-8.04104
များ၏	-8.04134
မျိုး	-8.044
▁၂၅	-8.04472
▁စစ်ကောင်စီ	-8.04532
▁၁၈	-8.04696
▁ကျား	-8.0511
▁စီးပွားရေး	-8.0548
တိုင်း	-8.05483
▁ဒုတိယ	-8.05655
ခေါ်	-8.06087
ရင်း	-8.06093
နှစ်	-8.06358
▁တောင်	-8.07104
ရှမ်းပြည်နယ်	-8.07157
▁ဓာတ်ပုံ	-8.07223
▁ကဏ္ဍများ	-8.078
ပြည်ထောင်စု	-8.08151
စာ	-8.08654
တယ်	-8.09072
သုံး	-8.09175
ခ	-8.09363
မူ	-8.09897
▁၂၀၂၁	-8.09953
ကန်	-8.10647
▁သို့	-8.10909
▁နိုင်ငံတော်	-8.11035
မြို့နယ်၊	-8.11374
▁၁၉	-8.11661
▁စ	-8.12093
▁၂၂	-8.12121
ကောင်း	-8.12422
ချောင်း	-8.12637
ခဲ့ကြောင်း	-8.12793
၆	-8.12832
ဘဲ	-8.13489
▁ရက်နေ့	-8.14934
▁ခုနှစ်၊	-8.14975
ဲပြားမှုမှတ်တမ်း	-8.15042
နေသော	-8.15283
ခဲ့သော	-8.15308
များမှာ	-8.15896
အားဖြင့်	-8.16108
နာ	-8.16675
ခရိုင်မြို့နယ်	-8.17172
လေသည်။	-8.17376
▁သိရှိရသည်	-8.18133
▁တရုတ်	-8.18135
▁၁၇	-8.18869
▁ဖြစ်	-8.18928
သော်လည်း	-8.19051
ခံ	-8.19678
▁ကိုဩဒိနိတ်များအ	-8.19928
မြန်မာနိုင်ငံရှိ	-8.20206
▁အစိုးရ	-8.20631
လိုက်	-8.21146
▁ခ	-8.21243
▁ရင်းမြစ်	-8.21836
▁ရွှေ	-8.21854
ရင်	-8.21956
▁စစ်	-8.21974
ရာတွင်	-8.22002
စား	-8.22265
စု	-8.22284
တော	-8.22568
▁၂၀၂၄	-8.22687
▁၂၃	-8.23794
ဝင်	-8.24222
စ်	-8.24402
ကျောင်း	-8.24543
▁အမှတ်	-8.25008
၇	-8.25051
လုံး	-8.25061
ဝင်ဘာဒီဇင်ဘာအထူး	-8.25212
/	-8.25344
▁အတွက်	-8.25438
ဘာသာစကား	-8.25721
▁၂၄	-8.25984
ီကုတ်	-8.26084
▁သူ၏	-8.26444
▁၂၁	-8.26537
ကျော်	-8.26591
ဟူ၍	-8.26732
သစ်	-8.27221
ပြီးလျှင်	-8.27388
တစ်	-8.27556
▁တော်လှန်ရေး	-8.28026
ရှိသည်။	-8.28173
ခဲ့ကြသည်။	-8.28192
တိုက်	-8.28259
ပြည်နယ်	-8.28324
▁၏	-8.28378
▁ဖြစ်သည်။၂၀၁၄	-8.28489
များက	-8.2852
သုတ်	-8.28648
▁လက်	-8.28678
လူဦးရေစုစုပေါင်း	-8.28833
ကနေ	-8.28837
▁မင်း	-8.28905
ဘ	-8.2911
ကျေးရွာအုပ်စု၊	-8.29149
▁သူ	-8.29439
ပြန်	-8.29913
▁ပထမဆုံး	-8.29981
အကြောင်း	-8.30452
အဖွဲ့	-8.30505
▁၂၇	-8.3067
▁၂၆	-8.30676
တွေက	-8.30693
အပေါ်	-8.30695
ထား	-8.31135
▁တက္ကသိုလ်	-8.31145
စဉ်	-8.31262
ချင်း	-8.31508
တို့တွင်	-8.321
ရှိသော	-8.32142
▁ရှိ	-8.32463
ပေး	-8.32826
▁စာမျက်နှာ	-8.32934
ငယ်	-8.33542
▁၂၈	-8.33798
ကြ	-8.33917
ဒေသ	-8.33939
ချက်	-8.33962
ကျ	-8.3407
မိုဘိုင်းလ်	-8.34692
▁တစ်	-8.34877
နယ်	-8.3491
မြို့နယ်ရှိ	-8.34954
လူ	-8.35163
များဖြင့်	-8.35326
နိုင်သည်။	-8.3542
▁စာ	-8.35509
▁တိုက်ခိုက်	-8.35592
မာ	-8.35623
တက်	-8.35679
▁အဆိုပါ	-8.36101
▁ခေါ်	-8.36158
▁ပထမ	-8.36397
လမ်း	-8.36403
▁ကျော်	-8.36502
▁ဝင်ရောက်	-8.36699
ခဲ့ပါတယ်	-8.368
▁ထို့ကြောင့်	-8.37031
▁၎င်း	-8.3716
ခြင်းနှင့်	-8.3723
▁အလွန်	-8.37311
ယူ	-8.37339
စစ်	-8.37979
ကတော့	-8.38091
လူမျိုး	-8.38342
သောအခါ	-8.38584
ရသည်။	-8.38674
ht	-8.38814
မီ	-8.38991
ခဲ့	-8.38999
သည်ဟု	-8.39146
▁မိမိ	-8.39488
ဖြစ်၍	-8.3976
ဧရာဝတီ	-8.3996
ကဲ့သို့	-8.39961
ပြ	-8.40049
ရီ	-8.4006
▁အထိ	-8.40062
▁ပြန်	-8.40275
ပေါက်	-8.40324
▁23	-8.40563
နည်း	-8.40636
▁ဆွေးနွေးချက်	-8.40791
တို	-8.41018
လ်	-8.41277
အမျိုးသား	-8.41298
▁ထိုသို့	-8.41424
၁၁	-8.41433
▁၂၉	-8.41578
▁နေရာ	-8.41758
ဘယ်ကလင့်ထားလဲ	-8.4187
ဟူသော	-8.41978
ဝါ	-8.42104
▁နဲ့	-8.42547
လက်	-8.42787
▁၂၀၂၁၊	-8.42925
တွင်မရှိသော	-8.43285
▁သူတို့	-8.4339
▁မန္တလေး	-8.43771
ကျွန်း	-8.44221
▁အနောက်	-8.44274
▁ထို့နောက်	-8.44279
ပေ	-8.44283
▁အင်္ဂလိပ်	-8.44836
▁ထိုအခါ	-8.45123
▁မြောက်	-8.45348
များအား	-8.45786
လဲ	-8.45967
▁ဆက်လက်	-8.46082
မှုများ	-8.46098
▁သုံး	-8.46329
အသုံးပြုသူ	-8.4642
မျှ	-8.46429
တိုင်	-8.46503
ကဏ္ဍ	-8.46591
ဘုရား	-8.46739
ခြင်းကို	-8.46973
ဒ	-8.47421
တွေနဲ့	-8.47554
စစ်ကိုင်း	-8.47774
တန်း	-8.47942
၈	-8.4805
တပ်မတော်	-8.48353
▁ယဉ်ကျေးမှု	-8.48357
လီ	-8.48483
ရှင်	-8.48487
မြန်မာနိုင်ငံ၏	-8.49148
တပ်	-8.49183
ရက်	-8.49189
▁လူဦးရေ	-8.49217
▁စစ်တပ်က	-8.49289
မှုကို	-8.49985
အနေဖြင့်	-8.50158
▁အတွင်း	-8.50226
▁ထို့ပြင်	-8.50527
▁။	-8.50929
ဆို	-8.51095
▁ဆင်	-8.51248
ပြန်ညွှန်းထားသည်	-8.51261
ဆင်	-8.5192
▁ဖြစ်ပြီး	-8.51992
ဖ	-8.5212
▁သမ္မတ	-8.52166
မည်	-8.52517
သံ	-8.52702
▁ဦးနေထိုင်သည်။၁	-8.52769
့	-8.52891
▁သူ့	-8.53
မိ	-8.53195
▁ပြောဆိုသည်	-8.53197
▁မေလ	-8.53256
တူ	-8.53274
▁ပြော	-8.53583
ပြင်	-8.53734
ဒီ	-8.53945
▁မွေးဖွားသူများ	-8.53946
▁ဒေါ်	-8.54079
▁သိရသည်	-8.54127
▁အောက်ပါ	-8.54223
မြို့နယ်မှ	-8.54297
▁ဇွန်လ	-8.54536
▁နောက်	-8.54877
ဒါ	-8.54994
▁အပါအဝင်	-8.55117
ဂ	-8.55158
ပေါ်	-8.55187
▁အမျိုးသမီး	-8.55391
▁ရှိသည်	-8.55537
ကလေး	-8.55667
တန်	-8.55725
တက္ကသိုလ်	-8.55826
တို့က	-8.56397
▁အသုံးပြုသူများ	-8.56574
စေ	-8.56597
ဆက်	-8.56752
၁၂	-8.57163
ပေါ်တွင်	-8.57441
ဆုံး	-8.57492
▁ရန်ကုန်ခေတ်သစ်	-8.5772
▁တည်းဖြတ်မှုများ	-8.57831
▁ပေ	-8.57947
▁ရွေးကောက်ပွဲ	-8.5817
▁နိုင်ငံတကာ	-8.58179
▁နေ	-8.582
ယာ	-8.58288
ကလည်း	-8.58375
ကုန်	-8.58393
များမှ	-8.58781
ရွှေ	-8.5881
▁ပါဝင်	-8.59217
နိုင်ငံတော်	-8.59373
▁ပြုလုပ်	-8.59492
▁င	-8.59645
သောကြောင့်	-8.59787
အစိုးရ	-8.60014
လုပ်	-8.60221
▁ကျောင်း	-8.60229
၉	-8.60384
ယ	-8.60454
▁မြန်မာ့	-8.60683
မြို့နယ်၏	-8.60713
▁ယခု	-8.60799
ကွဲ	-8.6082
▁စိတ်	-8.60887
ဆာ	-8.6091
▁စုစုပေါင်း	-8.61112
▁ဒေါက်တာ	-8.61433
ရိုး	-8.62021
ဟောင်း	-8.62122
နေရာ	-8.62127
▁မဟာ	-8.62132
ပြု	-8.62142
▁အဲဒီ	-8.62154
▁စစ်တပ်	-8.62354
▁ကမ္ဘာ့	-8.62819
အင်္ဂလိပ်	-8.63023
▁အရှေ့	-8.63105
ကြသည်	-8.63201
▁တို့	-8.63427
▁၎င်း၏	-8.6369
ဆ	-8.63768
ကွင်း	-8.63889
လုပ်ငန်း	-8.63935
▁ခန့်	-8.64065
▁မိုင်းဖြတ်	-8.64216
ရော	-8.64302
တီ	-8.64377
▁ငါး	-8.64463
ခန့်	-8.64536
ချ	-8.6461
▁တရားဝင်	-8.64613
▁နာရီ	-8.64629
▁ရုပ်ရှင်	-8.6479
န်းခေါင်စာရင်းအရ	-8.64893
ဆောင်	-8.64926
▁လက်ရှိ	-8.6499
▁ဗိုလ်ချုပ်	-8.65448
▁အခြေခံ	-8.65528
▁၂၀၂၀၊	-8.65568
လှ	-8.66027
t	-8.66087
▁ဆရာ	-8.66102
ထွက်	-8.66182
စနစ်	-8.66184
ဗ	-8.66226
▁မတ်လ	-8.66231
အမျိုးအစား	-8.66296
ထ	-8.66332
▁၂၀၂၂	-8.66389
▁သမိုင်း	-8.66554
▁မိုင်	-8.66588
▁ပူးပေါင်း	-8.66605
▁မြို့	-8.66759
နိုင်သော	-8.66835
ပြောင်းလဲမှုများ	-8.67028
ံ	-8.67181
သိ	-8.6723
▁ဥပဒေ	-8.67291
▁၂၀၂၄၊	-8.67393
တမ်းပလိတ်	-8.67422
▁ထိုင်း	-8.67574
ကုန်းရွာ၊	-8.6772
၁၀	-8.67809
▁ဇူလိုင်လ	-8.67839
ကောင်စီ	-8.67877
▁လေ	-8.68071
ဇ	-8.68318
▁ဆောင်ရွက်	-8.68337
▁အချို့	-8.68363
ထားသည့်	-8.68758
၂၁	-8.68772
▁သို့ရာတွင်	-8.68783
အဆင့်	-8.68897
▁ဖြစ်ပါတယ်	-8.68899
ဆန်	-8.69004
▁၃၁	-8.69062
▁အောက်	-8.69132
▁ယခင်	-8.69553
ဆီ	-8.69602
ခေတ်	-8.69781
▁သူက	-8.70022
▁အားလုံး	-8.70212
စိတ်	-8.70234
▁အာ	-8.70249
များအတွက်	-8.70488
မြေ	-8.70531
ဝီကီဒေတာရှိ	-8.70644
▁အကြောင်း	-8.70774
▁ချိတ်ဆက်ထားသော	-8.70875
အပါအဝင်	-8.71153
လောက်	-8.71524
ချိန်	-8.71615
▁ပါ	-8.71917
ပညာ	-8.72146
မူရင်းအား	-8.72162
သော်	-8.72584
တိုင်းဒေသကြီးရှိ	-8.72622
ဆေး	-8.72642
▁စာရင်း	-8.72644
▁အထက်	-8.7273
တရား	-8.7292
▁သန်း	-8.72957
သမိုင်း	-8.72982
▁မြေ	-8.73039
မြို့နယ်ဝီကီဒေတာ	-8.7309
▁သူသည်	-8.73105
ပန်း	-8.73177
▁ရာခိုင်နှုန်း	-8.73222
ခဲ့ရာ	-8.73306
▁ဖြစ်သည်။၁	-8.73456
ဖြစ်သည့်	-8.73737
ဆောင်းပါးတို	-8.73756
ရန်ကုန်	-8.73773
ဝန်ကြီးဌာန	-8.73844
ရပ်ကွက်	-8.73882
ထုတ်	-8.73912
နှင့်အတူ	-8.73956
ထားသည်။	-8.74065
စေရန်	-8.74155
ဟန်	-8.74531
ခဲ့သည့်	-8.74558
▁၂၀၂၀	-8.74671
စကား	-8.74698
▁ပိုမို	-8.74948
အမည်	-8.75146
▁အိန္ဒိယ	-8.75179
အတိုင်း	-8.75239
▁မြို့များ	-8.75311
မည့်	-8.75329
လင်း	-8.7535
▁လုံး	-8.75576
ရစ်	-8.75895
▁၂၀၁၆	-8.75902
မိုင်းဖြတ်	-8.76005
ဘာ	-8.76011
▁သွား	-8.76033
▁ဘုရား	-8.76051
ပွဲ	-8.76055
အို	-8.76103
နေတဲ့	-8.76147
▁ပြည်သူ့	-8.76164
ဟ	-8.762
ခင်	-8.7622
▁အသုံးပြု	-8.76228
ကြား	-8.7625
ည်နေရာကိုဩဒိနိတ်	-8.7634
▁ပြည်နယ်	-8.76587
ဖြူ	-8.76639
▁တပ်	-8.76848
မြောက်	-8.76854
ခွဲ	-8.76934
▁အား	-8.76958
▁တပ်မတော်	-8.76967
▁လုပ်	-8.77102
▁ဂျပန်	-8.77177
ထဲ	-8.77609
▁အချိန်	-8.77668
▁ကျောက်	-8.77899
နား	-8.77912
ပိုင်	-8.78115
▁ဒေသ	-8.7826
▁ပြည်သူ	-8.78528
c	-8.7877
အပြည်ပြည်ဆိုင်ရာ	-8.78782
▁ဗြိတိသျှ	-8.78829
မှာလည်း	-8.78829
▁တရား	-8.79082
သည်လည်း	-8.79097
ရာ၌	-8.79683
▁မည်သည့်	-8.79741
▁တိုင်းရင်းသား	-8.79812
▁သေနေသော	-8.79817
န်	-8.79892
ထိ	-8.79942
ပါက	-8.79992
▁ဥပမာ	-8.80146
ခွင့်	-8.80252
ဘူး	-8.80769
ရဲ	-8.8083
▁သား	-8.80839
▁ဒါပေမဲ့	-8.80859
သူများ	-8.81014
ပိုင်း	-8.81032
တည်းဖြတ်မှု	-8.81337
ယဉ်ကျေးမှု	-8.81384
▁ဆောင်ရွက်ချက်	-8.81645
▁ဆ	-8.81691
ဆိုသည်မှာ	-8.81889
▁အုပ်ချုပ်ရေး	-8.82025
လေသည်	-8.82301
ဌာန	-8.82621
တတ်	-8.82663
ကာလ	-8.82755
▁နတ်	-8.82763
၃၁	-8.83124
အလိုက်	-8.8316
▁၂၀၁၅	-8.83215
ထံ	-8.83366
သေ	-8.83533
▁ရေးသား	-8.83654
▁မှတ်ပုံတင်ထား	-8.83717
▁န	-8.83725
ရပ်	-8.83793
▁တစ်ခု	-8.83882
တည်း	-8.83922
အမေရိကန်	-8.84099
▁သန်းခေါင်စာရင်း	-8.84122
a	-8.84157
မယ်	-8.84252
မန္တလေး	-8.84319
မှတ်ပုံတင်ထားသော	-8.8433
ဘက်	-8.84334
စက်	-8.84567
▁ရေး	-8.84579
▁ဗုဒ္ဓဘာသာ	-8.84585
▁ပြောင်းလဲ	-8.84681
နိုင်သည်	-8.84685
ပါ။	-8.84803
တ်	-8.84804
ရောက်	-8.84834
▁ဝန်ကြီးချုပ်	-8.84943
▁သိ	-8.85039
▁သံ	-8.8526
▁ငွေ	-8.85349
▁၂၀၁၂	-8.85353
▁ဂ	-8.85458
၃၀	-8.85697
ခရိုင်	-8.85723
မြစ်	-8.85779
▁အိမ်	-8.85992
မှုကြောင့်	-8.86358
▁၂၀၁၉	-8.86371
ကင်း	-8.86422
▁ဟူသော	-8.86442
▁ဝ	-8.8645
▁ယူ	-8.86981
▁စကား	-8.87109
▁ဤသို့	-8.8717
ပုံစံ	-8.87284
မွန်	-8.87326
▁ဘာသာစကား	-8.87373
▁အထူးသဖြင့်	-8.87467
▁ဘာသာစကားများ	-8.87531
▁တည်နေရာ	-8.87537
ရသော	-8.8754
အမှတ်	-8.87801
မောင်	-8.87894
ဝယ်	-8.87947
တို့အား	-8.88005
▁အခြားသော	-8.88214
▁ပုံ	-8.883
ဆု	-8.88311
ဝန်ကြီး	-8.8832
ခဲ့တဲ့	-8.88333
နတ်	-8.88382
▁မောင်	-8.88407
▁သတင်း	-8.88411
ဝင်ဘာဒီဇင်ဘာကဏ္ဍ	-8.88412
ခဲ့လေသည်။	-8.8842
ဘူတာ	-8.88431
▁ယခုအခါ	-8.88584
ခုနှစ်	-8.88647
▁ထပ်မံ	-8.8934
ပြော	-8.89489
လူသစ်များ	-8.89491
အပြင်	-8.89579
ခြင်းဖြင့်	-8.89579
▁ဖြင့်	-8.89607
ကွဲပြားမှုမှ	-8.89657
▁ဘ	-8.89697
ပစ်	-8.89745
▁၂၀၁၁	-8.89929
ပြင်ပလင့်	-8.89943
လွှတ်တော်	-8.90115
နက်	-8.90148
ဘဝ	-8.90158
ရန်အတွက်	-8.90354
▁၂၀၁၈	-8.90366
ထိုး	-8.90445
▁အို	-8.90619
ထဲမှာ	-8.90705
▁နောင်	-8.90797
အလ္လာဟ်အရှင်မြတ်	-8.90862
ps	-8.90909
com	-8.90975
▁ကျန်းမာရေး	-8.91043
burmese	-8.91045
://	-8.91045
▁ပညာ	-8.91264
ရုံး	-8.91474
ဆွေးနွေးချက်	-8.91483
ဂါ	-8.91514
ဆရာတော်	-8.91588
အကြောင်းပြန်ရန်	-8.91735
▁အထွေထွေ	-8.91768
ဆောင်းပါး	-8.918
▁အများဆုံး	-8.92136
သီး	-8.92373
▁စာပေ	-8.92641
ထားတဲ့	-8.92654
ည	-8.92697
၁၃	-8.92756
▁ကွယ်လွန်သူများ	-8.92808
ဘုရင်	-8.93118
ဝန်ကြီးချုပ်	-8.93157
▁အမည်	-8.93268
၀	-8.93289
▁ရာစု	-8.93312
တို့ဖြင့်	-8.93475
အသက်	-8.93541
တယ်လို့	-8.93574
▁ဝါ	-8.93577
▁နည်းပညာ	-8.94397
င	-8.94403
၁၅	-8.94534
▁ယနေ့	-8.94536
မိုး	-8.94567
▁အရှင်	-8.94785
▁ဥက္ကဋ္ဌ	-8.94792
ဇာတ်	-8.94918
ပြည်	-8.94952
▁ဩဂုတ်လ	-8.9503
▁ကိုယ်	-8.95042
▁လာ	-8.95104
တို့နှင့်	-8.95133
▁၂၀၁၀	-8.95291
ကျမ်း	-8.95542
▁အဖွဲ့ဝင်	-8.95576
တို့မှာ	-8.95582
▁နား	-8.9559
နေသည့်	-8.9585
▁ဆက်	-8.96135
ထဲတွင်	-8.96213
▁အခြေအနေ	-8.9645
▁၎င်းတို့၏	-8.96649
တွေမှာ	-8.97086
ရွေးကောက်ပွဲ	-8.971
ဖက်	-8.97121
နိုင်ရန်	-8.97241
ငွေ	-8.97496
▁ဆို	-8.97574
▁ဟူ၍	-8.97583
ရှာ	-8.97631
▁မိမိတို့	-8.97656
▁လုပ်ငန်း	-8.97744
▁မော်ကွန်း	-8.97831
▁ပါဝင်သည်။	-8.97873
အသစ်	-8.97983
ဆွေးနွေးပံ့ပိုးက	-8.98025
▁ပန်	-8.98073
▁တိုက်	-8.98191
▁၂၀၂၂၊	-8.98284
မေ	-8.98382
မြင့်	-8.98445
▁ထိုင်းနိုင်ငံ	-8.98462
▁ရောက်	-8.98492
▁ပို	-8.98573
အာ	-8.98582
ဗုဒ္ဓဘာသာ	-8.98601
▁တိုက်ခိုက်မှု	-8.98646
▁အမျိုးအစား	-8.98661
ကျောက်	-8.98711
ဝင်း	-8.98862
များစွာ	-8.98892
၁၄	-8.99013
▁စာအုပ်	-8.99073
နေ့	-8.99273
▁၂၀၁၃	-8.99376
ရမည်	-8.99562
ကိုသာ	-8.996
ချင်	-8.9968
▁လုပ်ဆောင်	-8.9974
▁နမ့်	-8.99825
▁ဝန်ကြီးဌာန	-8.99866
များကိုလည်း	-8.99873
ထဲက	-8.99877
▁ရခိုင်	-8.99879
ခေါင်းဆောင်	-8.99891
▁လက်နက်	-8.99993
သို့မဟုတ်	-9.00001
▁ပြု	-9.00064
▁ပါတီ	-9.00223
ာ	-9.00395
▁အကူအညီ	-9.00408
▁လုံခြုံရေး	-9.00521
မော်ကွန်းတင်ပြီး	-9.0075
မှာတော့	-9.00873
အိမ်	-9.0108
▁အသံ	-9.01124
ဇာ	-9.01202
▁မီး	-9.01335
ချီ	-9.01522
▁သည်။	-9.01617
လေ့	-9.01733
▁ဘဝ	-9.01778
တို့မှ	-9.0196
ပို	-9.02012
ပစ္စည်း	-9.02115
စီး	-9.02116
▁ဆေး	-9.02179
လက်ရှိ	-9.0219
▁လမ်း	-9.02258
တိုက်ခိုက်	-9.02265
စံ	-9.02267
ကပ်	-9.0228
ခဲ့သော်လည်း	-9.02423
▁ဖွဲ့စည်းပုံ	-9.02456
တွင်လည်း	-9.02508
▁မူလ	-9.02796
အတွင်းရှိ	-9.02798
▁ကလေး	-9.03189
ရည်	-9.03196
▁အင်တာနက်	-9.03214
နိုင်ငံ၏	-9.03217
သမ္မတနိုင်ငံ	-9.03234
▁အရ	-9.03286
ြန်မာ။ကိုဩဒိနိတ်	-9.0332
▁သက္ကရာဇ်	-9.03421
▁စသည့်	-9.03701
▁အချက်အလက်များ	-9.04044
၁၆	-9.04058
ဓာတ်	-9.04288
ချုပ်	-9.04302
ခြင်းကြောင့်	-9.04416
▁တည်နေရာ၊	-9.04534
▁မှတ်တမ်း	-9.04546
၂၃	-9.04785
ရှည်	-9.0483
▁ကိုဩဒိနိတ်များ	-9.04941
ပါသည်။	-9.04969
အထူးစာမျက်နှာ	-9.04995
ဆိုင်	-9.05033
▁ပြောဆို	-9.05104
လုံ	-9.0563
▁တာဝန်	-9.05712
မဲ	-9.05717
တရုတ်	-9.06104
▁ဝင်	-9.06198
ခန်း	-9.06201
▁လေး	-9.06411
ရှိပြီး	-9.06518
လား	-9.06576
▁ပစ်ခတ်	-9.06579
စရာ	-9.06824
▁ကောင်း	-9.06836
▁ရောဂါ	-9.06845
▁အခန်း	-9.06889
▁ရက်တွင်	-9.06962
▁လည်းကောင်း၊	-9.06965
ဖြစ်စေ၊	-9.07122
နောက်	-9.07148
ထားပြီး	-9.07236
စီမံအုပ်ချုပ်ရေး	-9.07353
ငါး	-9.07367
ပါတီ	-9.07431
▁၅၀၀	-9.07461
▁၂၀၁၄	-9.07558
ဆရာ	-9.07583
ကံ	-9.0772
▁တင်	-9.07839
ရို	-9.08033
ထားသည်	-9.08033
▁ဧပြီလ	-9.08154
ဘာသာ	-9.08302
ရောဂါ	-9.08333
▁ရပ်ကွက်	-9.085
▁ရုရှား	-9.08531
▁များစွာ	-9.08657
လူမျိုးများ	-9.08688
▁ခေါင်းဆောင်	-9.08735
▁လေ့လာ	-9.08772
ဒ်	-9.08814
နန်း	-9.08825
လန်	-9.08933
▁၅၀	-9.0894
ဥ	-9.09124
တွေဟာ	-9.09139
▁ဟာ	-9.09237
▁ဖွဲ့စည်း	-9.09285
▁ရှင်	-9.09334
▁ဝမ်	-9.09663
ရုံ	-9.09673
▁ရွေးချယ်	-9.0986
အိုင်	-9.09878
အုပ်ချုပ်ရေး	-9.09948
▁ပြင်သစ်	-9.10036
ကြည့်	-9.10063
▁ဖမ်းဆီး	-9.1012
၁၈	-9.10167
တိုင်းရင်းသား	-9.10239
▁၂၀၀၈	-9.10345
မီး	-9.10474
ထောင်	-9.10591
▁အဖွဲ့	-9.10623
▁မိုး	-9.10653
▁နိုင်ငံများ	-9.10666
▁စစ်ရေး	-9.10676
၁၇	-9.107
▁ထို့အပြင်	-9.10743
▁စသော	-9.10768
▁စစ်ကောင်စီက	-9.10813
▁သင်	-9.1084
ဖြစ်၏။	-9.1092
စတင်	-9.10994
▁သဘာဝ	-9.1109
တို့၌	-9.11156
▁ဥရောပ	-9.11415
▁၂၀၁၇	-9.11423
ထို	-9.11482
▁ထည့်သွင်း	-9.11544
တွေရဲ့	-9.11602
စာတွဲများ	-9.11638
▁သတ်မှတ်	-9.11749
မဲ့	-9.1193
▁ဘာ	-9.12028
▁လေကြောင်း	-9.1204
ဘီ	-9.12117
▁ထင်ရှားသော	-9.12194
မန်	-9.12321
၂၀	-9.12331
မ်	-9.12409
မရှိ	-9.12431
▁ပြည့်နှစ်	-9.12478
▁သခင်	-9.1263
▁မန်	-9.12743
▁ကန်	-9.12798
▁အလုပ်	-9.12992
▁ငါ	-9.13087
စာပေ	-9.13416
▁မာ	-9.135
▁သစ်	-9.13534
များလည်း	-9.13614
▁၀	-9.13688
▁တာဝန်ထမ်းဆောင်	-9.13723
▁ဘီစီ	-9.1376
▁နေပြည်တော်	-9.13879
▁ဝက်ဘ်	-9.13929
▁ရွာ	-9.13935
ကောင်	-9.14023
ခဲ	-9.14112
နိုင်ငံရေး	-9.14124
နယ်ကျေးရွာအုပ်စု	-9.14287
▁ဘုရင်	-9.14397
ဝန်	-9.14574
▁ခရိုင်	-9.14647
ပတ်	-9.14657
▁ရဟန်း	-9.14723
▁တက်	-9.14771
▁အကြောင်းအရာ	-9.14828
ရှိသည်	-9.14839
▁ဥ	-9.14892
▁အင်အား	-9.14902
▁ကိုယ်ပိုင်	-9.14993
စာမျက်နှာကို	-9.15024
ဖူး	-9.15064
မြောက်ပိုင်း	-9.15078
ကျေးရွာ	-9.15136
▁ဖ	-9.15167
နယ်မြေ	-9.15174
▁ပန်း	-9.15205
နု	-9.15365
▁ပင်လယ်	-9.15464
▁ဖြစ်သော	-9.15488
မိုင်	-9.1565
▁ည	-9.15719
မှတ်တမ်း	-9.15768
▁ပညာရေး	-9.15789
စသော	-9.15818
▁အင်	-9.15875
▁တော	-9.16015
ဖတ်	-9.16064
ရယ်	-9.16151
▁မြန်မာနိုင်ငံ၏	-9.16277
ရသည်	-9.16601
ဿ	-9.16765
ခါ	-9.16791
▁ယောက်	-9.16903
▁ပို၍	-9.1702
▁ဗ	-9.17118
လည်	-9.17571
▁တပ်ရင်း	-9.17601
သန်း	-9.17641
အောက်	-9.17661
▁အဆင့်	-9.17691
▁ကျန်	-9.17757
ပါး	-9.17785
▁သိမ်းပိုက်	-9.17799
တည်	-9.17818
▁လွှတ်တော်	-9.17894
▁ရှမ်း	-9.17955
ရုပ်ရှင်	-9.17998
▁စိုက်ပျိုး	-9.18028
အင်း	-9.18029
▁ကျောင်းသား	-9.18159
▁စစ်သား	-9.18294
▁နောက်ထပ်	-9.1835
ရ်	-9.18367
အကူအညီ	-9.1843
တစ်ခုကို	-9.18442
▁သေဆုံး	-9.18725
ကူ	-9.18726
စာမျက်နှာ	-9.18842
ဥပဒေ	-9.18843
▁နိုင်ငံခြား	-9.18894
အသင်း	-9.1893
တစ်ဦး	-9.19177
သက်	-9.19206
ပြား	-9.19282
မြတ်	-9.19325
အုပ်စု	-9.1957
ကူး	-9.19727
▁တာ	-9.19822
▁မြင်း	-9.19836
င်	-9.19838
က်	-9.19884
သလို	-9.19909
မျက်မြင်	-9.20001
▁နှစ်ပေါင်း	-9.20051
▁မြို့တော်	-9.2009
ရေးသား	-9.20138
▁မျိုး	-9.2015
၂၅	-9.20191
သကဲ့သို့	-9.20212
▁၂၀၁၆၊	-9.2023
▁သွေး	-9.20353
သင့်	-9.20408
ငှက်	-9.2054
ဝေ	-9.20669
နိုင်ငံမြန်မာပြ	-9.20694
ပြုလုပ်	-9.20736
▁ကွန်ပျူတာ	-9.20748
▁၄၀	-9.20803
စီးပွားရေး	-9.20829
စာရင်း	-9.20904
ဒုတိယ	-9.20953
မည်ဟု	-9.20993
ဝါဒ	-9.21117
▁စစ်ကိုင်း	-9.21206
ပုဂ္ဂိုလ်များ	-9.2127
အစီအစဉ်များ	-9.21279
▁မြန်မာပြည်	-9.21301
▁ဖေဖော်ဝါရီလ	-9.21339
▁အချို့သော	-9.21544
ဖြစ်စေ	-9.21547
▁ဂီတ	-9.21587
လည်းကောင်း၊	-9.218
မတ်	-9.21834
▁အောင်	-9.21881
အေး	-9.21938
နိုင်သည့်	-9.21965
▁ဇန်နဝါရီလ	-9.22027
▁သားတော်	-9.22375
ခုနှစ်တွင်	-9.22377
▁စက်	-9.22774
▁ရဲ့	-9.22909
▁ဆန်	-9.2322
▁လက်ခံ	-9.23269
စေသည်။	-9.23383
▁သွားရောက်	-9.23408
▁ရန်ကုန်မြို့	-9.2341
▁ပါး	-9.2343
ဆိပ်	-9.23553
▁ဝန်ကြီး	-9.23635
▁နံနက်	-9.23667
▁ဆောင်းပါး	-9.23786
ပ်	-9.23841
▁စစ်မှုထမ်း	-9.23857
▁တတိယ	-9.23877
▁ဓမ္မ	-9.23946
ရုပ်	-9.2395
ချက်လင့်ခ်များ	-9.23955
နို	-9.2397
▁ကုမ္ပဏီ	-9.24274
လယ်	-9.24386
ထည့်သွင်းကူးယူ	-9.244
ဆန်း	-9.24425
တိ	-9.24456
ခြင်းသည်	-9.24569
မော်	-9.24589
▁ရှမ်းပြည်နယ်	-9.24663
▁ကြိုးစား	-9.24688
၁၉	-9.24719
▁ဖော်ပြ	-9.24794
မော်ကွန်း	-9.25089
ပဲခူး	-9.2514
အဖွဲ့ဝင်	-9.25268
လင်	-9.25268
▁၃၂	-9.25297
မှန်	-9.25362
▁ကီလိုမီတာ	-9.25379
▁စား	-9.25489
▁ကျ	-9.25687
▁တိုက်ရိုက်	-9.2575
▁၁၀၀	-9.26027
ထားပါတယ်	-9.26065
▁အကယ်၍	-9.26077
▁အလုပ်သမား	-9.26082
နေစဉ်	-9.26307
အခြား	-9.26433
ပူ	-9.2645
▁ရှိပြီး	-9.2649
▁ပေး	-9.26914
▁အတွေ့အကြုံ	-9.26999
▁လူမျိုး	-9.27033
▁စစ်ဆင်ရေး	-9.2716
ကိုး	-9.27242
▁ပြည်တွင်း	-9.27314
▁မိသားစု	-9.27405
ရိုက်	-9.27424
ပါသည်	-9.27467
တင်ပြီး။တွင်	-9.27596
ခို	-9.27822
မှစ၍	-9.27902
▁ပုဒ်မ	-9.27907
▁ရှေး	-9.27929
ဆွေးနွေး	-9.2807
▁ပြောင်းရွှေ့	-9.28078
▁နေထိုင်	-9.28094
ဗာ	-9.2821
▁အလယ်	-9.28295
▁အုပ်ချုပ်	-9.28319
▁သို့တည်းမဟုတ်	-9.28392
▁လာရောက်	-9.28616
စုစုပေါင်း	-9.28729
ကြာ	-9.28849
ဆဲ	-9.29011
▁ဒီမိုကရေစီ	-9.29102
သတ်	-9.29103
သင်၏	-9.29185
တွဲ	-9.29187
ဖာ	-9.29271
▁အခု	-9.29282
ml	-9.29298
▁လုပ်ကိုင်	-9.29309
အင်	-9.29329
oan	-9.29397
▁မြောက်ပိုင်း	-9.29426
▁စီး	-9.29438
ews	-9.29493
ေ	-9.29607
တီး	-9.2965
▁အများအပြား	-9.29771
စေတီ	-9.29792
ပီ	-9.2984
စုံ	-9.29978
အနက်	-9.30001
▁ဒီဂရီ	-9.30206
မယ့်	-9.30231
▁လည်းကောင်း	-9.30439
ပြောင်း	-9.3049
ချောင်းရွာ၊	-9.30522
ကောက်	-9.30541
▁လုပ်ဆောင်မှု	-9.30554
▁ကား	-9.30561
▁ဆီ	-9.30648
▁ကျင်းပ	-9.30674
ဖြစ်ကြောင်း	-9.30713
▁သေ	-9.30717
▁ဆာ	-9.30726
စာအုပ်	-9.30772
▁နယ်မြေ	-9.30912
ခဲ့ကြသည်	-9.31051
၂၉	-9.31112
▁ပစ္စည်း	-9.31135
သင်	-9.31156
အခြေအနေ	-9.31495
၂၇	-9.31511
တိုက်ခိုက်မှု	-9.31521
▁အစိတ်အပိုင်း	-9.31557
စခန်း	-9.3156
ထားခြင်း	-9.31574
▁နိုဝင်ဘာလ	-9.31619
တော်လှန်ရေး	-9.31669
▁အပြောင်းအလဲများ	-9.3169
တောင်ရွာ၊	-9.317
▁ဖြစ်ကြသည်။	-9.31808
▁ဒေါ်လာ	-9.31824
▁အမျိုးမျိုး	-9.31958
ဂျီ	-9.31986
▁အဓိပ္ပာယ်	-9.32109
▁ယခင်က	-9.32197
စော	-9.32397
လောင်း	-9.32409
▁သီချင်း	-9.32453
▁၎င်းသည်	-9.32598
၂၀၂၅ကွ	-9.32655
ဆွေးနွေးပံ့ပိုး	-9.32745
တံ	-9.32969
သဘော	-9.3299
▁ဗိုလ်ချုပ်ကြီး	-9.32998
▁ထွက်	-9.33012
▁၂၀၀၉	-9.33136
▁ဆွေးနွေး	-9.33178
▁ကျေးရွာ	-9.33197
▁ပြ	-9.33353
ကွယ်လွန်	-9.33417
▁တိုက်ပွဲ	-9.33548
▁တိုင်းပြည်	-9.33584
▁ဆိုပါတယ်	-9.33588
▁ခုနှစ်မှ	-9.33593
▁မြင်	-9.33633
၂၂	-9.33761
ခဲ့၏။	-9.33806
▁ဒီဇင်ဘာလ	-9.33879
ခဲ့ခြင်း	-9.33931
မင်းသား	-9.33934
အုပ်	-9.33955
တောင်း	-9.34109
ဆွဲ	-9.34137
▁ရှေးဟောင်း	-9.34239
နေပြီး	-9.34427
ဆောင်ရွက်	-9.34521
သည့်အခါ	-9.34566
တိုင်းဒေသကြီး၊	-9.346
အပ်	-9.34744
လေ့ရှိသည်။	-9.34761
▁ကုလသမဂ္ဂ	-9.34813
တောင်ပိုင်း	-9.34861
ထပ်	-9.34963
ပျက်	-9.34973
ဤ	-9.35206
▁တိုးတက်	-9.3523
▁သမီး	-9.35233
မွေးဖွား	-9.35235
ကြ၏။	-9.35259
▁ဒီလို	-9.3529
▁စနစ်	-9.3531
တိုး	-9.35416
▁ကာလ	-9.35501
▁စာရေးဆရာများ	-9.35502
နည်းပညာ	-9.35534
ဒေါက်တာ	-9.35594
▁ပြည်	-9.35628
▁နန်း	-9.35658
▁တည်ထောင်	-9.35658
▁လူထု	-9.3567
▁ဒ	-9.35691
၂၆	-9.35701
▁ရွှေ့ပြောင်း	-9.35773
▁ဝက်	-9.35782
ဖွဲ့	-9.3579
သမား	-9.35955
သံတူကြောင်းကွဲ	-9.35983
ောက်	-9.35987
လစ်	-9.36023
ဉာဏ်	-9.36202
▁ရရှိ	-9.36283
မြို့တော်	-9.36383
ဈေး	-9.36468
▁ကရင်	-9.36483
၂၄	-9.36514
▁တရုတ်နိုင်ငံ	-9.36537
နိ	-9.36604
လာသော	-9.36717
၂၈	-9.36911
▁၁ဝ	-9.36943
င်း	-9.36943
တိုက်ပွဲ	-9.37039
အဖွဲ့အစည်း	-9.37088
ရောင်	-9.37132
ဆင်း	-9.37161
မြို့တွင်	-9.37256
သာယာဝတီခရိုင်၊	-9.37268
▁သို့သော်လည်း	-9.37574
ဖွံ့ဖြိုးတိုးတက်	-9.37614
ပင်လယ်	-9.37676
▁မိမိ၏	-9.37695
သီ	-9.37742
▁ဆိုသည်။	-9.37837
စာတွဲ	-9.37855
▁ဗုံးကျဲ	-9.37864
လေ၏။	-9.37916
ပေါ့	-9.37945
▁ပေါက်	-9.38142
လွန်	-9.38256
ပြည့်	-9.38294
▁အတူ	-9.38308
။တွင်	-9.38348
ရေးအတွက်	-9.38486
အချိန်	-9.38498
▁တွေ့ရသည်။	-9.38602
▁သတင်းစာ	-9.38706
▁ရှိသော	-9.38744
▁ဘာသာရေး	-9.38805
▁အခါ	-9.3882
တော်မူ	-9.38824
▁ကိုယ်စားလှယ်	-9.38904
▁ကမ္ဘောဒီးယား	-9.38929
▁ငွေကြေး	-9.38968
▁ဘယ်လို	-9.39051
▁အာရှ	-9.39062
▁၃၅	-9.39112
▁နောက်ပိုင်းတွင်	-9.39187
▁ကမ္ဘာ	-9.39275
အစီအစဉ်	-9.39337
လတ်	-9.39352
ယင်း	-9.39376
လောက	-9.39444
▁သီးခြား	-9.39502
▁ပျက်စီး	-9.39771
▁ထုတ်ပြန်	-9.39775
လည်းကောင်း	-9.39808
ညို	-9.39934
ပထဝီဝင်တည်နေရာ	-9.39934
စိုး	-9.39951
▁တက်ရောက်	-9.39953
▁ထောင်	-9.39991
စိန်	-9.40042
▁အကြီးဆုံး	-9.40056
▁ဖြစ်၏။	-9.40413
▁ဘယ်	-9.40515
▁အေဒီ	-9.40717
▁အနည်းဆုံး	-9.40792
ဘွဲ့	-9.41019
▁ထ	-9.41047
ခု	-9.41057
တပ်ဖွဲ့	-9.41121
▁စက်တင်ဘာလ	-9.41304
▁သဘော	-9.41425
▁ရဲ	-9.41534
စင်	-9.41639
▁လွတ်လပ်ရေး	-9.41695
မဟာ	-9.41778
ခဲ့ရသည်။	-9.41883
မြို့၊	-9.4189
▁အောင်မြင်	-9.41952
▁ကာကွယ်ရေး	-9.41965
▁၎င်းတို့	-9.42085
ပညာရေး	-9.42085
▁ဇ	-9.42086
▁အထူးစာမျက်နှာ	-9.42152
ထိုင်း	-9.4221
▁သင်္ဘော	-9.42383
▁သက်ဆိုင်ရာ	-9.42422
ထွန်း	-9.42424
▁အောက်တိုဘာလ	-9.42506
▁ဗဟို	-9.42519
▁ဗိုလ်	-9.42619
လူဦးရေ	-9.42623
ပိုး	-9.42675
▁ကိရိယာများ	-9.42676
သွေး	-9.42677
▁အာဏာ	-9.42719
▁မွန်	-9.42818
ကျင်း	-9.42897
▁၃၃	-9.42903
▁တို့ကို	-9.4292
လျက်ရှိသည်။	-9.42958
လုံခြုံရေး	-9.43048
တွေ့	-9.43155
ထံမှ	-9.43163
များကြောင့်	-9.43183
▁မီတာ	-9.4319
ရသည့်	-9.43272
ဖွယ်	-9.43285
▁ဗုဒ္ဓ	-9.43399
တဲ	-9.43478
ကုမ္ပဏီ	-9.43498
သတင်းဌာနထံသို့	-9.43521
▁ထိန်းသိမ်း	-9.4378
ပါဝင်	-9.43829
မြန်မာ့	-9.43831
▁ဆရာတော်	-9.43916
ကြည်	-9.4394
ဆိုး	-9.44037
ဓမ္မ	-9.44092
လာသည်။	-9.4432
ပါတယ်။	-9.44336
▁ပုံစံ	-9.44545
ခိုင်း	-9.44588
စပ်	-9.44693
▁ကံ	-9.4473
ဌာနချုပ်	-9.44761
▁ဖန်	-9.4485
အနေနဲ့	-9.4489
▁မရှိ	-9.44925
၄၁	-9.45024
အမျိုးမျိုး	-9.45092
ပု	-9.45238
▁တည်ဆောက်	-9.45241
▁မွေးဖွား	-9.45246
▁မဲ	-9.45257
ပန်	-9.45329
ဂူ	-9.45394
▁ထိုကြောင့်	-9.45473
အိုး	-9.45505
ပေးရန်	-9.4572
မြင်	-9.4575
▁ကိုယ်တိုင်	-9.45752
▁အကောင်းဆုံး	-9.45754
နွယ်	-9.45777
▁အပြင်	-9.45879
ထဲသို့	-9.45882
▁ဧက	-9.45896
ဒို	-9.45982
▁အနုပညာ	-9.46025
ခြင်းဖြစ်ကြောင်း	-9.46114
သေး	-9.46164
▁စာမျက်နှာကို	-9.46227
သတင်း	-9.46274
▁မပါဝင်သော	-9.46339
▁အိန္ဒိယနိုင်ငံ	-9.46384
မှူး	-9.4645
▁ခင်	-9.46476
ကော	-9.465
▁ယင်းသို့	-9.46511
စာမျက်နှာများသည်	-9.467
▁အဖွဲ့အစည်း	-9.46745
▁ကမ္ဘာပေါ်တွင်	-9.46799
▁ကြာ	-9.46869
▁ကာကွယ်	-9.46932
ခင်း	-9.47145
သာလျှင်	-9.47173
▁ကင်း	-9.47201
အသုံးပြု	-9.47254
ခေါင်း	-9.47259
▁ပင်	-9.47276
▁အနည်းငယ်	-9.47396
များ၌	-9.47507
▁တစ်ဦး	-9.47563
ကိုယ်	-9.47564
▁ရာသီဥတု	-9.47754
ပို့	-9.47908
နိုင်ငံများ	-9.4801
▁အောက်ပါအတိုင်း	-9.48071
▁ပုဂံ	-9.48084
ပေါင်းများစွာ	-9.48106
ပံ့ပိုးမှု	-9.48171
▁လက်နက်ကိုင်	-9.48175
ခတ်	-9.48287
ခုံ	-9.4843
▁မို	-9.48432
အပ်သော	-9.48455
နှင့်တကွ	-9.48456
ဝတ်	-9.4846
ရှိသည့်	-9.48466
▁နေအိမ်	-9.48469
▁ကျပ်	-9.48534
ယား	-9.4854
▁ချိတ်ဆက်ထားသည်	-9.48612
▁စတုရန်းမိုင်	-9.48681
▁ဖန်တီး	-9.48735
နေကြောင်း	-9.48748
▁ဟ	-9.48799
▁လွဲ၍	-9.48859
▁ပြင်ဆင်	-9.48885
လော	-9.48939
များ။	-9.48942
▁တောင်းဆို	-9.48966
၃၄	-9.48969
▁စာရေးဆရာ	-9.4901
ဝတ္ထု	-9.49128
▁နှစ်စဉ်	-9.49157
▁ငြိမ်းချမ်းရေး	-9.4919
▁ချင်း	-9.49205
▁ဒေသခံ	-9.49206
▁အက္ခရာ	-9.49219
ဆူ	-9.49311
သိန်း	-9.49311
▁ဆောင်	-9.49318
▁ကြိမ်	-9.49331
ဖြစ်သူ	-9.49346
ခဲ့လေသည်	-9.49399
အချို့	-9.49507
အစ	-9.49532
ကိုယ်စားလှယ်	-9.49588
ပုံကို	-9.49602
▁လေယာဉ်	-9.49621
▁၂၀၀၀	-9.4963
▁ဆက်စပ်သော	-9.49634
ပြည်သူ့လွှတ်တော်	-9.49677
▁စကားလုံး	-9.49679
▁လုံးဝ	-9.49696
ကြီးများ	-9.4973
တု	-9.49809
ကိုင်	-9.49837
▁ယုံကြည်	-9.49848
▁ပေါင်း	-9.4989
ကြီးကို	-9.49973
နေပါတယ်	-9.50057
▁ခု၊	-9.50134
ဝါး	-9.50179
အခြေစိုက်	-9.50236
▁ဖြစ်စေ	-9.50341
မြ	-9.50373
မို	-9.50392
တံတား	-9.50433
နေတာ	-9.50437
နိုင်ခဲ့သည်။	-9.50438
ဝီကီဒေတာ	-9.50494
▁အစ	-9.50634
ဂီတ	-9.50782
တာတွေ	-9.50829
မျိုးကို	-9.50878
ရှု	-9.51173
ချေ	-9.51463
▁အီ	-9.51531
ရခိုင်ပြည်နယ်ရှိ	-9.51566
▁လိုအပ်သော	-9.51578
▁ထင်ရှား	-9.51586
ဥက္ကဋ္ဌ	-9.51611
▁ရှာဖွေ	-9.51614
▁တည်	-9.51772
▁ဝါး	-9.51781
ကြသော	-9.51811
▁မြစ်	-9.51907
ထူး	-9.52061
▁ကြား	-9.52153
ပွင့်	-9.52186
ခဲ့သူ	-9.5233
ကျား	-9.52347
ရခြင်း	-9.5245
▁တခြား	-9.52538
တစ်မျိုး	-9.52541
▁ပုံမှန်	-9.52562
▁ထွက်ပြေး	-9.52577
▁စစ်ပွဲ	-9.5259
ချစ်	-9.52669
ဖန်	-9.52733
လိ	-9.52784
▁ထိုနောက်	-9.52786
အကြား	-9.52845
ဝိ	-9.52872
▁ဌာန	-9.52934
မန်း	-9.52972
လေ့လာသူများ	-9.5309
ကမ္ဘာ	-9.53237
ထံသို့	-9.5325
▁အသုံးပြုသူ	-9.53286
၎င်း	-9.53308
ရာမှ	-9.53336
ကဲ့သို့သော	-9.53414
▁တောင်ပိုင်း	-9.53421
လေ့လာ	-9.53467
ပြီ	-9.535
▁ပြောင်း	-9.53536
ိုင်းစစ်ဌာနချုပ်	-9.53655
ဘုံ	-9.5367
သက်ရှိထင်ရှား	-9.53749
▁မိနစ်	-9.53832
▁အကြားရှိ	-9.53883
ဝိုင်း	-9.5405
ခြေ	-9.54303
အတွေ့အကြုံရှိ	-9.54319
မှုနှင့်	-9.54429
▁မြတ်စွာဘုရားသည်	-9.54439
▁၁၉၄၈	-9.54574
▁သာ	-9.54582
ီ	-9.54591
ကြိုး	-9.54871
တစ်ယောက်	-9.54907
▁မင်းသား	-9.54966
ရန်ကုန်တက္ကသိုလ်	-9.54995
▁ခရစ်ယာန်	-9.55092
ကော်	-9.55194
▁ဆက်သွယ်ရေး	-9.55204
▁လူ့အခွင့်အရေး	-9.55227
▁စာပေလက်ရာ	-9.55255
▁ဖြစ်လာ	-9.55261
ယန်	-9.55291
▁နွား	-9.55316
ရှင်းလင်းရမည့်	-9.55326
▁လူငယ်	-9.55582
▁ယူဆ	-9.55617
▁မင်္ဂလာ	-9.55631
▁ကွယ်လွန်	-9.55634
ဝက်	-9.55732
▁များသောအားဖြင့်	-9.55753
▁ဟို	-9.55765
w	-9.55813
။။တွင်	-9.55822
▁မီဒီယာ	-9.55859
ကွက်	-9.55909
▁ခုနှစ်အထိ	-9.55932
လိုင်း	-9.56074
ချိန်တွင်	-9.56147
ဓ	-9.56203
အခြားသူများ၏	-9.56302
ရှင်း	-9.56308
ဘို	-9.56342
ခြောက်	-9.56425
▁တွေ့	-9.56483
▁ရောက်ရှိ	-9.56492
ဒေါ်	-9.56494
ပြန်လည်	-9.56559
ပထမ	-9.56578
▁အေ	-9.56646
ဝဂ်	-9.56754
▁အသီးသီး	-9.56755
လွန်း	-9.56771
အခြေခံ	-9.5678
▁မိခင်	-9.56847
ဖြစ်ပါတယ်	-9.56851
ခိုင်	-9.56959
အစိုးရအဖွဲ့	-9.57008
သမ္မတ	-9.5703
▁၂၀၁၇၊	-9.57119
▁၁။	-9.57145
▁ခရစ်	-9.57275
▁ဖော်ပြထားသော	-9.573
▁ကောင်းစွာ	-9.57353
တောင်ငူခရိုင်၊	-9.57405
▁ဆား	-9.57472
▁သင်ကြား	-9.57601
ထဲမှ	-9.5761
▁၆၀	-9.57689
▁ချစ်	-9.57763
▁ဓာတ်	-9.57852
တွင်မူ	-9.57885
▁ကူညီ	-9.57889
ရိ	-9.57931
▁တိုင်း	-9.58019
▁သိန်း	-9.5803
၅၁	-9.58077
ဖွဲ့စည်းပုံ	-9.58139
မင်းကြီး	-9.58264
နောင်	-9.58392
▁နှစ်အရွယ်	-9.58573
▁မန္တလေးမြို့	-9.58626
▁အမှား	-9.58742
▁ထိ	-9.58773
လွယ်	-9.58773
▁အက်	-9.58775
အောင်ဆန်းစုကြည်	-9.58809
▁အုပ်စု	-9.58848
လုပ်ငန်းများ	-9.58887
▁တဖြည်းဖြည်း	-9.58911
▁ဆုံးဖြတ်	-9.59062
▁ပြည်သူများ	-9.59159
မှတ်ပုံမတင်ထား	-9.59164
အင်္ဂလိပ်သည်	-9.59182
▁လွယ်	-9.5921
ဇင်	-9.59216
▁ဖာ	-9.59316
▁ဦးကို	-9.59335
▁အထက်နှင့်	-9.59385
▁သုံးစွဲ	-9.59434
မှတ်ပုံတင်ထားသူ	-9.59448
▁ဦးဆောင်	-9.5951
▁စသည်ဖြင့်	-9.59555
▁စီ	-9.5956
ထု	-9.59562
တခု	-9.59567
▁လှုပ်ရှားမှု	-9.59669
▁၂၀၀၇	-9.59671
ကျန်းမာရေး	-9.59675
▁မူ	-9.59745
ဝင်ထားသည့်	-9.59811
ပေ။	-9.59894
▁စီမံကိန်း	-9.59937
နစ်	-9.5998
ဖိုင်	-9.60008
▁တွဲ	-9.60093
တုံး	-9.60104
▁ဝိ	-9.60176
▁ဖိုင်	-9.6019
ကိုင်း	-9.6035
▁လိုအပ်	-9.60357
ရှိ၍	-9.60382
▁နည်း	-9.60487
▁လုပ်ကိုင်မှု	-9.60714
▁ဆက်သွယ်	-9.60832
။အလိုအလျောက်	-9.60856
▁အနက်	-9.60905
▁ထိခိုက်	-9.61002
ဖို	-9.61026
▁ဖတ်	-9.61073
မှတ်စု	-9.61075
နေသည်။	-9.6112
▁ကျော်သည့်	-9.61148
ရွက်ချက်များမှ	-9.6115
တန်ဖိုး	-9.61219
သော်လည်းကောင်း၊	-9.61244
သူအကောင့်မ	-9.61247
o	-9.61247
ကိုယ်တိုင်	-9.61249
မြို့မှ	-9.61296
▁လျှပ်စစ်	-9.61312
ပိတ်	-9.61333
သင့်ဆောင်	-9.61351
▁ထုတ်	-9.61388
ကယ်	-9.61451
က်အောက်ရှိသော	-9.61505
များဘော့အလိုအလျ	-9.61527
အကောင့်ဝင်ထား	-9.61545
▁အင်း	-9.61582
ကြိမ်အောက်	-9.6161
▁မိဖုရား	-9.61617
အနီး	-9.6173
ို့	-9.61931
လိပ်	-9.61932
▁ခေါ်သည်။	-9.61969
ခမ်း	-9.62091
▁ဆိုသည်	-9.62093
▁အချက်အလက်	-9.62103
▁သေနတ်	-9.62119
▁ဘာသာပြန်	-9.62143
ဗိုလ်ချုပ်	-9.62149
▁တာဝန်ယူ	-9.62161
▁ဆိုသည်မှာ	-9.62183
▁ဘော့မဟုတ်လူတည်း	-9.62199
▁အတွေ့အကြုံရှိ	-9.62243
▁အလက	-9.62267
▁တိရစ္ဆာန်	-9.62271
▁ရက်စွဲ	-9.62299
ဒင်	-9.62408
လပ်	-9.62455
ဖြတ်သူများ၏	-9.62522
▁နာ	-9.62555
။လူ	-9.62575
ပြောဆို	-9.6263
▁ရှေ့	-9.62631
ဏ	-9.62653
ဖော်	-9.62657
▁၈၀	-9.62678
ရှမ်း	-9.62679
▁လက်မ	-9.62749
ညာ	-9.62759
ကတည်းက	-9.6298
▁ချီးမြှင့်	-9.63148
▁ဖခင်	-9.63154
▁ဆယ်	-9.63159
ဝက်ဘ်ဆိုဒ်	-9.63222
▁ဂျာမန်	-9.63246
▁အဖွဲ့ဝင်နိုင်ငံ	-9.6325
▁မစ္စတာ	-9.63314
အမျိုးသမီး	-9.63327
▁သူ့ကို	-9.6339
ခ်	-9.63591
▁အလားတူ	-9.63637
▁ဈေး	-9.63701
ရာဇာ	-9.63837
▁မကြာခဏ	-9.63852
▁ဆက်ဆံရေး	-9.63865
အတွင်းသို့	-9.6398
▁အသိအမှတ်ပြု	-9.64024
ကိစ္စ	-9.64067
မက်	-9.64124
▁နိုင်ငံရေးပါတီ	-9.64174
ကင်	-9.64192
▁ဗုံး	-9.6423
အလုပ်အကိုင်	-9.64234
အထက်	-9.64259
▁၁၉၄၇	-9.64282
▁လောက	-9.64342
၂၀၂၁	-9.644
သဲ	-9.64411
အလုပ်	-9.64482
▁မိုင်း	-9.64575
ဖြစ်ကာ	-9.64621
▁တပ်သား	-9.647
ကိန်း	-9.64728
▁နယ်	-9.64788
▁သင့်	-9.64799
▁မိန်းမ	-9.64944
▁ဖြစ်ပွား	-9.64956
ခြင်းများ	-9.64972
ညီ	-9.65003
ပညာရှင်	-9.65013
ရွာနိုင်ငံမြန်မာ	-9.6502
▁မှတ်	-9.65163
▁၁၉၈၈	-9.65204
ပုဂ္ဂိုလ်	-9.65278
▁စိုက်ပျိုးရေး	-9.65302
▁အာဖရိက	-9.6532
အရေအတွက်	-9.65361
▁ဘာသာ	-9.65375
▁၂၀၀	-9.65407
နှစ်ခု	-9.65452
ကြီးရွာ၊	-9.65481
ချေ။	-9.65537
ဆစ်	-9.65559
ိ	-9.65566
▁ဗိုလ်မှူးကြီး	-9.65592
လု	-9.65639
အက္ခရာ	-9.65663
▁ကျွန်တော်တို့	-9.65763
ကီ	-9.65766
ဆယ်	-9.65769
ဆော	-9.6579
အရာ	-9.65795
▁ရာစုနှစ်	-9.6593
ကြပြီး	-9.65938
▁ကဗျာ	-9.65948
စီမံကိန်း	-9.65964
▁အစီအစဉ်	-9.65966
လာပြီး	-9.65967
တတ်သည်။	-9.6601
သီချင်း	-9.66065
အနောက်	-9.66134
▁ကြိုးပမ်း	-9.66158
မော	-9.66178
▁ခွေး	-9.66181
▁မြို့နယ်များ	-9.66191
ရွက်	-9.66331
▁မယ်	-9.66422
နိုင်ငံအလိုက်	-9.66422
လန်း	-9.66422
▁တင်ပြ	-9.66543
ဟုလည်း	-9.66544
နှုန်း	-9.66615
စတုရန်းကီလိုမီတာ	-9.66648
▁ခွဲခြား	-9.66651
လော့	-9.66656
▁တည်ရှိသည်	-9.66673
▁၁၉၉၀	-9.66727
အခန်း	-9.66815
▁သူ့ရဲ့	-9.66816
ဘက်မှ	-9.6685
ဖြတ်	-9.66851
▁၂၀၀၅	-9.66876
ပေသည်။	-9.66954
ခဲ့ကာ	-9.66966
▁ဘီလီယံ	-9.66993
▁ရွှေ့ခဲ့သည်	-9.67024
အရှေ့	-9.67038
▁တောင်ဘက်	-9.67097
▁စော	-9.67145
▁ပါဝင်သည်	-9.67285
အီ	-9.67318
နိုင်ငံတော်သမ္မတ	-9.67393
▁ဖြစ်ပေါ်	-9.67429
▁အမြဲ	-9.6749
▁အဖွဲ့အစည်းများ	-9.67531
ဖြစ်တဲ့	-9.6767
▁အသင်တို့သည်	-9.6777
▁ခေတ်	-9.67783
မှုများကို	-9.67784
ော	-9.6779
▁ပြုပြင်	-9.67819
နေရာများ	-9.67952
▁ကျနော်တို့	-9.67964
▁စသည်တို့	-9.67994
နီး	-9.68003
▁ကျိုင်းတုံ	-9.68043
ဗီ	-9.68062
။အရေးပါထင်ရှား	-9.68104
လာခဲ့သည်။	-9.68129
ဘေး	-9.68167
▁၂၀၀၆	-9.68223
သာမက	-9.68277
▁မြောက်ဘက်	-9.68354
▁ရပ်	-9.68416
▁ဆရာကြီး	-9.68419
▁အပြန်အလှန်	-9.68444
အတွင်း၌	-9.68445
ကွန်	-9.68471
ထင်	-9.68475
▁အဆောက်အအုံ	-9.68602
▁ခေတ်သစ်	-9.68947
စေတီတော်	-9.68951
▁ပြည့်နှစ်တွင်	-9.68952
▁ဒါရိုက်တာ	-9.69024
၂၀၁၀	-9.69105
▁ရတနာ	-9.69109
▁ထိုစဉ်က	-9.69168
▁ဘုရားရှင်	-9.69251
▁၃၇	-9.69266
စေ့	-9.69267
တစ်ခုဖြစ်သည်။	-9.69314
▁နောက်ပိုင်း	-9.69331
▁တချို့	-9.69383
လောင်	-9.69426
သရုပ်ဆောင်	-9.69472
ရေးနှင့်	-9.69483
▁နာမည်	-9.69499
▁ဒု	-9.69542
ရောင်း	-9.69635
ချုပ်ခွင့်ရဒေသ	-9.69656
တတ်သော	-9.6982
ရံ	-9.69912
သွင်း	-9.69916
အောက်တွင်	-9.69961
▁ပတ်သက်၍	-9.70075
အကိုးအကား	-9.70142
ဟို	-9.70148
ဒီမိုကရေစီ	-9.70163
တည်နေရာ	-9.70181
▁တွေ့ရှိ	-9.70188
▁ရခိုင်ပြည်နယ်	-9.70244
ပြည်သူ့ကာကွယ်ရေး	-9.70268
▁ပြောကြားသည်	-9.70406
မောင်း	-9.70417
န်း	-9.70424
▁ဒုတိယဗိုလ်ချုပ်	-9.70477
တူး	-9.7053
ယ်	-9.70562
▁ဗမာ	-9.70622
▁လျှောက်ထား	-9.70654
▁အရှေ့ဘက်	-9.70694
ချို	-9.7077
မှာပဲ	-9.70778
▁စစ်ဆေး	-9.7086
▁အပိုင်း	-9.70875
နာရီ	-9.70883
▁၂။	-9.70907
သု	-9.70951
အလွန်	-9.70988
▁အပင်	-9.71043
အရေး	-9.71281
▁ရိုးရာ	-9.71283
ခဲ့ပြီးနောက်	-9.71284
အေ	-9.71335
▁၁၉၆၂	-9.71365
▁ရှင်းလင်း	-9.71387
▁မက်	-9.71422
▁ခန့်မှန်း	-9.7144
▁ခေါင်း	-9.71491
▁အရာရှိ	-9.71527
▁အတ္ထုပ္ပတ္တိ	-9.71628
ကြလေသည်။	-9.71635
▁လိုက်	-9.71716
ကွ	-9.71756
ချောင်	-9.71769
▁ထပ်	-9.71788
ယံ	-9.71805
▁နေ့စဉ်	-9.71821
ဇီ	-9.71829
မှုအရေးမကြီးသည့်	-9.71905
▁အရောင်	-9.71914
▁တိုက်ပွဲများ	-9.71924
မဟုတ်	-9.7195
မှတ်	-9.71973
အစချီသော	-9.72106
အထူး	-9.72112
လမ်းကြောင်း	-9.72115
င့်	-9.72149
ဆိုရင်	-9.72177
ကေ	-9.72192
▁မြတ်စွာဘုရား	-9.72243
အဖွဲ့အစည်းများ	-9.72318
ဘုန်းကြီးကျောင်း	-9.72398
▁သာမန်	-9.72422
ခါး	-9.72473
▁၄၅	-9.72511
ခဲ့သည်ဟု	-9.72529
▁ယာယီ	-9.72552
/7	-9.7263
ဇ်	-9.7266
ဆိုင်း	-9.72661
▁၁၉၄၅	-9.72705
▁ငှက်	-9.72726
▁အနောက်ဘက်	-9.72735
ခွန်	-9.72762
▁အရွယ်	-9.72799
▁အကျယ်တဝင့်	-9.72836
စုရွာ၊	-9.72841
e	-9.72859
▁ခြေ	-9.72897
၂၀၁၇	-9.72913
ရှိရာ	-9.72952
▁အမိ	-9.72958
ပြေး	-9.73096
ဗေဒ	-9.73138
တွေလည်း	-9.73154
▁ဘီဘီစီကို	-9.73201
▁ပြည့်	-9.73222
▁စာအုပ်များ	-9.73276
မင်	-9.73292
ဖော်ပြ	-9.73322
ရမည်။	-9.73389
▁တီထွင်	-9.73464
▁အသစ်	-9.73466
ပြင်သစ်	-9.73473
လွင်	-9.73482
▁ဟော	-9.73664
ကွန်ပျူတာ	-9.73731
▁ပေါင်	-9.73865
▁အသား	-9.73877
▁ဝတ္ထု	-9.73938
ဝမ်	-9.74033
ရှ	-9.74049
▁ဖန်တီးလိုက်သည်	-9.74105
ထူ	-9.74117
▁သီးသန့်	-9.74126
▁တစ်ယောက်	-9.74143
တာကို	-9.7423
▁ကျွန်း	-9.74242
ကျန်	-9.74261
ဘတ်	-9.74328
▁ဂရိ	-9.74343
ဘက်သို့	-9.74353
▁၂၀၁၈၊	-9.74415
▁ကိုး	-9.74444
ရမည့်	-9.74447
▁သီလ	-9.74449
▁ဖြစ်ကြောင်း	-9.74495
ဆင့်	-9.74525
ရတနာ	-9.7455
ရခိုင်ပြည်နယ်	-9.74583
ဖျား	-9.74621
▁၂၀၀၄	-9.74751
ဃ	-9.74794
▁အသင်း	-9.74812
▁ဗိုလ်ချုပ်မှူး	-9.74839
▁ထုတ်လုပ်	-9.74932
▁ခန္ဓာကိုယ်	-9.74944
▁ကျမ်း	-9.75146
▁အတည်ပြု	-9.75249
▁စပါး	-9.75263
ကာကွယ်ရေး	-9.75433
ပေါ	-9.75438
▁ဒေသတွင်း	-9.75438
▁ရာထူး	-9.75474
▁လယ်	-9.75505
▁ဆိုင်ရာ	-9.75543
▁ဟံသာဝတီ	-9.75616
လှုပ်ရှားမှု	-9.75751
▁ထား	-9.75792
စည်း	-9.75854
▁ချက်	-9.7589
ခဲ့၍	-9.7589
ကြေး	-9.75896
▁တိုက်တွန်း	-9.75911
ပြောပါတယ်	-9.75994
▁မေး	-9.76019
▁မင်းအောင်လှိုင်	-9.76039
အများဆုံး	-9.76201
အသံ	-9.76318
နိုင်ခြင်း	-9.76319
လွတ်	-9.7636
စသည့်	-9.76365
▁ဒုတိယကမ္ဘာစစ်	-9.7639
▁ရုပ်	-9.76426
▁ဝန်ထမ်း	-9.76536
▁ပဲခူး	-9.76562
▁ကြည့်	-9.7659
▁၃၄	-9.76846
▁တမ်းပလိတ်လများ	-9.76855
ဖြစ်သည်ဟု	-9.7696
▁အမိန့်	-9.7703
▁သတင်းအချက်အလက်	-9.77124
▁ဆယ်စုနှစ်	-9.77217
နေပြည်တော်	-9.77309
ယု	-9.77418
ကိုးကား	-9.77592
စိုက်	-9.77663
ဖိုး	-9.77728
များအနက်	-9.77826
▁ဗိုလ်မှူးချုပ်	-9.77841
ပေါင်	-9.78001
▁စစ်ကြောင်း	-9.78045
ကြပါတယ်	-9.78073
နံ	-9.78085
ရှိ၏။	-9.78249
▁စိန်	-9.78253
လှိုင်	-9.78285
ဆောင်းပါးများ	-9.78306
စွဲ	-9.78355
▁စာလုံးတို့	-9.78384
ဧရိယာ	-9.78447
▁အသုံးချ	-9.78473
စောင့်	-9.78645
ကျပ်	-9.78646
ရာထူး	-9.78652
ငွေကြေး	-9.78654
ဟ်	-9.78689
▁သရုပ်ဆောင်	-9.78692
မင်္ဂလာ	-9.78704
▁မဟုတ်	-9.78712
▁မျက်နှာ	-9.78753
▁အစ္စရေး	-9.78774
ဂို	-9.78786
ဆက်သွယ်ရေး	-9.7882
▁သစ်ပင်	-9.78821
▁ဖိလစ်ပိုင်	-9.78837
ောက်ထပ်စာမျက်နှာ	-9.78886
▁ကြေညာ	-9.7892
သည်မြန်မာနိုင်ငံ	-9.7894
▁ကွန်	-9.78987
ပါဘူး	-9.79019
အောင်ဆန်း	-9.79034
ရေးဦးစီးချုပ်	-9.79061
လွှာ	-9.79111
▁အများအားဖြင့်	-9.79128
တေ	-9.79178
▁ပြုစု	-9.79249
တွင်းရှိ	-9.793
▁တူ	-9.79386
အိန္ဒိယ	-9.79445
▁ဒါ	-9.79489
▁စွမ်းအင်	-9.79508
▁ပါလီမန်	-9.79538
▁အင်ဒိုနီးရှား	-9.79626
သိပ္ပံ	-9.79674
အင်အား	-9.7973
လျင်	-9.79909
▁တစ်ဖန်	-9.80049
မိသားစု	-9.80068
ပေးခြင်း	-9.80097
▁ရုပ်ရှင်ဇာတ်ကား	-9.80136
▁အမြင့်ဆုံး	-9.80185
▁အပေါ်	-9.80187
လုပ်ကိုင်	-9.80243
▁ကော်	-9.80294
လေဆိပ်	-9.80393
▁ဖြစ်၍	-9.80405
ဟူ	-9.80429
စွမ်းအင်	-9.80435
▁၄၂	-9.80478
ကု	-9.80529
ဗိုလ်ချုပ်ကြီး	-9.80583
▁ပုဂ္ဂိုလ်	-9.80591
▁ဒါကြောင့်	-9.80609
▁နေ့	-9.80612
ညွန့်	-9.80637
▁ဆက်တိုက်	-9.80638
ဂိုဏ်း	-9.8064
▁စ၍	-9.80643
မယ်လို့	-9.80651
▁ပြဿနာ	-9.80662
▁ဆေးရုံ	-9.80678
▁နိုင်ငံ၏	-9.80815
ရုံးစိုက်ရာမြို့	-9.80826
▁လမ်းညွှန်ချက်	-9.80866
▁ခံယူ	-9.80898
▁၎င်းကို	-9.80936
▁အရေးပါသော	-9.80943
အန်	-9.80974
▁အလိုအလျောက်	-9.80975
အခြေခံဥပဒေ	-9.81071
နိုင်ငံ၊	-9.81087
ဖ်	-9.8111
▁ကိုယ့်	-9.81129
▁၂ဝ	-9.81129
▁မြ	-9.81249
▁သက်	-9.81328
လုပ်ဆောင်	-9.8133
ခက်	-9.81347
▁အင်းဝ	-9.81448
တုန်းက	-9.81461
▁အာဏာသိမ်း	-9.8149
ဂျာ	-9.81492
▁တို့သည်	-9.81562
ထိပ်	-9.81578
သမီး	-9.81635
▁ဖက်	-9.8164
အကြောင်းအရာ	-9.81807
▁သမ္မတနိုင်ငံ	-9.81975
▁စခန်း	-9.8202
အားလုံးကို	-9.82042
ဘက်က	-9.82055
အကြောင်းကို	-9.82118
တာဝန်	-9.82129
▁တနင်္သာရီ	-9.82149
▁ဧရိယာ	-9.82167
▁အခွင့်အရေး	-9.8223
▁သုတေသန	-9.8224
ပွား	-9.82314
▁ရည်ညွှန်း	-9.82315
ပိ	-9.82346
အပိုင်း	-9.82358
မွေး	-9.82376
▁ဆိုဗီယက်	-9.82379
ယို	-9.82429
မင်းသမီး	-9.82478
▁အဖွဲ့ချုပ်	-9.82505
မှီ	-9.82557
▁ထိန်းချုပ်	-9.82575
ရတဲ့	-9.82581
မား	-9.82582
▁မှန်	-9.82625
▁ရေနံ	-9.82649
ညွှန်ကြားရေးမှူး	-9.82707
နင်း	-9.82717
▁စက်ရုံ	-9.82727
▁၃။	-9.82779
▁တာဝန်ရှိသူ	-9.8278
▁အချင်းချင်း	-9.82798
အရေးအသား	-9.82822
မိုင်း	-9.82973
▁တန်	-9.82977
▁အစောပိုင်း	-9.82995
▁တရားမဝင်	-9.83057
ဂျပန်	-9.83071
တစ်ရပ်	-9.83169
စမ်း	-9.83208
ထား၍	-9.83211
▁မဟာမိတ်	-9.83277
နန်	-9.83313
တယ်။	-9.83352
တာက	-9.83471
၃၃	-9.83519
၂၀၁၅	-9.83591
၄၀	-9.83636
▁ထီး	-9.83738
သခင်	-9.83741
စစ်ပွဲ	-9.83764
▁ဆောက်လုပ်	-9.83766
▁ရင်းမြစ်များ	-9.83807
မှု၊	-9.83819
▁ဝယ်ယူ	-9.83863
ထီး	-9.83875
▁ရရှိခဲ့သည်။	-9.83914
ရွာသစ်	-9.83925
▁အထက	-9.8394
နိုင်တဲ့	-9.83956
၅၆	-9.83971
အပြီး	-9.83994
အစား	-9.83999
▁ကချင်	-9.84006
▁ဘေး	-9.84028
▁အီတလီ	-9.84057
▁စစ်ကြောင်းထိုး	-9.8409
▁လှုပ်ရှား	-9.8413
▁အသံထွက်	-9.84154
▁မိမိတို့၏	-9.84197
ဘဏ်	-9.84216
ဘာမှမရှိ	-9.84225
မေး	-9.84243
အုပ်ချုပ်ရေးမှူး	-9.84318
မဆို	-9.84321
၃၈	-9.84336
▁ဒုက္ခ	-9.84373
ပါဝင်သော	-9.84421
မင်းအောင်လှိုင်	-9.84463
▁ပြောင်းလဲမှုမျ	-9.84476
ားသင်၏	-9.8454
ရှား	-9.8454
ဝန်း	-9.8463
▁အချက်	-9.84645
▁အားကစား	-9.84691
္	-9.84795
များအဖြစ်	-9.84836
▁ဖျက်ဆီး	-9.84986
▁အထက်တန်းကျောင်း	-9.85013
▁စစ်ကောင်စီတပ်	-9.85104
ဝဲ	-9.85118
သက်တမ်း	-9.85125
လာတဲ့	-9.85253
▁ကွန်မြူနစ်	-9.85316
▁ပေါ်ပေါက်လာ	-9.85347
ပဲခူးခရိုင်၊	-9.85362
▁အရှေ့ဘက်တွင်	-9.85379
▁စစ်တပ်၏	-9.85409
တချို့	-9.8541
တုံ	-9.85453
ပြည်သူ့	-9.8547
ပစ္စည်းများ	-9.85482
ထွေး	-9.85487
မှာရှိတဲ့	-9.85527
ပီး	-9.85562
နိုင်ငံရှိ	-9.8559
ဋ	-9.85626
ဖွင့်	-9.85636
▁လူသား	-9.85683
▁စပိန်	-9.85693
▁ဘီ	-9.85713
သီလ	-9.85743
လိုင်	-9.85762
▁ချောင်း	-9.85844
နိုင်အောင်	-9.85852
သူသည်	-9.85856
▁ခန့်အပ်	-9.85865
လိုက်သည်။	-9.85895
▁အရှေ့တောင်အာရှ	-9.85916
▁သဘောတူ	-9.85971
ဩ	-9.86073
တစ်ပါး	-9.86113
▁ဆိုတဲ့	-9.86125
▁ပြည့်စုံ	-9.8614
နေထိုင်	-9.86246
စေခဲ့သည်။	-9.86264
▁ယူကရိန်း	-9.86272
ခဲ့ကြ	-9.86277
▁ရန်သူ	-9.86396
▁ဓား	-9.86429
▁ငလျင်	-9.86527
▁ရင်း	-9.86571
သမျှ	-9.86588
▁ညောင်	-9.86599
▁မျက်စိ	-9.86641
ကြရသည်။	-9.86655
အိ	-9.86763
ဖွဲ့စည်း	-9.86849
▁တိုင်	-9.86956
▁အမြင့်	-9.86963
ခြင်းဖြစ်သည်။	-9.86965
▁ဝေဖန်	-9.87003
▁၁၉၆၀	-9.8702
ခဲ့သဖြင့်	-9.87064
▁ကစား	-9.87068
▁လို	-9.87092
▁အသေးစိတ်	-9.8713
ကျယ်	-9.87146
▁ခုနှစ်မှာ	-9.87198
ရေးရာ	-9.87237
▁ပါဝင်သည့်	-9.87363
ကျောက်ပန်းတောင်း	-9.8737
ပြာ	-9.87487
▁အကျိုး	-9.8753
လက်ထက်	-9.8754
▁ချ	-9.87568
▁ထင်	-9.87574
ရူး	-9.87595
စာမျက်နှာများ	-9.87615
စိမ်း	-9.87706
▁စသည်တို့ကို	-9.87706
မြင်း	-9.87717
▁ပါဠိ	-9.87732
ရခိုင်	-9.87798
ု	-9.87843
▁ရထား	-9.87866
▁အတွင်းရေးမှူး	-9.87965
လင့်	-9.87967
▁မျှ	-9.88006
တံဆိပ်	-9.88009
▁ပါမောက္ခ	-9.88054
မရ	-9.88064
▁တွဲဖက်	-9.8808
▁ကိစ္စ	-9.8809
▁ရှိနေ	-9.88186
▁ကိုယ်ပိုင်အုပ်	-9.8824
မျှသာ	-9.88256
▁ထုတ်ဝေ	-9.88268
ကုလသမဂ္ဂ	-9.88292
▁လူတို့	-9.883
၅၀	-9.8835
▁အင်ဂျင်နီယာ	-9.88366
တင်း	-9.8837
ပြင်ဆင်	-9.88429
▁လေဆိပ်	-9.88479
▁သု	-9.88538
▁လက်တွေ့	-9.88601
လက်ထက်တွင်	-9.88606
အမြင်	-9.88611
▁ရဲဘော်	-9.88694
လက်ခံ	-9.88697
ချန်	-9.88706
ဆက်ခံသူ	-9.88708
▁ငါ့	-9.88721
မည်ဖြစ်ကြောင်း	-9.88774
တည်ထောင်	-9.88792
▁ရှိကြသည်။	-9.88792
▁ရောမ	-9.88829
အဖွဲ့ချုပ်	-9.88884
▁လွတ်လပ်စွာ	-9.88886
▁စက်မှု	-9.88897
▁လက်နက်ကြီး	-9.88946
သ်	-9.88954
အထွေထွေ	-9.89009
▁သူတို့၏	-9.89045
အက်	-9.89059
ပြန်ကြည့်စက်တွင်	-9.89074
▁ခလရ	-9.89081
▁ဃ	-9.89149
▁နယ်စပ်	-9.89165
ကြီး၏	-9.8919
ကျိုး	-9.89217
▁ဘင်္ဂလားဒေ့ရှ်	-9.89218
သောက်	-9.89244
▁တစ်ဦးက	-9.89277
▁ဝေါဟာရ	-9.89315
ကပင်	-9.89326
▁အမှုထမ်း	-9.89347
▁ကုန်း	-9.89363
▁စနစ်တကျ	-9.89369
ရဟန်း	-9.89421
ဗိုလ်	-9.89574
၄၅	-9.89595
၃၅	-9.89608
ကော့	-9.89631
ဆေးရုံ	-9.89659
▁ပစ်	-9.89692
ထောက်	-9.89696
▁အနောက်ဘက်တွင်	-9.89706
ထောင့်	-9.89755
▁ပန်းချီ	-9.8979
ပမာဏ	-9.89793
▁သိပ္ပံ	-9.8991
ဘိ	-9.89911
▁ဆူ	-9.89926
▁အတွဲ	-9.89955
▁ကြည်း	-9.89982
ဆိုတာ	-9.89988
နေရာတွင်	-9.90046
▁သမုဒ္ဒရာ	-9.90077
▁အိုင်	-9.90104
▁ယ	-9.90142
ရု	-9.9021
မှတစ်ဆင့်	-9.90255
ရေတာရှည်မြို့နယ်	-9.90293
▁အရေအတွက်	-9.90298
အများအပြား	-9.903
▁အရပ်	-9.90366
▁ကြည့်ပါ	-9.90415
ရထား	-9.90509
ကတ်	-9.90533
▁တော်	-9.90587
▁ရောင်းချ	-9.90608
▁အသုံးပြု၍	-9.90626
▁လူမှုရေး	-9.907
ခေါင်	-9.9082
▁အနေဖြင့်	-9.90896
▁ခရစ်နှစ်	-9.90947
ပိုင်းဆိုင်ရာ	-9.90948
လွတ်လပ်ရေး	-9.90953
ဒန်	-9.90998
▁ညနေ	-9.91009
▁ကြက်	-9.91219
ခဲ့တယ်လို့	-9.91226
▁နဂါး	-9.91244
▁ပတ်	-9.91344
နိုင်ငံတကာ	-9.91352
▁အမတ်	-9.91403
▁ပတ်သက်သော	-9.91411
ကြီးသည်	-9.9148
ဝေး	-9.91556
နည်းပညာတက္ကသိုလ်	-9.91578
▁စမ်းသပ်	-9.91656
▁မြို့ပြ	-9.91686
▁လူ့	-9.91734
တား	-9.91744
ယော	-9.9179
▁စင်ကာပူ	-9.91861
သိမ်းပိုက်	-9.91865
▁လုပ်ငန်းများ	-9.91869
▁၁၉၈၀	-9.91933
▁ကြိုး	-9.91939
▁နိုင်ငံခြားရေး	-9.91989
ရေစီအဖွဲ့ချုပ်	-9.92086
▁စီစဉ်	-9.92135
▁ပေါ်	-9.92179
▁ဒသမ	-9.92188
▁အပြစ်	-9.92199
▁မြေပြင်	-9.92248
▁ချီတက်	-9.92346
တစ်ဦးက	-9.92356
သတ်မှတ်	-9.92365
▁အာဆီယံ	-9.9237
တွေအတွက်	-9.92432
▁အင်္ဂလိပ်ဘာသာ	-9.92452
▁စစ်ကိုင်းတိုင်း	-9.92587
▁မြောက်ဘက်တွင်	-9.92597
▁အစာ	-9.9261
▁တည်ရှိသည့်	-9.92694
နိုင်ပါတယ်	-9.92718
▁လိုက်နာ	-9.92784
▁ရှာ	-9.92794
▁မဂ္ဂဇင်း	-9.92823
▁အယ်လ်	-9.92989
ရန်ကုန်မြို့	-9.93137
▁ကုန်	-9.932
ကလေးများ	-9.93322
နတ်တလင်းမြို့နယ်	-9.93343
▁၂၀၀၂	-9.93555
ပြည်နယ်ရှမ်း	-9.9363
▁ဖြစ်ကြသည်	-9.93689
▁သတ္တု	-9.93711
▁လက်အောက်ခံ	-9.93757
▁ခုနှစ်က	-9.93774
▁ဇာတိ	-9.93845
ကရင်	-9.93851
ခံရ	-9.93882
မရှိဘဲ	-9.93914
တေး	-9.93994
ပြောင်းလဲ	-9.94021
▁ပြဋ္ဌာန်း	-9.94051
နော်	-9.94068
စွန်း	-9.94139
ရင်းမြစ်	-9.9417
ဋ္ဌ	-9.94191
အဖွဲ့က	-9.94197
လက်ဖက်ရည်ဆိုင်	-9.94215
ကိုမူ	-9.94238
မြို့နယ်တွင်	-9.94261
▁ပင်လောင်း	-9.9428
▁အရည်	-9.94329
▁အစိုးရက	-9.94402
▁ဒုတိယအကြိမ်	-9.9456
▁လှေ	-9.94571
▁မော်လမြိုင်	-9.94612
သင်း	-9.94631
၂၀၁၆	-9.94668
▁စေတီ	-9.94738
▁ဆက်စပ်	-9.94747
ဆုံ	-9.94763
အနုပညာ	-9.94765
သဖွယ်	-9.94789
တနင်္သာရီ	-9.94895
▁ရုံး	-9.94921
▁လတ်တလော	-9.9494
ဖြစ်သော်လည်း	-9.94957
ပထဝီဝင်	-9.94978
▁ကျွန်တော်	-9.9499
ဝင်ရောက်	-9.9501
ထန်	-9.95066
▁အမှု	-9.95124
▁လူမျိုးစု	-9.95159
နိုင်ပြီး	-9.95192
▁၂၀၂၄ကွ	-9.95266
▁မင်းကြီး	-9.95268
မကွေးတိုင်းဒေသ	-9.9538
အလယ်	-9.95383
▁သက်တမ်း	-9.95404
▁စံ	-9.95421
▁သယ်ယူပို့ဆောင်	-9.95474
၌လည်း	-9.95491
▁ဧ	-9.95498
ထိန်း	-9.9553
▁သမီးတော်	-9.95547
ပေါ်ရှိ	-9.95621
▁ပေါင်းစပ်	-9.95623
သိမ်း	-9.95661
▁ရသေ့	-9.95687
နာမည်	-9.95699
▁ဖြစ်သည်ဟု	-9.95751
တာကြောင့်	-9.9576
▁ပြောကြား	-9.95841
▁မေတ္တာ	-9.95892
ဠ	-9.95958
အရပ်	-9.95987
သဘာဝ	-9.96001
▁တည်ရှိပြီး	-9.9603
မြဲ	-9.96063
▁ပညာရှင်	-9.961
▁၁၉၉၉	-9.96143
မန္တလေးခရိုင်	-9.96166
▁သတ်	-9.96173
မြို့သည်	-9.96204
▁ပမာဏ	-9.96214
l	-9.96241
တာဝန်ရှိသူတစ်ဦးက	-9.96264
ကချင်ပြည်နယ်	-9.96269
▁တိုးချဲ့	-9.96282
▁ပြည်ပ	-9.96292
ကိုလည်းကောင်း၊	-9.96314
▁သတ္တဝါ	-9.96318
မှုတွေ	-9.96321
သုံးစွဲ	-9.96358
မြို့နယ်အ	-9.96373
ဖြစ်ပွား	-9.96394
တာမျိုး	-9.96464
စေခြင်း	-9.9653
၍၊	-9.96549
လျှင်၊	-9.96564
၃၆	-9.96583
▁ဖြစ်လာခဲ့သည်။	-9.96642
▁အဆင့်ဆင့်	-9.96667
များသို့	-9.96713
နောက်ပိုင်း	-9.96724
▁အကြောင်းအရာများ	-9.96897
▁နေ့ရက်	-9.96904
၆၁	-9.96909
▁ထိုး	-9.96966
▁နောင်ချို	-9.96987
▁ပရိသတ်	-9.96987
▁ထက်	-9.96993
ပျက်စီး	-9.97006
▁ခြောက်	-9.97055
မိဖုရား	-9.97171
▁ရက်ပေါင်း	-9.97186
▁ယာ	-9.97209
ဦးစီးဌာန	-9.97349
ခွေ	-9.97397
▁၎င်းတို့သည်	-9.97403
မှတဆင့်	-9.97451
တစ်လျှောက်	-9.9747
ကြယ်	-9.97472
▁ချမှတ်	-9.97481
▁ပျူစောထီး	-9.97536
ဒူ	-9.97565
▁သားသမီး	-9.97607
ဆွေ	-9.97617
ဟူသည်	-9.97636
▁ဗီယက်နမ်	-9.97642
မွန်း	-9.97672
၂၀၂၃	-9.97705
သွားသည်။	-9.97752
ကျင်းပ	-9.97788
▁အပူချိန်	-9.97823
ကိုပင်	-9.97845
▁အစိုးရအဖွဲ့	-9.97862
ပြတ်	-9.9788
▁လိပ်	-9.97884
အုပ်ချုပ်	-9.97901
▁အစားထိုး	-9.97986
အဲ	-9.98012
▁ဖြစ်လေသည်။	-9.98079
▁မော်	-9.9811
လူး	-9.98153
တံခါး	-9.98165
▁ဉာဏ်	-9.98175
▁တွေ့ဆုံ	-9.982
တောက်	-9.98294
▁မြန်မာစာ	-9.98347
စိုက်ပျိုး	-9.9839
▁ကျရောက်	-9.98465
▁သီတင်းသုံး	-9.98473
၃၂	-9.98592
ကြမ်း	-9.98618
လျက်ရှိသည်	-9.98674
သန်	-9.98678
ပက်	-9.9871
လက္ခဏာ	-9.98738
မြိုင်	-9.98835
ဟိ	-9.98881
▁၇၀	-9.98882
▁မွေး	-9.98896
▁ဗိုလ်မှူး	-9.98954
ခဲ့ကြပြီး	-9.98984
▁စုဆောင်း	-9.98999
မြို့ကို	-9.99078
တာပါ	-9.99102
▁သဲ	-9.99212
မီတာ	-9.9923
▁မူဝါဒ	-9.99248
▁ပကဖ	-9.99431
▁ကုသိုလ်	-9.99453
▁အလယ်ပိုင်း	-9.99469
▁ညွှန်ကြား	-9.99477
▁လျှောက်	-9.99485
မြောက်ရွာ၊	-9.99498
▁ယောက်ျား	-9.99512
အတွင်းတွင်	-9.99536
▁ထည့်	-9.99544
▁၄။	-9.99586
▁တိုက်ခိုက်ခဲ့	-9.99617
နဲ	-9.9964
လှေ	-9.99711
▁ကပ်	-9.99767
ပျံ	-9.9977
▁အော်	-9.99804
၈၉	-9.99818
ပူးပေါင်း	-9.99835
▁အကြီးအကျယ်	-9.99851
▁အေး	-9.99863
▁မူပိုင်ခွင့်	-9.99888
▁ချင်းပြည်နယ်	-9.99904
ပုတ်	-9.99934
ဘန်	-9.99942
ထည့်	-10.0005
လာသည့်	-10.0011
ပုံ၊	-10.0016
▁မျိုးစိတ်	-10.0017
နေကြ	-10.0018
▁ကန့်ကွက်	-10.0021
ပေါ်၌	-10.0025
▁မလေးရှား	-10.0031
▁မသိ	-10.0036
▁၃၆	-10.0039
▁ရင်	-10.0044
▁ပိုး	-10.0049
သင်တန်း	-10.005
▁၁၉၉၇	-10.0052
▁ခရီး	-10.0056
▁ဖွင့်လှစ်	-10.0058
ခြံ	-10.0062
▁တင်သွင်း	-10.0062
စစ်ကိုင်းခရိုင်	-10.0064
နှင့်အညီ	-10.0066
▁၂၀၀၁	-10.007
ည်နယ်ရှမ်းခရိုင်	-10.0071
▁ဗြိတိန်	-10.0075
ပေမဲ့	-10.0077
ပါသော	-10.0078
▁ဟန်	-10.008
▁ရေးဆွဲ	-10.0086
▁တို့၏	-10.01
မရှိသော	-10.0102
▁အစည်းအဝေး	-10.0102
များအပေါ်	-10.0105
အလံ	-10.0107
လွဲ	-10.0111
၆၀	-10.0111
▁ဤကဏ္ဍ	-10.0114
ဲ	-10.0114
ခရီး	-10.0117
စက်ရုံ	-10.0124
▁ဖန်တီးခဲ့သည်	-10.0135
ပိုက်	-10.0136
▁သတ်ဖြတ်	-10.0137
၃၇	-10.0142
▁အဲ	-10.0145
▁ကိုရီးယား	-10.0145
▁ပြင်	-10.0149
ခဲ့တာ	-10.0153
၂၀၁၁	-10.0157
နေသည်	-10.0157
များစာရင်း	-10.0158
▁အမြင်	-10.0168
ထိုင်းနိုင်ငံ	-10.0169
ရွေးကောက်ပွဲတွင်	-10.0169
သူ၏	-10.0174
သင်္ဘော	-10.0174
မျက်နှာပြင်	-10.018
မူး	-10.0184
▁နန်းတော်	-10.0186
အာရှ	-10.0188
နေတယ်လို့	-10.019
ခွက်	-10.019
▁နယ်နိမိတ်	-10.0191
▁သတိပေး	-10.0195
▁ဦးစီးဌာန	-10.0199
ဘော်	-10.0204
ဝီကီဒေတာနှင့်	-10.0207
▁ဩ	-10.0208
အတွင်းတည်နေရာ	-10.0217
▁လွတ်လပ်သော	-10.0225
▁ပို့ဆောင်	-10.0225
တာဝန်သက်တမ်း	-10.0227
▁၁၉၉၁	-10.0234
ချာ	-10.0236
▁သတင်းဌာနထံသို့	-10.0238
▁ပို့	-10.0244
▁ပုဂ္ဂိုလ်များ	-10.0245
လှသော	-10.0249
ခိုး	-10.0251
les	-10.0252
ရ၏။	-10.0252
ကိုပါ	-10.0254
အဆင့်မြင့်	-10.0261
▁ပဲ	-10.0264
▁ခြိမ်းခြောက်	-10.0268
▁တောင်ဘက်တွင်	-10.0274
▁ကျောင်းသားများ	-10.0277
▁၂၀၀၃	-10.0288
▁တန်ဖိုး	-10.0289
ဌ	-10.0289
▁ဒါမှမဟုတ်	-10.029
art	-10.0299
ဖြေ	-10.0302
ဆည်	-10.0308
ကျောင်းသား	-10.0308
သည့်အတွက်	-10.0314
▁တစ်နှစ်	-10.0317
▁ပုဂ္ဂလိက	-10.032
ထိန်းသိမ်း	-10.0325
▁အရိုး	-10.0325
▁စစ်ကောင်စီ၏	-10.0327
၄၄	-10.0329
အချက်အလက်များ	-10.0332
▁ကချင်ပြည်နယ်	-10.0334
ဘော	-10.0335
▁ကြည့်ရှု	-10.034
▁အရပ်သား	-10.035
ပြီး၊	-10.0351
▁တောင်ငူ	-10.0352
▁စဉ်းစား	-10.0352
▁ဆန့်ကျင်	-10.0354
ဇော်	-10.0357
▁အာကာသ	-10.0365
▁သာသနာ	-10.0366
▁ဘန်	-10.037
ယောင်	-10.0372
ကြလေသည်	-10.0375
▁ဝန်ဆောင်မှု	-10.0381
▁၅၂	-10.0382
နောက်ဆုံး	-10.0383
▁မြေပုံ	-10.0383
ထိုက်	-10.0402
ကျိုင်းတုံခရိုင်	-10.0403
တစ်စိတ်တစ်ပိုင်း	-10.0405
▁ခုတွင်	-10.0411
▁၁၉၅၆	-10.0412
ရှေ့	-10.0413
ဘယ်	-10.0413
ဂုဏ်	-10.0422
▁မေးမြန်း	-10.0422
ရှိတဲ့	-10.0423
▁အီရန်	-10.0424
ရှိကြောင်း	-10.0425
▁တိုးမြှင့်	-10.0425
▁ဆွဲ	-10.0426
လွတ်မြောက်ရေး	-10.0426
ww	-10.0427
▁ဂျွန်	-10.0429
ခဲ့သည်။၂	-10.0429
ပြန်သည်။	-10.0432
▁လေယာဉ်ဖြင့်	-10.0433
နေတယ်	-10.0442
ကန်ရွာ၊	-10.0447
၄၈	-10.0448
အတွင်းရေးမှူး	-10.0457
၂၀၁၂	-10.0468
ကြရန်	-10.0472
▁အခမဲ့	-10.0473
ဆိုပြီး	-10.0478
▁အန်	-10.0483
▁ခေါ်ဆို	-10.0488
▁ပြသ	-10.0493
▁အရေး	-10.0493
▁ဥပမာအားဖြင့်	-10.0497
▁စိုးရိမ်	-10.0499
ဟော	-10.0504
လာကြသည်။	-10.0507
▁ဘာသာရပ်	-10.0507
▁ရာဇဝင်	-10.0508
ကျေးရွာအုပ်စု၁	-10.051
ပြီးတော့	-10.0512
bb	-10.0512
▁သိရှိ	-10.0525
▁ယိုးဒယား	-10.053
ရလေသည်။	-10.0531
ခဲ့သည်။၁	-10.0532
▁ကုန်သွယ်ရေး	-10.0533
▁ချက်ချင်း	-10.0536
မဟုတ်ဘဲ	-10.0537
စည်	-10.0541
မ်း	-10.0547
▁၁၉၇၂	-10.0551
▁ဗမာပြည်	-10.0557
လျက်ရှိသော	-10.0561
ဘာသာရေး	-10.0569
ဇင်း	-10.0573
ဖြစ်လာ	-10.0576
၆၇	-10.0577
▁စုပေါင်း	-10.0579
ါ	-10.0584
မင်းအောင်လှိုင်က	-10.0585
ဒိုး	-10.0587
သူများကို	-10.0588
နတ်မောက်မြို့နယ်	-10.0591
▁ဘက်	-10.0592
▁အိပ်	-10.0594
▁အမေရိကန်ဒေါ်လာ	-10.0599
စစ်ဆင်ရေး	-10.0599
▁လမ်းကြောင်း	-10.0601
▁ပင်မ	-10.0605
▁အသုံးပြုခြင်း	-10.0605
▁ဖွဲ့	-10.0606
▁တို့က	-10.0606
ရရှိ	-10.0608
ပယ်	-10.0609
▁၀၀၀	-10.0611
ဝမ်း	-10.0616
နိုင်ငံသား	-10.0624
▁အလျား	-10.0626
ဖော်ပြချက်	-10.063
ကြောင်	-10.0632
▁၁၉၅၂	-10.0638
▁ရှမ်းပြည်	-10.0641
ကော်မတီ	-10.0643
အင်ဂျင်နီယာ	-10.0644
▁ပေါ်ပေါက်	-10.0653
▁ကြိမ်မြောက်	-10.0657
▁လင်	-10.066
▁ဖက်ဒရယ်	-10.0661
▁နောက်ဆုံးရ	-10.0664
ပင်လောင်း	-10.0669
▁အသီး	-10.067
သွားပြီး	-10.0672
▁ထောက်ခံ	-10.0679
▁တောင်ကြီး	-10.068
▁တရုတ်ပြည်	-10.068
▁ရေတပ်	-10.0687
အရှင်	-10.0689
▁ကုလား	-10.0694
▁တောင်ကိုရီးယား	-10.0696
ခြား	-10.0696
▁ခါ	-10.0697
▁ထန်း	-10.0703
▁အသုံးပြုနိုင်	-10.0704
အဓိက	-10.0711
▁ကမ်းရိုးတန်း	-10.0713
▁ရှိပါတယ်	-10.0714
ကဗျာ	-10.0717
ကော်မရှင်	-10.0721
တုတ်	-10.0723
ပေးသည်။	-10.0727
ရူ	-10.0728
ကြကုန်	-10.0731
▁ခရီးသွား	-10.0733
▁ဝင်ငွေ	-10.0737
▁အလင်း	-10.074
ကတ်စ်	-10.074
ရာသီဥတု	-10.0744
ိုင်ငံစာရင်းအင်း	-10.0748
▁ဝမ်း	-10.0749
▁ဝန်	-10.0749
လှုပ်ရှားမှုများ	-10.0752
▁၅၅	-10.0752
▁ပု	-10.0755
▁ပထမအကြိမ်	-10.0757
▁အရေးပေါ်	-10.0758
▁အဖ	-10.0759
ပန်းချီ	-10.0766
အခါ	-10.078
ဇန်နဝါရီ	-10.0781
သည်။၁	-10.0782
ထုံး	-10.0782
၂၀၂၀	-10.0782
▁ဆိုင်	-10.0783
မှသာ	-10.0783
ရား	-10.0792
▁၃၈	-10.0793
▁ဖြတ်သန်း	-10.0794
သတင်းရင်းမြစ်က	-10.0795
၇၁	-10.0798
ဖေဖော်ဝါရီ	-10.0801
မင်းဘူးခရိုင်၊	-10.0801
လျှောက်	-10.0803
စာအုပ်များ	-10.0804
ဒေသတွင်	-10.0806
ခဲ့ကြပါတယ်	-10.0806
အရောင်	-10.0809
▁၁၉၉၃	-10.081
▁မူရင်း	-10.0811
▁အမျိုးသမီးများ	-10.0813
ကျောင်းတော်	-10.0815
▁ဘောလုံး	-10.0815
နိုင်ကြောင်း	-10.0817
အမတ်	-10.0817
▁မိဘ	-10.0832
▁တည်ရှိ	-10.0832
▁နည်းလမ်း	-10.0833
▁ဇာတ်	-10.0838
▁အရာ	-10.0841
ဆီး	-10.0843
▁လေကြောင်းလိုင်း	-10.0844
ရှောင်	-10.0847
▁အသုံးပြုသော	-10.0848
ပြဿနာ	-10.085
မြို့စား	-10.085
အချင်းချင်း	-10.0858
အော်	-10.0866
▁စစ်ခေါင်းဆောင်	-10.0867
▁ရည်ရွယ်	-10.0868
▁အားပေး	-10.0871
▁မည်သို့	-10.0873
▁အနောက်တိုင်း	-10.0873
▁တန်း	-10.0876
▁မန္တလေးတိုင်း	-10.0878
▁ဒေါ်အောင်ဆန်းစု	-10.088
တိုင်းပြည်	-10.0881
▁ကွဲပြား	-10.0881
▁အမြဲတမ်း	-10.0884
▁ဂျာမနီ	-10.0885
▁အဆို	-10.0894
ကြကုန်၏။	-10.0895
▁မှတ်ပုံတင်	-10.0899
အရာရှိ	-10.09
▁သတင်းနဲ့	-10.0904
ရွေးချယ်	-10.0909
▁စု	-10.0911
အနည်းငယ်	-10.0914
ဖီ	-10.0918
n	-10.0918
▁နားလည်	-10.092
စဉ်က	-10.0925
တည်ဆောက်	-10.0925
▁အွန်လိုင်း	-10.0925
▁မြန်မာသက္ကရာဇ်	-10.0925
အပင်	-10.0928
ပေမယ့်	-10.0929
▁၁၉၄၆	-10.0929
ချက်များ	-10.0931
ဖတ်အများဆုံး	-10.0934
ဂါး	-10.0935
▁ချမ်းသာ	-10.0936
▁အပြောင်းအလဲ	-10.0939
▁ရဟန်းတို့	-10.0941
▁ကြယ်	-10.0942
ဗုဒ္ဓ	-10.0943
▁ဧရာဝတီမြစ်	-10.0947
▁ပျမ်းမျှ	-10.0948
▁အဆောက်အအုံများ	-10.0955
လိုသော	-10.0956
▁အရင်	-10.0957
▁ပီ	-10.0958
စောင့်ရှောက်	-10.0959
▁တွေ့ရ	-10.0961
▁၁၉၅၉	-10.0967
▁ရှာဖွေတွေ့ရှိ	-10.0968
တဲ့အခါ	-10.0968
ရှီ	-10.0969
သင်္ချာ	-10.0971
ဖမ်း	-10.0975
▁အများပြည်သူ	-10.0976
▁သင်သည်	-10.098
ဇွန်	-10.098
▁ထောက်ပံ့	-10.0989
နိုင်ငံရေးပါတီ	-10.0989
▁ဆောင်းပါးတို	-10.099
▁သဘောတူညီချက်	-10.0994
ကိုယ်ပိုင်အုပ်ချ	-10.0996
ဗ်	-10.101
▁အန္တရာယ်	-10.1013
▁ထားရှိ	-10.1016
ပေးခဲ့သည်။	-10.102
▁ပစ္စည်းများ	-10.1021
ဂန်	-10.1022
▁၁၉၅၃	-10.1022
▁၁၉၈၉	-10.1025
▁၁၉၇၄	-10.1031
ဆိုတဲ့	-10.1034
▁လျှို့ဝှက်	-10.1035
ပြီးမှ	-10.1039
ဖျက်	-10.104
၇၈	-10.1041
ချပ်	-10.1042
▁မျက်မှောက်ရေးရာ	-10.1043
သတင်းစာ	-10.1046
သော်လည်းကောင်း	-10.1049
▁သစ်တော	-10.1049
ပေါ်သို့	-10.1052
▁ဖြစ်ခဲ့သည်။	-10.1058
တို့လည်း	-10.1061
▁တမ်းပလိတ်န	-10.1064
▁မှတ်သား	-10.1065
▁ပေါ့ဒ်	-10.1071
မှာမူ	-10.1073
ကဲ	-10.1082
▁အထက်ပါ	-10.1092
သီရိ	-10.1095
▁တစ်ခါတစ်ရံ	-10.11
▁စောင့်ရှောက်	-10.1102
▁ဇနီး	-10.1103
▁ပဋိပက္ခ	-10.1104
ခွေး	-10.1115
ခေါက်	-10.1117
သင်္ကေတ	-10.1118
သည်အထိ	-10.1119
ပင်ဖြစ်သည်။	-10.1124
၂၀၂၅	-10.113
၅၉	-10.1134
▁ယမန်နေ့	-10.1135
မြို့၌	-10.1137
▁မင်းသမီး	-10.1139
ဇန်နဝါရီလ	-10.1143
အများစု	-10.1143
၄၉	-10.1149
▁ဂူ	-10.1149
ကစား	-10.1153
ယန်း	-10.1154
▁ညှိနှိုင်း	-10.1156
▁ကျင့်သုံး	-10.1157
▁၁၉၇၀	-10.116
▁ကော်မတီ	-10.116
▁မြွေ	-10.1162
စောင်း	-10.1162
ဘာသာရပ်	-10.1165
▁အခြေစိုက်	-10.1166
▁၁၀၀၀	-10.1167
ဒီး	-10.1168
ဘာသာစကားများ	-10.1175
▁အမျိုး	-10.1177
ရွာမှ	-10.1179
တပ်ရင်း	-10.1181
ဗမာ	-10.1185
▁ခုနှစ်၌	-10.1187
▁ကျွန်ုပ်တို့	-10.1189
နီးပါး	-10.1195
စာရေးဆရာ	-10.1201
r	-10.1207
တရားဝင်	-10.1209
▁ကျွန်မ	-10.121
▁မကွေး	-10.121
▁ရောက်လာ	-10.1214
တော်မူသည်။	-10.1218
▁အဆိုတော်	-10.1221
နိုင်ဖို့	-10.1223
ဒူး	-10.1227
ရှိသူ	-10.1227
၄၇	-10.1228
▁၁၉၅၀	-10.1232
လှိုင်း	-10.1233
▁အနာ	-10.1236
▁ခေါ်ဝေါ်	-10.1241
▁ထမ်းဆောင်	-10.1241
အားကစား	-10.1245
ကွေ့	-10.1249
စနစ်ကို	-10.125
▁ရည်ရွယ်ချက်	-10.1251
မဟုတ်သော	-10.1255
▁ဘီဘီစီ	-10.1257
▁အနိုင်ရ	-10.1258
ထုတ်ပြန်	-10.126
တိုင်အောင်	-10.1268
တစ်လုံး	-10.1268
တစ်ခုအဖြစ်	-10.1269
ဖြစ်အောင်	-10.1272
ချမ်းသာ	-10.128
▁ဆောင်းပါးမှာ	-10.1285
▁၁၉၅၈	-10.1288
▁ခုနစ်	-10.129
▁အမှားများ	-10.1294
▁အရွယ်အစား	-10.1299
ဖြစ်စဉ်	-10.13
ဘောင်	-10.1303
▁စာချုပ်	-10.1304
▁မိ	-10.1305
ကျင်	-10.1308
▁သုံးသပ်	-10.1311
မင်းဆက်	-10.1311
မကွေးခရိုင်	-10.1312
▁သင်္ကေတ	-10.1313
▁တပ်ဖွဲ့	-10.1313
▁ဩစတြေးလျ	-10.1315
မိတ္ထီလာမြို့နယ်	-10.1316
▁အထိမ်းအမှတ်	-10.1325
၅၈	-10.1333
အာဏာ	-10.1336
ဆောင်ရွက်ခဲ့သည်။	-10.1337
▁အမေရိကန်နိုင်ငံ	-10.1339
သေဆုံးခဲ့ကြောင်း	-10.1339
▁ပါဝင်ခဲ့သည်။	-10.1341
ခဲ့တာပါ	-10.1342
▁အိုး	-10.1342
▁ဖြတ်	-10.1344
၂၀၁၄	-10.1351
▁ကင်	-10.1353
တစ်ခုတွင်	-10.1355
▁လမ်းညွှန်	-10.1365
▁ကနေဒါ	-10.1366
▁၁၉၆၁	-10.1372
▁ထောင်ဒဏ်	-10.1377
လက်နက်	-10.1377
▁ကြောင်း	-10.1378
၇၅	-10.1383
▁လက်မှတ်ရေးထိုး	-10.1385
▁ရယူ	-10.1389
ပေါ်မှာ	-10.1391
▁သင်္ချာ	-10.1401
▁ထမင်း	-10.1403
ဆား	-10.1403
▁လှူဒါန်း	-10.1405
▁လောက်	-10.1406
လွိုင်လင်ခရိုင်၊	-10.1414
▁ရှေးခေတ်	-10.1417
▁သပိတ်	-10.1423
▁၄၃	-10.1424
▁သူတို့ရဲ့	-10.1425
▁ထိုင်ဝမ်	-10.1426
နိုင်ငံတွင်	-10.1426
▁ကေ	-10.1434
ရေးကို	-10.1436
တောရွာ၊	-10.1436
သားများ	-10.1437
ပွဲတော်	-10.1438
▁များစွာသော	-10.144
သလောက်	-10.1441
▁ပူ	-10.1442
▁ပူးတွဲ	-10.1444
▁ပုဂံခေတ်	-10.1445
လာသောအခါ	-10.1446
▁ညောင်ကုန်းရွာ၊	-10.1447
▁အမည်ဖြင့်	-10.145
▁နိုင်ငံရေးသမား	-10.1451
▁စာလုံး	-10.1457
ဥရောပ	-10.1457
▁ပထမဦးဆုံး	-10.1457
▁ဘုံ	-10.1463
နှစ်ဦး	-10.1467
စစ်တပ်	-10.1475
ဧက	-10.148
▁လုံ	-10.1481
၃၉	-10.1483
ပခုက္ကူခရိုင်၊	-10.1487
▁အလုပ်လုပ်	-10.1489
မျိုးစုံ	-10.1489
နှင့်ပတ်သက်၍	-10.1493
ဆံ	-10.1495
▁အီဂျစ်	-10.1498
သွားသော	-10.1502
ကိုယ်စားလှယ်များ	-10.1502
▁အာရပ်	-10.1502
မိုက်	-10.1503
ကမ်း	-10.1504
ခဲ့တယ်	-10.1509
▁လူမျိုးများ	-10.151
မည်။	-10.1514
▁ဝင်း	-10.1515
▁သတိ	-10.1515
ယက်	-10.1516
▁ဖြစ်လာသည်။	-10.1518
▁လက္ခဏာ	-10.1522
ဖုန်း	-10.1523
▁၁၉၄၉	-10.1528
▁မြတ်	-10.1529
ဗဟို	-10.153
ထည်	-10.1535
အကျိုး	-10.1535
▁၁၉၉၅	-10.1536
သောင်း	-10.1538
ဆောင်း	-10.1539
၅၅	-10.154
သူတွေ	-10.1542
▁လူအများ	-10.1544
▁ကြေညာခဲ့သည်။	-10.1546
ဝန်ထမ်း	-10.1547
▁တည်ရှိသော	-10.1551
▁ဆင်းရဲ	-10.1555
▁ဘဏ္ဍာရေး	-10.1559
▁လွန်စွာ	-10.1564
ဖြစ်သောကြောင့်	-10.1567
▁ပုပ်ရဟန်းမင်း	-10.1577
▁ရိုက်ကူး	-10.1577
▁ကွတ်ခိုင်	-10.1579
▁နိဗ္ဗာန်	-10.158
ဗန်	-10.1581
▁စပ်လျဉ်း၍	-10.1583
▁ခေါင်းစဉ်	-10.1584
▁ဘုန်းတော်ကြီး	-10.159
တွေကတော့	-10.159
ကြသည့်	-10.1591
▁၇၅	-10.1595
ဂီ	-10.1599
▁အုပ်	-10.1599
အရွယ်	-10.1602
စင်း	-10.1602
ချင်းပြည်နယ်	-10.1604
ဘင်	-10.1606
မျဉ်း	-10.1608
အနေအထား	-10.1611
ဝန်ဆောင်မှု	-10.1611
▁ဦးခေါင်း	-10.1614
အူ	-10.1618
▁စာရေး	-10.1623
စေသော	-10.1625
▁ပွဲ	-10.1626
ကိုယ်ရေး	-10.1626
တစ်နှစ်တာ	-10.1627
ကန်း	-10.1627
၇၀	-10.1628
▁သစ်သား	-10.1634
ကြသဖြင့်	-10.1637
▁ယှဉ်ပြိုင်	-10.1641
ပြုပြင်	-10.1641
▁လွှမ်းမိုး	-10.1644
ဂြိုဟ်	-10.1644
သူတို့	-10.1647
▁မပြု	-10.1652
▁တွေ့ရသော	-10.1668
အောင်မြင်	-10.167
▁သံတူကြောင်းကွဲ	-10.1675
▁ရွေးကောက်	-10.168
နွား	-10.1681
▁ကျောက်စာ	-10.1683
ရွေး	-10.1687
▁ဆော	-10.1688
▁ရေဒီယို	-10.1689
ပေးသော	-10.1694
▁အရှေ့၊	-10.1695
▁ဖယ်ရှား	-10.1702
နေခြင်း	-10.1703
ကွာ	-10.1704
▁အလံ	-10.1706
▁ကြောင်	-10.1706
▁ပိတ်ဆို့	-10.1707
ဖွယ်ရာ	-10.1708
ရှိပါတယ်	-10.1713
လေ့ရှိသည်	-10.1713
▁လက်ဝဲ	-10.1716
▁ရွက်	-10.172
ပုဂံ	-10.1724
▁ဆင်း	-10.1725
▁ကြားဖြတ်	-10.1729
နဂါး	-10.173
▁သမဂ္ဂ	-10.1732
ခြင်းမှ	-10.1742
ရွာမ	-10.1745
ခြင်းအားဖြင့်	-10.1746
▁ဆု	-10.1747
▁ပြင်ပ	-10.1753
ငြိမ်းချမ်းရေး	-10.1755
သလဲ	-10.1762
လူထု	-10.1767
▁အုတ်	-10.177
▁နိုင်ငံခြားသား	-10.1772
ခဲ့ရသည်	-10.1773
သားတော်	-10.1773
▁ဧကရာဇ်	-10.1776
ငြိမ်း	-10.1777
ဆောက်	-10.1779
▁နှလုံး	-10.1779
ပို့ဆောင်ရေး	-10.1784
ဖြစ်သည်။၁	-10.1784
မူကား	-10.1786
ပြုပြင်ပြောင်းလဲ	-10.1786
တောင်ကြီး	-10.1787
ဆက်ဆံရေး	-10.179
နော	-10.179
▁တမန်တော်	-10.1793
ဖန်တီး	-10.1796
ရှာဖွေ	-10.1799
ဘူ	-10.1802
များထဲမှ	-10.1802
▁သစ္စာ	-10.1808
သည်ဂရီဂေါရီးယန်း	-10.1808
၈၀	-10.1809
သေဆုံး	-10.1809
▁ယေဘုယျအားဖြင့်	-10.181
▁တံတား	-10.1811
▁ဦးနှောက်	-10.1811
▁အရွက်	-10.1811
ဂ်	-10.1819
▁တားမြစ်	-10.1823
▁၉၀	-10.1824
▁ခုနှစ်အတွင်း	-10.1828
▁ဖမ်း	-10.183
▁ပျူ	-10.1833
ဂျ	-10.1834
လည်းဖြစ်သည်။	-10.1834
▁ခုနှစ်မှစ၍	-10.1835
။၁	-10.1835
▁၁၉၅၅	-10.1841
ပထမဆုံး	-10.1845
▁ရှ	-10.1847
▁ဆန္ဒပြ	-10.1854
▁၁၉၉၄	-10.1855
ဘား	-10.1858
မု	-10.186
▁ဖြစ်နေ	-10.1863
▁ရိုက်	-10.1863
▁ဖြစ်ပေါ်လာ	-10.1867
▁သရ	-10.1871
အမျိုးသားဒီမိုက	-10.1876
လှုပ်ရှား	-10.1888
ထိုင်	-10.1892
▁ရုတ်တရက်	-10.1897
▁အတိအကျ	-10.1898
▁၄၄	-10.1901
ဖြစ်ခြင်း	-10.1902
နိုး	-10.1903
ဝဝ	-10.1905
▁ကော့	-10.1906
▁ဥပ	-10.1906
ပေးဖို့	-10.1912
ဒဏ်	-10.1913
ရအောင်	-10.1914
▁အကြံပေး	-10.192
တွန်	-10.1922
▁ဟင်း	-10.1927
နောက်ပြန်ပြင်	-10.1931
အရေးမကြီးဟု	-10.1933
ရာသီ	-10.1934
▁ဒါပေမယ့်	-10.1935
ရောင်းချ	-10.1936
၂၀၁၃	-10.194
ညောင်	-10.1941
▁ခမရ	-10.1943
နေသူ	-10.1946
▁၁၉၆၃	-10.1947
စစ်ဆေး	-10.1947
တာနဲ့	-10.195
မဂ္ဂဇင်း	-10.1952
▁၁၉၉၂	-10.1956
ဝပ်	-10.1958
ဓာတုဗေဒ	-10.1962
▁၁၉၄၂	-10.1974
ခုတ်	-10.1983
ထင်ရှား	-10.1984
ကူးသန်းရောင်းဝယ်	-10.1991
▁တုံ့ပြန်	-10.1994
ကောလိပ်	-10.1996
နိမ့်	-10.1998
▁တဆင့်	-10.1999
စေသည်	-10.2001
▁အခြေခံဥပဒေ	-10.2001
မ္မ	-10.2004
အမြင့်	-10.2005
▁အတိုင်း	-10.2013
▁နေထိုင်သည်။၁	-10.2013
▁ရောက်ရှိလာ	-10.2015
▁ဆိုရှယ်လစ်	-10.2016
လက်မှတ်	-10.202
စာချုပ်	-10.2023
ရေးအဖွဲ့	-10.2023
ဗျ	-10.2028
▁ဆီး	-10.204
▁တစ်ကြိမ်	-10.2044
▁ကြီးမားသော	-10.2045
အစည်းအဝေး	-10.2051
ရမ်	-10.2054
အစု	-10.2055
ခုနှစ်၊	-10.2056
▁၁၉၈၅	-10.2062
▁ပြောပြ	-10.2064
▁ရေကြောင်း	-10.2068
အကြောင်းအရာအသစ်	-10.2072
ဖား	-10.2073
▁ဆေးပညာ	-10.2075
▁၁၉၉၆	-10.208
ရာဇဝင်	-10.2085
▁သိရပါတယ်	-10.2086
▁အုပ်ချုပ်မှု	-10.2091
အဓိပ္ပာယ်	-10.2099
▁ပုလဲ	-10.21
ရတာ	-10.2101
ချိန်မှာ	-10.2102
အဖြစ်သို့	-10.2108
လက်ရာ	-10.211
၂၀၁၉	-10.2111
တုန်း	-10.2111
သွားတယ်	-10.2117
ဆပ်	-10.2117
ပြက္ခဒိန်အရ	-10.2118
▁ကြေးနီ	-10.2121
ဘင်္ဂလားဒေ့ရှ်	-10.2122
▁စောင့်ကြည့်	-10.2122
မွေးမြူရေး	-10.2123
▁အနှစ်	-10.2133
▁ကိုယ်စားပြု	-10.2137
▁ယောင်	-10.2142
▁အခွန်	-10.2142
▁သွားလာ	-10.2142
▁၁၉၆၅	-10.2144
▁မျောက်	-10.2146
▁ခဲ	-10.2146
▁မီးရထားလမ်း	-10.2153
▁ချီ	-10.2154
၆၅	-10.2157
လွှတ်	-10.2159
ထားတာ	-10.2164
တောင်တန်း	-10.2164
စေပြီး	-10.2169
ပြု၍	-10.2171
မကြီး	-10.2173
ဖို့အတွက်	-10.2175
▁စားသောက်	-10.2176
ဝီ	-10.2184
▁နှစ်သက်	-10.2186
လံ	-10.2194
▁အမြောက်အမြား	-10.2198
▁တောင်း	-10.2198
ဒု	-10.2198
▁မရ	-10.2201
စကားလုံး	-10.2204
ကုန်းရွာ	-10.2207
တစ်ခုမှာ	-10.2208
▁ပြင်သစ်နိုင်ငံ	-10.2209
▁ထူထောင်	-10.221
ခိုက်	-10.2211
လားရှိုးမြို့နယ်	-10.2212
▁ခေါင်းဆောင်များ	-10.2215
▁နောက်ဆက်တွဲ	-10.2217
ရိပ်	-10.2218
ပျောက်	-10.2218
ဆက်သွယ်	-10.2231
ကိုက်	-10.2232
▁လွန်	-10.2233
▁အငြိမ်းစား	-10.2234
▁၁၉၇၅	-10.2238
▁အနု	-10.224
ဆိပ်ကမ်း	-10.2245
▁တောင်တန်း	-10.2248
ပြည်ခရိုင်၊	-10.2255
ဝေါ	-10.2261
အနီးတွင်	-10.2263
ဂိုး	-10.2265
သဏ္ဌာန်	-10.2266
▁သဘာဝပတ်ဝန်းကျင်	-10.2267
ထည့်သွင်း	-10.2268
နိုဝင်ဘာ	-10.2275
▁သေချာ	-10.2276
▁ပခုက္ကူ	-10.2278
လာခြင်း	-10.2279
▁ပယ်	-10.228
ချွန်	-10.2282
ဖြစ်လာသည်။	-10.2285
ဝေါဟာရ	-10.2286
တို့ကိုလည်း	-10.2287
▁ထားဝယ်	-10.2289
▁ကုသ	-10.2289
▁အူ	-10.2289
▁ယနေ့ခေတ်	-10.2296
ပါပဲ	-10.23
▁မင်းတုန်းမင်း	-10.23
တို့အတွက်	-10.2302
▁ကုမ္ပဏီများ	-10.231
▁သိမ်းယူ	-10.2312
▁ဖော်ပြထားသည်။	-10.2315
▁တိုး	-10.2319
▁အဆင့်အတန်း	-10.2325
▁စွယ်စုံကျမ်း	-10.2325
ပြတိုက်	-10.2327
နှီးမြှုပ်နှံမှု	-10.2334
▁ဥစ္စာ	-10.2334
▁၁၉၈၁	-10.2337
▁စစ်အာဏာရှင်	-10.2337
နယ်ပယ်	-10.2339
တော်မူသော	-10.2341
▁စီမံ	-10.2342
▁သဘောထား	-10.2343
▁လည်	-10.2345
ကမ္ဘာ့	-10.2349
လိုက်သော	-10.2352
▁မီးရှို့	-10.2356
ဗြိတိသျှ	-10.2357
လိုက်သည်	-10.2358
▁လင်း	-10.236
▁သရက်	-10.2369
▁တဏှာ	-10.237
▁အစားအစာ	-10.2374
▁အကျယ်	-10.2376
အရှေ့ပိုင်း	-10.2376
ရိုးရာ	-10.2376
▁တမ်းပလိတ်များ	-10.2378
▁ခါး	-10.2385
▁အဓိကအားဖြင့်	-10.2386
ပြသ	-10.2386
န္တိ	-10.2391
ဖဲ	-10.2391
▁၁၉၉၈	-10.2392
မူလ	-10.2394
▁ရှေးအခါက	-10.2397
▁မင်းလှမြို့နယ်	-10.2401
ဆိုက်	-10.241
၌ပင်	-10.241
ယာဉ်	-10.2413
▁ခမည်းတော်	-10.2414
ကျောက်စာ	-10.2415
▁ပြဇာတ်	-10.2415
များအရ	-10.2416
▁အနေနှင့်	-10.2416
စော်ဘွား	-10.242
▁ငါသည်	-10.2421
▁ကူ	-10.2425
▁အလွယ်တကူ	-10.2435
▁ပြေး	-10.2437
▁အဆုံးသတ်	-10.2438
▁ပွင့်	-10.2441
▁အကောင်အထည်ဖော်	-10.2442
▁အဆင့်မြင့်	-10.2442
ဘာသာပြန်	-10.2448
▁စစ်တပ်ဘက်မှ	-10.245
▁နုတ်ထွက်	-10.2452
ပြိုင်	-10.2456
ထေရ်	-10.2462
လေယာဉ်	-10.2466
ချော	-10.2471
ကြရာ	-10.2474
▁ရုပ်မြင်သံကြား	-10.2474
▁အာရုံ	-10.2477
▁လူပုဂ္ဂိုလ်များ	-10.2481
▁၃၀၀	-10.2482
ကြသော်လည်း	-10.2483
▁ပုံသဏ္ဌာန်	-10.2487
▁ဂုဏ်ပြု	-10.249
ဖြစ်ပေါ်	-10.249
ချက်အရ	-10.2491
▁အကြား	-10.2496
နေသည်ကို	-10.2505
များအကြား	-10.2509
လူမျိုးစု	-10.2514
တိုးတက်	-10.2521
▁ကော်မရှင်	-10.2521
၂၀၁၈	-10.2523
▁ရပ်တည်	-10.2523
သူများသည်	-10.2526
▁ကြေး	-10.2529
▁ဘွဲ့	-10.254
▁ကျူးကျော်	-10.254
▁အစ္စလာမ်	-10.2551
၆၆	-10.2551
▁အဲဒီလို	-10.2552
ပုဒ်	-10.2556
ကျင့်	-10.2557
၇၄	-10.2559
▁ယန်း	-10.256
▁တော်ဝင်	-10.256
ပြည်ထောင်စု၏	-10.2562
ဟတ်	-10.2563
▁အပူ	-10.2569
ပညာရှင်များ	-10.2572
▁ပေးအပ်	-10.2578
▁ဒုတိယမြောက်	-10.2581
▁၁၉၅၄	-10.2583
▁လည်ပတ်	-10.2583
▁မီးလောင်	-10.2584
ကွတ်ခိုင်	-10.2584
▁ပါဝင်ပြီး	-10.2586
▁သိရသည်။	-10.2587
သိက္ခာပုဒ်	-10.2587
နိုင်စွမ်း	-10.2589
ဖြစ်သဖြင့်	-10.2589
▁ဖော်ထုတ်	-10.2594
▁အယူအဆ	-10.2596
▁ဧရာဝတီ	-10.2597
မှာပင်	-10.2598
နန်းတော်	-10.2599
▁စတဲ့	-10.2601
▁ဥယျာဉ်	-10.2602
▁ဒေသဆိုင်ရာ	-10.2602
ကုန်းဘောင်ခေတ်	-10.2611
ပြုစု	-10.2613
▁အမ်	-10.2617
အက	-10.2617
အနေနှင့်	-10.2626
က္ခ	-10.2628
ဦးရေ	-10.2632
▁စိစစ်	-10.2632
ဓား	-10.2634
▁ကဲ့သို့သော	-10.2641
ဆိုသည့်	-10.2642
အမ်	-10.2643
▁ပြီးခဲ့တဲ့	-10.2643
ခုန်	-10.2647
▁စစ်ကောင်စီတပ်က	-10.2653
အယ်	-10.2655
မသိ	-10.2656
ဒီမိုကရက်တစ်ပါတီ	-10.266
ခေါင်းစဉ်	-10.2664
၁၀၀	-10.2665
ကုန်၏။	-10.2666
ဈ	-10.2668
ဒေါ	-10.2675
ကြိမ်	-10.2678
▁၅။	-10.2679
▁ရှစ်	-10.268
▁ကရင်ပြည်နယ်	-10.2682
သည့်အပြင်	-10.2684
▁တစ်နိုင်ငံလုံး	-10.2694
▁ကြောင့်	-10.2699
▁၄၈	-10.2703
ရက်ထပ်နှစ်ဖြစ်	-10.2705
▁တပည့်	-10.271
s	-10.2716
ဒေဝီ	-10.2719
▁ကျုံ	-10.2721
▁စတုတ္ထ	-10.2725
▁ကျွန်	-10.2731
▁သမိုင်းကြောင်း	-10.2734
မျက်နှာ	-10.2735
ဂျပန်နိုင်ငံရှိ	-10.2735
▁ဝတ်	-10.2736
ဗစ်	-10.2736
ဂိတ်	-10.2737
▁ကောလိပ်	-10.2737
▁အများစု	-10.2742
▁ကလေးငယ်	-10.2742
▁မုန့်	-10.2749
▁တို	-10.275
▁လွတ်မြောက်	-10.2752
၆၄	-10.2752
▁ဦးသေဆုံး	-10.2756
၈၈	-10.2758
ဖြစ်ခဲ့သည်။	-10.2764
▁အာနန္ဒာ	-10.2765
▁အဘိဓာန်	-10.2767
▁တာဝန်ခံ	-10.2767
ချိုး	-10.2773
▁အကြိမ်ကြိမ်	-10.2773
ရိုင်း	-10.2775
▁စေလွှတ်	-10.2776
▁နှစ်ခု	-10.278
တွက်	-10.2783
▁တစ်နှစ်တာ၏	-10.2784
▁ယင်းမာပင်	-10.2796
▁နှုတ်	-10.2796
▁အပင်များ	-10.2797
▁စာရင်းအင်း	-10.2803
▁ခွင့်ပြု	-10.2807
▁မိုင်းပျဉ်း	-10.2811
ရုရှား	-10.2814
ဒိုင်	-10.2816
▁ကျင်းပသော	-10.2818
၅၇	-10.2818
ကာလအတွင်း	-10.282
ချည်	-10.2821
ဇာတိ	-10.2823
▁အထက်တန်း	-10.2825
ကမူ	-10.2834
▁အယ်	-10.2836
▁၁၉၄၁	-10.2839
ဖွင့်လှစ်	-10.2839
ြံ့ခိုင်ရေးနှင့်	-10.2841
▁နိုင်ငံအလိုက်	-10.2842
▁ဆုံးဖြတ်ချက်	-10.2848
ကမ္ဘောဒီးယား	-10.2852
▁အားဖြင့်	-10.2853
စ္စ	-10.2853
သတ္တု	-10.2854
ရေးဝန်ကြီးဌာန	-10.286
အမှု	-10.2862
ပအိုဝ်း	-10.2863
▁ကိုးကား	-10.2868
▁နိုင်ငံသား	-10.2869
ဧရိယာစုစုပေါင်း	-10.2871
▁ဆိတ်	-10.2874
ရှိသော်လည်း	-10.2874
▁ထီ	-10.2877
ရှန်	-10.2878
▁လိုအပ်သည့်	-10.288
ပါရာမီတာမမှန်သော	-10.2882
ထမ်း	-10.2882
နေဆဲ	-10.2886
▁ပိုပြီး	-10.2886
၄၆	-10.2887
▁ရှု	-10.2888
▁ဂျီ	-10.289
▁မျက်	-10.2892
▁အားထုတ်	-10.2901
▁ကျန်သေးသည်	-10.291
ညီညွတ်ရေးအစိုးရ	-10.2911
▁ရှေးဦးစွာ	-10.2911
ရမယ်	-10.2912
▁အောင်မြင်မှု	-10.2913
၄၂	-10.2915
▁နွေရာသီ	-10.2915
▁ကုန်ဆုံးရန်	-10.2915
▁တော်လှန်	-10.292
▁အဆိပ်	-10.292
ဒေသခံ	-10.2921
▁ယခုခေတ်	-10.2924
▁ရှိခဲ့သည်။	-10.2925
ကဲ့သို့ပင်	-10.2926
▁ထွက်ခွာ	-10.2927
▁၀၉	-10.2929
▁ဓာတုဗေဒ	-10.293
▁အနေအထား	-10.2934
▁ဟောကြား	-10.2937
တွင်းသို့	-10.2937
▁လက်ထက်	-10.2937
ဖွား	-10.2947
▁လန်ဒန်	-10.2954
ကွင်းရွာ၊	-10.2955
▁တည်းဖြတ်ရန်	-10.2957
▁ကြိုတင်	-10.2957
မူဝါဒ	-10.2957
▁ထိုနှစ်	-10.2961
▁ထိုအချိန်တွင်	-10.2969
▁ဖွံ့ဖြိုးရေး	-10.2977
▁ငါတို့	-10.2977
▁အရေးယူ	-10.2981
▁စသည်	-10.2982
▁ညောင်ရွှေ	-10.2983
▁ဈေးကွက်	-10.2986
ရီး	-10.2986
ငယ်များ	-10.2987
▁မိန့်တော်မူ	-10.2994
၊မိုင်းဖြတ်	-10.2995
တင်မြှောက်	-10.3008
ဖွံ့ဖြိုးရေးပါတီ	-10.3009
အလုပ်သမား	-10.3011
▁ဖြစ်သည့်	-10.3011
▁အကြိမ်	-10.3014
▁ခပ်	-10.3019
▁၄၆	-10.3019
ကွဲပြား	-10.3021
ဒါး	-10.3024
▁အသုံးပြုကြသည်။	-10.3026
▁ယုံကြည်မှု	-10.3028
▁၁၉၇၁	-10.303
▁အမည်ပြောင်းလဲ	-10.3031
လ်ဘိုင်းတည်းဖြတ်	-10.3032
▁ဣ	-10.3032
ရန်နှင့်	-10.3033
▁ဖော်ပြထားသည်	-10.3034
တိရစ္ဆာန်	-10.3037
▁နံပါတ်	-10.3041
▁သိပ္ပံပညာရှင်	-10.3044
ဒိ	-10.3045
▁အများ	-10.3045
သွယ်	-10.3047
▁ဆက်ခံ	-10.3053
▁ဝီကီမီဒီယာ	-10.3054
▁၁၉၆၈	-10.3058
▁အရှေ့ပိုင်း	-10.3059
ဟင်း	-10.3059
ဒေါင်း	-10.3062
မြန်မာနိုင်ငံသား	-10.3064
▁တောင်တွင်းကြီး	-10.3064
▁ဇာတ်လမ်း	-10.3065
အစိုးရက	-10.3066
နယ်စပ်	-10.3067
အိန္ဒိယနိုင်ငံ	-10.3068
▁ထိုင်	-10.3073
▁ပူဇော်	-10.3073
၆၃	-10.3079
ကျိုင်း	-10.3084
အထက်တန်းကျောင်း	-10.3084
▁ဓာတ်ငွေ့	-10.3086
၇၃	-10.3091
▁ပုံနှိပ်	-10.3092
ကြက်	-10.3094
ကွယ်	-10.3101
ရပြီး	-10.3104
▁ဂျပန်နိုင်ငံ	-10.3107
အုံ	-10.3109
လှည့်	-10.3113
▁ကွန်ရက်	-10.3114
▁လူမှု	-10.3115
နင်	-10.3117
ဟုခေါ်သည်။	-10.3117
▁ဂျ	-10.3117
▁၅၃	-10.312
ဒစ်	-10.3121
▁ပျံ့နှံ့	-10.313
ရှင်းလင်း	-10.3134
▁လူ့အဖွဲ့အစည်း	-10.3138
အခွင့်အရေး	-10.3139
ရွန်	-10.3141
▁ကာတွန်း	-10.3143
များနှင့်အတူ	-10.3147
▁၃ဝ	-10.3149
▁ဆန္ဒ	-10.3151
ကျောင်းတိုက်	-10.3152
▁သိမ်း	-10.3152
ရှစ်	-10.3154
ရေးမှူးချုပ်	-10.3155
▁မကွေးတိုင်း	-10.3156
ညီနောင်	-10.3156
ဖောက်	-10.3156
▁အနာဂတ်	-10.3157
မှုသည်	-10.3157
လျက်၊	-10.3159
▁သံဃာ	-10.3159
▁ဘီဘီစီက	-10.3163
တင်ပြ	-10.3164
ထဲ၌	-10.3172
▁၁၉၇၈	-10.3175
သန့်	-10.3177
▁လောင်း	-10.3178
▁တရားရုံး	-10.3179
တ္တ	-10.318
▁ပိတ်	-10.3181
တစ်ခုဖြစ်ပြီး	-10.3184
၅၃	-10.319
လားရှိုးခရိုင်၊	-10.3191
ရုံးသုံးဘာသာစကား	-10.3192
▁ညီတော်	-10.3193
▁၃၉	-10.3195
▁ဦးစီး	-10.3195
▁၁၉၇၃	-10.3201
▁ဖြေရှင်း	-10.3205
▁စစ်ဘက်	-10.3208
ဘုတ်	-10.3209
ဂျိ	-10.321
▁နိုင်	-10.3211
p	-10.3214
▁မိတ်ဆွေ	-10.322
▁ခေါ်သည်	-10.3223
▁အက	-10.3227
▁ဒါဟာ	-10.3228
ရွာမရွာ၊	-10.3228
ဆိတ်	-10.3229
မြေပုံ	-10.3234
မီဒီယာ	-10.3235
ကျီး	-10.3236
▁စာချုပ်များ	-10.324
▁ယာဉ်	-10.3251
▁ပညာသင်ကြား	-10.3253
ဒါရိုက်တာ	-10.3253
▁အသုံး	-10.3257
▁လူဦးရေမှာ	-10.3261
၎င်း၊	-10.3273
ရာ၊	-10.3273
▁ဒီမိုကရက်တစ်	-10.3279
၇၇	-10.328
လိမ့်မည်	-10.3281
လိုင်စင်	-10.3283
တောင်တွင်းကြီး	-10.3285
▁ဝီကီ	-10.3289
▁နို့	-10.3289
ရှိန်	-10.329
အချက်	-10.3291
▁ဦးသေဆုံးပြီး	-10.3292
နမ့်	-10.3297
ပေသည်	-10.3299
ပြင်း	-10.3302
▁ဒေသများ	-10.3303
၄၃	-10.3304
▁တိရစ္ဆာန်များ	-10.3305
ပြိုင်ပွဲ	-10.3307
▁ရူပဗေဒ	-10.3311
ရှိတယ်	-10.3312
▁ပုသိမ်	-10.3313
▁ဇီဝ	-10.3314
ပိုင်းတွင်	-10.3316
▁၁၉၆၄	-10.3317
▁ဖော်	-10.3318
▁တစ်ဆင့်	-10.3319
တွင်ရှိသော	-10.332
▁၁၉၆၇	-10.3322
အလင်း	-10.3325
၉၀	-10.3325
▁စုစည်း	-10.3327
ရသ	-10.333
▁အေအေ	-10.3333
ပေးပြီး	-10.3333
စစ်ကောင်စီတပ်သား	-10.3334
ပြောင်	-10.3335
▁ပြင်းထန်	-10.334
ဆီသို့	-10.3341
▁၁၀၂၇	-10.3344
▁ဆိုတာ	-10.3344
ဘေ	-10.3346
ကန်ကျေးရွာအုပ်စု	-10.3349
▁ညောင်ကုန်း	-10.3353
၂၀၀၉	-10.336
၅၂	-10.3361
ဆောင်ရွက်မှု	-10.3364
ဆိုသော	-10.3365
ဍ	-10.3365
၈၁	-10.3366
▁မြို	-10.3368
ဇာတ်လမ်း	-10.3372
▁ကယ်လီဖိုးနီးယား	-10.3378
ရွှေတောင်	-10.3378
▁လွန်ခဲ့သော	-10.3379
များသာ	-10.3381
▁ဝါဒ	-10.3382
ရှ်	-10.3389
အောက်တိုဘာ	-10.3391
▁ဒရုန်း	-10.3392
▁ကမ္မ	-10.3396
▁သီရိ	-10.3396
▁ကျီး	-10.3397
▁ဝန်ကြီးများ	-10.3399
နွဲ့	-10.3399
နော့	-10.34
ချီးမြှင့်	-10.3405
ဖုံး	-10.3405
▁ဝေဒနာ	-10.3407
▁ထုတ်လွှင့်	-10.3415
▁ရန်ကုန်တိုင်း	-10.3417
ျ	-10.3418
▁ဘုရင်ခံ	-10.3418
ကိုလည်းကောင်း	-10.3419
▁အပ်	-10.342
အားကစားပြိုင်ပွဲ	-10.3438
ိက	-10.3439
▁အရက်	-10.3445
တတ်သည်	-10.3446
▁သတင်းထုတ်ပြန်	-10.3449
တဲ့အတွက်	-10.3449
ဖြစ်ရာ	-10.3449
▁ပဲခူးတိုင်း	-10.3449
▁မျက်နှာပြင်	-10.345
▁မီ	-10.3452
▁အင်္ဂါ	-10.3452
▁အက်တမ်	-10.3454
▁ဦးတည်	-10.3455
တပ်များက	-10.3457
ရှိသည်ဟု	-10.3457
▁ကွဲပြားသော	-10.3464
ဂရိ	-10.3468
▁ထိုကဲ့သို့	-10.3475
▁ဆောက်	-10.3482
ဌေး	-10.3484
▁ဖြစ်ပါတယ်။	-10.3484
၊ဦး	-10.3487
စန်း	-10.3491
တော့ဘဲ	-10.3491
▁သတင်းရင်းမြစ်က	-10.3492
၂၀၀၀	-10.3494
အချိန်ဇုန်	-10.3495
မှုဖြင့်	-10.3497
▁အကွာအဝေး	-10.3499
၅၄	-10.35
လက်နက်ကိုင်	-10.3502
အဖို့	-10.3504
▁ကိုလိုနီ	-10.3505
ယခင်	-10.3508
▁အဘယ်ကြောင့်	-10.3512
▁ထိန်းသိမ်းရေး	-10.3514
အရှေ့တောင်အာရှ	-10.3517
ဒက်	-10.3518
▁အများကြီး	-10.352
▁အစရှိသော	-10.3521
မကျ	-10.3527
▁ညီ	-10.353
စသည်တို့	-10.3532
၆၉	-10.3534
▁အလေးချိန်	-10.3534
ထဲကို	-10.3534
တာဝန်ထမ်းဆောင်	-10.3541
သရ	-10.3548
▁တဖန်	-10.3549
လာတာ	-10.3553
ပုံမှာ	-10.356
▁ဒဏ္ဍာရီ	-10.3568
ဆန့်ကျင်ရေး	-10.3571
ရတယ်	-10.3573
▁ဆိုပြီး	-10.3574
သား၊	-10.358
▁ကမ်း	-10.3582
လူငယ်	-10.3588
▁အခမ်းအနား	-10.359
▁ဇာ	-10.359
နိုင်ရန်အတွက်	-10.3591
့်	-10.3595
▁လက်ထက်တွင်	-10.3599
▁ဖော်ပြချက်တို	-10.3602
▁သက်ရှိ	-10.3604
ဖြစ်နေ	-10.3607
ခု၊	-10.3607
▁ထောက်ပြ	-10.361
▁ရို	-10.3611
▁ပါလက်စတိုင်း	-10.3619
▁သင်ယူ	-10.3623
▁၎င်းပြင်	-10.3624
သွားတဲ့	-10.3624
▁ရာဇ	-10.3629
▁ဖွင့်	-10.3629
▁အထောက်အထား	-10.363
အနောက်ရွာ၊	-10.3631
လာသည်	-10.3633
▁ပိုင်ဆိုင်	-10.3635
သာရ	-10.3636
▁ကြယ်စုတန်း	-10.3639
▁ဓာတု	-10.364
▁ကိရိယာ	-10.3642
ခံယူ	-10.3646
▁သူ့အား	-10.3646
▁လျင်မြန်စွာ	-10.365
▁ပေးပို့	-10.3652
ဟီ	-10.366
ဇူလိုင်	-10.366
တော်ကို	-10.366
▁ပညာရှိ	-10.3664
▁မှတ်တမ်းတင်	-10.3667
သတ္တဝါ	-10.3668
မှုများကြောင့်	-10.3669
ပိုင်ရှင်	-10.3671
ဘီစီ	-10.3671
ကုသိုလ်	-10.3679
▁စွပ်စွဲ	-10.3683
▁လက်နက်ကြီးများ	-10.3684
အမျိုး	-10.3685
လိန်	-10.3685
ထာ	-10.3688
မိခင်ကျောင်း	-10.3691
▁မယ်တော်	-10.3699
▁နီးပါး	-10.37
▁ကနေ	-10.3702
သမုဒ္ဒရာ	-10.3704
▁ခက်ခဲ	-10.3707
▁၂၀၁၅၊	-10.3707
▁၅၄	-10.371
ပုံများ	-10.3713
များဖြစ်သော	-10.3714
၇၆	-10.3714
ရာခိုင်နှုန်း	-10.3715
▁အနက်မှ	-10.3717
ခရစ်ယာန်ဘာသာ	-10.3721
▁ဖြစ်သော်လည်း	-10.3725
န့်	-10.3726
အတွင်းမှ	-10.3727
▁ဆရာဝန်	-10.3732
ချမှတ်	-10.3744
များအပြင်	-10.3748
နမ်	-10.375
▁စကားပြော	-10.3755
▁အလုပ်အကိုင်	-10.3758
လတ်သော်	-10.376
ဋီကာ	-10.377
သည်ရှိသော်	-10.377
▁သောက်	-10.377
▁ဌာနချုပ်	-10.3772
ဗား	-10.3774
▁သိသိသာသာ	-10.3776
▁အပြင်းအထန်	-10.3776
အလယ်ပိုင်း	-10.3784
ဒေ	-10.3785
▁အစား	-10.3786
ခူး	-10.3789
အံ့	-10.379
▁ဟိန္ဒူ	-10.3794
ရေးဆိုခွင့်ရှိသူ	-10.3795
ေန	-10.3795
ခရိုင်၊	-10.3796
▁ရှိ၏။	-10.3797
ပြေ	-10.3799
▁ဝေ	-10.3801
အဖြစ်ဖြင့်	-10.3804
ညှပ်	-10.3804
ရမည်ဟု	-10.3805
ကြော	-10.3806
▁ယော	-10.381
ခေါင်းဆောင်များ	-10.3812
မှာပါ	-10.3814
▁သံတမန်	-10.3815
▁မြို့တစ်မြို့	-10.3816
▁ဗန်းမော်	-10.3817
နေပြီ	-10.3818
▁ပြန်လာ	-10.3819
▁ရက်နေ့အထိ	-10.3822
▁လက်ရာ	-10.3823
လျှက်	-10.3824
▁နယ်ချဲ့	-10.3825
၂၀၀၈	-10.3825
▁၁၉၅၁	-10.3826
အတတ်	-10.3829
▁နာမည်ကျော်	-10.383
ရလေသည်	-10.3832
ညောင်ကုန်းရွာ၊	-10.3833
ဒီဇင်ဘာ	-10.3834
ပြန်ညွှန်း	-10.3843
ဌာနခွဲ	-10.3844
▁အစိုးရ၏	-10.3846
▁ပင်လယ်ရေ	-10.3848
မှား	-10.385
နိုင်ငံသည်	-10.3851
▁စကားကို	-10.3852
▁အသင်တို့	-10.3865
▁သို့ဖြစ်၍	-10.3866
ဆရာကြီး	-10.3866
ဘိုး	-10.3866
ခဲ့ခြင်းဖြစ်သည်။	-10.3873
▁ဆိုသည့်	-10.3875
▁ဆွ	-10.388
နဲ့အတူ	-10.3881
ဖြစ်လာခဲ့သည်။	-10.3881
တင့်	-10.3881
▁ထွန်းကား	-10.3881
▁တပ်မဟာ	-10.3883
များဖြစ်သည့်	-10.3883
▁နောင်တွင်	-10.3883
▁တိုင်းတာ	-10.3885
သောင်	-10.3887
▁အင်္ဂလန်	-10.3891
▁ဝန်းကျင်	-10.3892
တရားလွှတ်တော်	-10.3892
▁တစ်မျိုး	-10.3893
▁ခံစား	-10.3907
အိပ်	-10.3908
▁ဂုဏ်	-10.3908
▁ရက်နေ့က	-10.3911
▁ဂြိုဟ်	-10.3911
ဂေါ	-10.3913
စာတမ်း	-10.3913
▁ဒီကနေ့	-10.3916
ပြည်နယ်၊	-10.3919
ဥယျာဉ်	-10.3919
▁ကွင်း	-10.3921
များထက်	-10.3926
▁တစ်ဖက်	-10.3927
နှစ်ယောက်	-10.3927
အမည်ဖြင့်	-10.3928
သွားတာ	-10.3929
▁လွတ်	-10.3929
▁ခေတ်မီ	-10.3929
မစ်	-10.3929
နည်းဖြင့်	-10.3931
▁ရဟန်းပြု	-10.3931
▁ကာမ	-10.3934
▁ပတ်သက်ပြီး	-10.3937
▁အဆုံး	-10.3937
▁ကျင့်	-10.394
စေ၍	-10.394
▁တံဆိပ်	-10.3941
▁၄၉	-10.3942
▁လက်ထပ်	-10.3943
ဘ်	-10.3944
ပတ်ဝန်းကျင်	-10.3946
▁နည်းပါး	-10.3946
ရေး၊	-10.3946
ဇန်	-10.3947
▁၁၉၅၇	-10.3952
▁လက်ပန်	-10.3953
▁ကောင်	-10.3956
▁ဆိုသော	-10.3959
တပ်များ	-10.3959
▁ဖြစ်စဉ်	-10.3961
▁ကိုးကွယ်	-10.3962
▁၄၀၀	-10.3964
ခြင်းဖြစ်သည်	-10.3965
▁နှစ်ဖက်	-10.3966
▁ညီလာခံ	-10.3974
သည်။၂	-10.3974
▁ဖြစ်သည်။၂	-10.3975
ကွန်း	-10.3978
▁ရွာသစ်	-10.3981
အင်္ဂါ	-10.3984
▁ဩဇာ	-10.3984
ဧ	-10.3985
မိန်းမ	-10.3991
▁ဘုရင့်	-10.3996
ကိုယ်ပိုင်အုပ်	-10.3997
▁ဆီးရီးယား	-10.4
ဆိုလျှင်	-10.4001
ဘက်တွင်	-10.4002
▁ကော	-10.4003
▁အလောင်း	-10.4008
▁လက်မှတ်	-10.4011
▁အိမ်နီးချင်း	-10.4011
▁တိ	-10.4012
ထိန်းသိမ်းရေး	-10.4013
▁စစ်ကောင်စီရဲ့	-10.4014
ဖြစ်ပြီး၊	-10.4014
အသံထွက်	-10.4016
ဝါဒီ	-10.4017
ထုတ်လုပ်	-10.4019
▁သဘောတရား	-10.4021
လျှပ်စစ်	-10.4025
မည်း	-10.4025
▁နို့တိုက်သတ္တဝါ	-10.4027
▁အတွေးအခေါ်	-10.4028
▁ဘဏ်	-10.4029
ချိ	-10.4034
▁စစ်အာဏာသိမ်း	-10.4035
အချို့ကို	-10.4037
ဗင်	-10.4039
▁သမိုင်းဝင်	-10.404
ရတ်	-10.4043
ကြီး၊	-10.4048
▁အစားအသောက်	-10.4052
▁အမှန်	-10.4054
နိုင်မှု	-10.4056
မော်လမြိုင်မြို့	-10.4057
ကြည့်ရှု	-10.4057
▁ကျောက်မီးသွေး	-10.4057
ရပ်စောက်မြို့နယ်	-10.4059
▁အချို့က	-10.406
▁၁၉၃၉	-10.4068
ကျရောက်	-10.407
ဆိုသူ	-10.4073
▁ပုံမှန်အားဖြင့်	-10.4076
▁ပတ္တမြား	-10.4078
ထုပ်	-10.4078
တန့်ယန်းမြို့နယ်	-10.4078
ကြံ	-10.4079
ကိုးကွယ်မှု	-10.408
▁အဝတ်	-10.4082
▁တို့တွင်	-10.4087
▁ရိက္ခာ	-10.4087
▁မြင့်	-10.409
ပြည်ထောင်စုက	-10.409
▁ကြော်ငြာ	-10.4092
▁ဆိုလိုသည်။	-10.4094
▁ကတ်	-10.4095
▁ပြည်တွင်းစစ်	-10.4101
သားသမီး	-10.4103
▁သမာဓိ	-10.4107
▁ကိလေသာ	-10.4108
စကားကို	-10.4131
စေး	-10.4134
မာန်	-10.4135
ထားကြောင်း	-10.4139
နိုင်ငံမှ	-10.4141
▁ကိုးကန့်	-10.4141
စွယ်စုံကျမ်း	-10.4142
▁လက်ထောက်	-10.4143
▁သူမ၏	-10.4143
ဒုက္ခ	-10.4143
အသွင်	-10.4145
▁အတ္တ	-10.4146
ကြို့ပင်ကောက်	-10.4147
ရင့်	-10.4147
▁တည်ထောင်ခဲ့သည်။	-10.4148
အမည်ရှိ	-10.4149
မတိုင်မီ	-10.4154
ပျော်	-10.4159
ဇုန်	-10.4165
ပင်း	-10.4168
▁ဆုံးမ	-10.4169
▁ပေါ်လာ	-10.417
▁၁၉၈၃	-10.4172
▁ပြရန်	-10.4179
လူ့အခွင့်အရေး	-10.4179
▁လောကီ	-10.4181
▁အမေ	-10.4181
▁နေရာတွင်	-10.4184
လွှဲ	-10.4185
▁နာမည်ကြီး	-10.4188
လျက်ရှိကြောင်း	-10.4192
ထုတ်လုပ်မှု	-10.4195
ငလျင်	-10.4196
▁မယား	-10.4196
စာလုံး	-10.4199
▁ဆိုကြသည်။	-10.4201
ဒီပဲယင်းမြို့နယ်	-10.4201
ရူပဗေဒ	-10.4201
တိုက်ပွဲဖြစ်ပွား	-10.4203
▁စုံစမ်း	-10.4204
▁စတုရန်း	-10.4207
မှနေ၍	-10.4209
▁စာသင်ကျောင်း	-10.421
▁ထိခိုက်ဒဏ်ရာရ	-10.421
▁ဗီ	-10.4219
▁တပ်သားများ	-10.4222
▁မှတ်သားလိုက်သော	-10.4223
▁၆၄	-10.4224
▁၆၂	-10.4228
▁မိမိကိုယ်ကို	-10.4233
▁မကောင်း	-10.4234
▁စက္ကူ	-10.4235
▁ဤကဏ္ဍတွင်	-10.4237
▁ဆွမ်း	-10.4238
▁ဖား	-10.4239
အမိန့်	-10.4239
ဝတီ	-10.4244
၆၈	-10.4247
▁တူးဖော်	-10.4248
၉၉	-10.425
▁တူရိယာ	-10.4253
▁စာကြည့်တိုက်	-10.4253
ရသေ့	-10.4255
▁ကြံ	-10.4255
▁နိ	-10.4257
▁စီးဆင်း	-10.4259
▁ကောက်	-10.4259
▁အနောက်ပိုင်း	-10.4264
▁စတင်၍	-10.4266
လက်အောက်ခံ	-10.4266
ပေါ်မှ	-10.4267
▁တောင်းပန်	-10.4274
ဒေး	-10.4274
မြို့သို့	-10.4274
▁ရက်နေ့မှ	-10.4274
▁စေတီပုထိုးများ	-10.4275
▁အမှန်တကယ်	-10.4278
နောက်ပိုင်းတွင်	-10.4281
မိခင်	-10.4281
▁မီးရှို့ဖျက်ဆီး	-10.4284
▁နေထိုင်ကြသည်။	-10.4285
▁တပ်မ	-10.4285
▁တက္ကသိုလ်များ	-10.4287
▁ထပ်ထည့်ရန်	-10.4287
အိတ်	-10.4287
အင်ပါယာ	-10.4288
▁သာသနာပြု	-10.4289
▁လာအို	-10.4292
▁သင်တန်း	-10.4295
ဒိုင်း	-10.4297
မင်းသည်	-10.43
မိုင်းဖြတ်မြို့	-10.43
▁စတင်ခဲ့သည်။	-10.4304
မောင်မောင်	-10.4305
▁ဒဏ်ရာရ	-10.4311
ဗလ	-10.4312
▁အုန်း	-10.4316
▁သူတို့က	-10.4317
▁ကန့်	-10.4322
ဝဂ္ဂ၊	-10.4324
▁အပြည့်အဝ	-10.4326
ပြည်ထောင်စုသမ္မတ	-10.4329
▁ရွှေဘို	-10.4331
ကျောက်တံခါး	-10.4332
▁ရင်ဆိုင်	-10.4335
▁အုပ်စိုး	-10.4335
ကိရိယာ	-10.4336
ခြင်းတို့	-10.4336
ဘု	-10.4338
▁၀၅	-10.4338
ငါ	-10.4338
ဆွတ်	-10.4346
ယမ်း	-10.4346
▁အကြောင်းကို	-10.4347
▁၁၉၂၀	-10.435
နေရာကို	-10.4351
ကမ္ဘာလုံးဆိုင်ရာ	-10.4352
ဒေသများတွင်	-10.4353
ယဉ်	-10.4356
▁အရည်အသွေး	-10.4357
နှောင်းပိုင်း	-10.436
▁လုပ်ဆောင်ချက်	-10.436
ကုတ်	-10.4361
မြန်	-10.4361
▁ဦးဆောင်သော	-10.4362
မကွေး	-10.4363
▁ဆိပ်ကမ်း	-10.4371
▁မွေးဖွားခဲ့သည်။	-10.4378
▁စည်	-10.4381
▁ဘို	-10.4383
▁ဆေးဝါး	-10.4389
များရှိ	-10.4389
လိုက်ပါတယ်	-10.4398
ကီး	-10.4398
ဂမုန်း	-10.4399
▁စီရင်	-10.4404
▁ကုန်းဘောင်ခေတ်	-10.4405
ဖြာ	-10.4405
▁တပ်မတော်ကာကွယ်	-10.4408
▁၁၉၈၆	-10.4409
▁အရေပြား	-10.441
▁သတ်မှတ်ထားသော	-10.4412
▁လိင်	-10.4414
ခံရခြင်း	-10.4415
ချက်ကို	-10.4416
▁မြစ်ကြီးနား	-10.4419
▁ခံ	-10.4421
▁စိုက်	-10.4424
ခဲ့သည်။၃	-10.4425
▁မူလက	-10.4428
ကမ်းရိုးတန်း	-10.4431
ဖေ	-10.4432
▁ပါကစ္စတန်	-10.4435
သင်ကြား	-10.4437
တချို့က	-10.4438
တစ်ကောင်	-10.444
မျိုးစိတ်	-10.444
စိုက်ပျိုးရေး	-10.4443
နေကြပါတယ်	-10.4444
အဖြစ်လည်းကောင်း၊	-10.4445
မြို့ရှိ	-10.4446
တောကျေးရွာအုပ်စု	-10.4449
▁သီဆို	-10.4449
မလဲ	-10.4451
လျက်ရှိ	-10.4455
▁ပေါ်တာဆွဲ	-10.4459
▁တွေ့ရသည်	-10.446
ထိန်းချုပ်	-10.4465
ဆန္ဒ	-10.4466
▁သဒ္ဒါ	-10.4467
▁၆၃	-10.4468
▁အာဏာပိုင်	-10.4468
ကြတဲ့	-10.4474
▁ယင်းတို့	-10.4475
ဆက်စပ်	-10.4479
လေးရွာ၊	-10.4487
▁စည်းကမ်း	-10.4491
ဆက်လက်	-10.4497
ပင်မ	-10.4498
▁ရေခဲ	-10.4498
ကြီးက	-10.4499
၉၈	-10.4499
▁၁၉၆၆	-10.45
▁ဟွေ	-10.4501
▁လွှမ်းမိုးမှု	-10.4502
ကမ်းခြေ	-10.4502
အင်တာနက်	-10.4503
▁ဗိုလ်ကြီး	-10.4505
▁မုံရွာ	-10.4506
ရွတ်	-10.4507
▁ဆင်းသက်	-10.4508
▁စိတ်ဓာတ်	-10.4512
▁ရဟတ်ယာဉ်	-10.4515
စတာ	-10.4517
▁တရုတ်က	-10.4521
▁ပြစ်ဒဏ်	-10.4521
▁အာဖရိကတိုက်	-10.4523
▁မြောက်ကိုရီးယား	-10.4525
မဲဆန္ဒနယ်	-10.4528
ြ	-10.4529
▁လေ့ကျင့်	-10.4531
ဖြင့်သာ	-10.4532
▁ကျွဲ	-10.4533
▁အချင်း	-10.4534
▁တရားလွှတ်တော်	-10.4537
▁ရူပ	-10.4539
သူ၊	-10.4542
လေ့ရှိကြသည်။	-10.4544
▁ဓ	-10.4544
တို့သည်လည်း	-10.4545
▁တပ်သားသစ်	-10.4549
ပညာရှိ	-10.455
သေးသည်။	-10.4551
▁ရာဇဝတ်မှု	-10.4554
▁ဂျူး	-10.4554
ိင်ပိုင်းဆိုင်ရာ	-10.4555
ဒင်း	-10.4557
ဝန်ကြီးများ	-10.4557
မြို	-10.4558
▁အကြောင်းရင်း	-10.456
ကောင်စီဥက္ကဋ္ဌ	-10.456
ကိုယ်စားပြု	-10.456
အကြီးဆုံး	-10.4562
▁ကန့်သတ်	-10.4562
▁အကြီးအကဲ	-10.4565
တတိယ	-10.4565
ယောက်	-10.4571
▁၁၉၇၆	-10.4572
▁ပြန်ပြင်ခြင်း	-10.4574
▁အနီရောင်	-10.4575
၇၂	-10.4578
အကောင်းဆုံး	-10.4578
▁ခွဲ	-10.4582
▁မကြာမီ	-10.4586
▁ဖြစ်ပေသည်။	-10.4587
ပါဠိ	-10.459
▁ဝတ်ဆင်	-10.4591
▁ကုန်သွယ်မှု	-10.4591
ဗိုလ်မှူးကြီး	-10.4593
၇၉	-10.4593
▁တော်လှန်ရေးတပ်	-10.4595
▁အလ္လာဟ်	-10.4598
▁အနီ	-10.4599
ကာကွယ်	-10.46
၂၀၂၂	-10.4604
▁အစောဆုံး	-10.4606
ပြစ်	-10.4608
▁အယူဝါဒ	-10.4608
▁ကောင်းမွန်	-10.4611
▁ဖျက်ပစ်ခဲ့သည်	-10.4612
▁လူတိုင်း	-10.4616
▁နှင်း	-10.4616
များမြန်မာ	-10.4618
▁ဆက်ဆံ	-10.4622
ခွာ	-10.4623
နိုင်ငံများတွင်	-10.4627
▁ဘုရားကျောင်း	-10.4628
ကိုတော့	-10.463
▁ခုခံ	-10.4631
င်္ဂ	-10.4632
နည်းလမ်း	-10.4635
▁ကရင်အမျိုးသား	-10.4636
ကူညီ	-10.4637
စပါး	-10.4637
၉၁	-10.4637
▁၄၇	-10.464
ဖြစ်လေသည်။	-10.4641
▁တည်းဖြတ်ခြင်း	-10.4643
▁၂၀၂၀ကွ	-10.4645
▁ဤသို့ဖြင့်	-10.4648
▁ဆည်	-10.4649
ကရင်ပြည်နယ်	-10.4649
သို	-10.4654
▁ဂါ	-10.4657
▁ရိုဟင်ဂျာ	-10.4658
အစည်းအရုံး	-10.466
▁ရတနာပုံ	-10.466
ဘက်ကို	-10.4662
▁သက်သေ	-10.4666
▁ပန်ခမ်းမြို့နယ်	-10.4667
▁ဗာ	-10.4669
▁စာသား	-10.4669
▁ဖျက်သိမ်း	-10.4671
ဟုခေါ်သော	-10.4675
▁နက်	-10.4675
လိုက်ပြီး	-10.4678
ခွင့်ပြု	-10.4682
ဆုံးဖြတ်	-10.4683
ဲ့	-10.4691
၉၄	-10.4692
▁သီရိလင်္ကာ	-10.4692
သုံးပါး	-10.4692
▁သိမ်းဆည်း	-10.4692
ဧကရာဇ်	-10.4694
အနီးရှိ	-10.4696
ကြွ	-10.4698
ကျသော	-10.47
▁အောင်မြင်စွာ	-10.4701
▁ဘုရင့်နောင်	-10.4702
▁လိုင်စင်	-10.4703
▁ကု	-10.4705
▁အကျဉ်းချုပ်	-10.4706
▁လွှတ်	-10.4711
▁သို့ဖြင့်	-10.4716
▁ကနဦး	-10.4718
▁၀၆	-10.4732
ဩဂုတ်	-10.4735
▁ခေါ်ယူ	-10.4737
▁လှိုင်း	-10.4739
▁ဒေါင်း	-10.474
သုတေသန	-10.474
ဂျင်	-10.4743
ူ	-10.4743
▁အချစ်	-10.4744
အာဖရိက	-10.4744
ရာဇ	-10.4746
ဈာန်	-10.4746
▁သေဆုံးသူ	-10.475
တရားရုံး	-10.475
▁လားရှိုး	-10.4751
ခွံ	-10.4753
▁၀၄	-10.4754
ရသူ	-10.4756
တစ်ခု၏	-10.4756
ကြရ	-10.4758
▁အများစုမှာ	-10.476
▁ပြီးတော့	-10.476
▁ဇာတ်ကား	-10.4762
▁တခု	-10.4763
▁မွေးမြူ	-10.4763
မည်သော	-10.4764
▁လှည့်လည်	-10.4764
▁ဒေါသ	-10.4767
▁ကျော်ကြား	-10.4771
ပွတ်	-10.4771
သူများ၏	-10.4773
▁ဖြစ်လေသည်	-10.4773
ယုတ်	-10.4775
လက်ပံတန်း	-10.4776
ပေးရသည်။	-10.4777
ရွာသစ်ရွာ၊	-10.4778
ထင်ရှားအရေးပါမှု	-10.4778
▁ပုံများ	-10.4779
▁အသုံးပြုသည်။	-10.478
ဝှက်ရန်	-10.4783
ဆေးပညာ	-10.4784
ဆိုသော်	-10.4785
▁နှစ်နိုင်ငံ	-10.4787
သည့်အတိုင်း	-10.4788
တရာ	-10.479
▁မိတ်ဆက်	-10.479
▁အကုန်	-10.4791
ထန်း	-10.4796
▁ကမ္ဘာပေါ်ရှိ	-10.4797
ဆိုတော့	-10.4797
▁ကတော့	-10.4802
ပြည့်စုံ	-10.4803
နိုင်း	-10.4804
▁တစ်ခုတည်းသော	-10.4807
▁ရခိုင်ပြည်	-10.4807
ကြောင်းကို	-10.4808
▁ပညာရပ်	-10.4812
နှင်း	-10.4814
လက်မ	-10.482
▁ကွမ်း	-10.4825
▁ကြံစည်	-10.4829
▁တကယ်	-10.483
ယင်	-10.4832
▁စစ်ဘေးရှောင်	-10.4832
တွေကြောင့်	-10.4833
▁၁၉၃၇	-10.4833
ဘူးလို့	-10.4836
အလို	-10.4837
▁လေ့လာရေး	-10.4839
▁ရှေးက	-10.4844
▁အတိုက်အခံ	-10.4847
ရမ်း	-10.4849
▁နောက်ဆုံးတွင်	-10.485
▁မဟုတ်သော	-10.4852
လမ်းညွှန်	-10.4853
ချောင်းရွာ	-10.4854
▁မြို့မ	-10.4857
ပဲခူးခရိုင်	-10.486
ကက်	-10.4862
▁ပိုင်းခြား	-10.4866
၂၀၂၄	-10.4866
▁ဖတ်ရှု	-10.4868
ရေထု	-10.4871
▁တူရကီ	-10.4876
▁ဦးဘ	-10.4876
▁ရစ်	-10.4877
တီထွင်	-10.4877
ဥပဒေပြုလွှတ်တော်	-10.4882
ပါဝင်သည်။	-10.4884
ဒမ်	-10.4885
နိုင်၏။	-10.4886
▁သကြား	-10.4887
တည်းဖြတ်	-10.4888
ဘုန်း	-10.4889
ကြ၍	-10.4891
▁၁၉၃၀	-10.4894
ခြုံ	-10.4896
၆၂	-10.4897
သည်မှာ	-10.4899
အပေါင်း	-10.49
▁ကိုးကွယ်မှု	-10.49
▁သပြေ	-10.4903
▁ကျောက်ဖြူ	-10.4904
ယှဉ်ပြိုင်	-10.491
အချက်အလက်	-10.4913
ကုန်၏၊	-10.4917
▁စင်း	-10.4918
ဟီး	-10.4918
ကျောက်မဲမြို့နယ်	-10.492
▁၁၉၃၆	-10.4921
ရယူ	-10.4923
▁ယင်းသည်	-10.4924
▁ခို	-10.4927
ဂဏန်း	-10.4928
▁ဒေါ	-10.4937
▁လယ်ယာ	-10.4942
▁၎င်းတို့ကို	-10.4943
လုပ်ငန်းများကို	-10.4948
▁အဖြေ	-10.4949
ဝရွာ၊	-10.4951
▁မြန်မာတို့	-10.4959
▁သာယာ	-10.4959
တွေထဲမှာ	-10.496
ပြုခြင်း	-10.4964
▁တီ	-10.4966
▁ဖုန်း	-10.4967
▁လုပ်ကြံ	-10.4972
▁လက်နက်ချ	-10.4973
▁ရာသီ	-10.4975
▁အမ	-10.4975
ဒီမိုကရက်တစ်	-10.4976
▁ယင်းကို	-10.4977
တည်း။	-10.4978
▁မြို့၏	-10.4979
▁တွက်ချက်	-10.4979
▁ထိုးစစ်ဆင်	-10.4979
ရေးဆွဲ	-10.498
းကားချက်လိုသည်	-10.4983
▁တွေ့ရှိရသော	-10.4985
▁ခေတ္တ	-10.4985
အစိတ်အပိုင်းများ	-10.4985
▁အစွဲပြု၍	-10.4985
▁လိုက်လံ	-10.4987
▁ပုဏ္ဏား	-10.4988
၂။	-10.499
ဘီး	-10.4993
ကျွန်	-10.4996
လေရာ	-10.5001
▁ဖွဲ့စည်းခဲ့သည်။	-10.5007
သတင်းအချက်အလက်	-10.5008
ခံရပြီး	-10.501
ကုသ	-10.5012
▁သမင်	-10.5013
ကာလတွင်	-10.5014
▁အပတ်စဉ်	-10.5015
▁လေတပ်	-10.502
ပါဝင်သည့်	-10.5022
နှစ်မျိုး	-10.5022
▁ရောက်သောအခါ	-10.5023
၉၆	-10.5024
အမျိုးအစားများ	-10.5029
သိမ်	-10.5029
ဇယား	-10.5029
ရာမှာ	-10.5039
ညာဘက်	-10.504
▁ချိတ်ဆက်	-10.5042
▁အောက်တွင်	-10.5044
▁၁၉၈၄	-10.5045
အလိုအလျောက်	-10.5047
▁ကာယ	-10.5048
▁ရထားလမ်း	-10.5049
ပြီးသော	-10.5051
▁လိင်ဆက်ဆံခြင်း	-10.5051
ဆတ်	-10.5052
ခန်	-10.5055
▁ထိတွေ့	-10.5055
▁ပေါ်တူဂီ	-10.5057
တောင့်	-10.5058
အင်ဒိုနီးရှား	-10.5065
▁ပလက်ဝမြို့နယ်	-10.5068
ယခင်လူ	-10.5072
ရမယ့်	-10.5079
▁မွန်းလွဲ	-10.5082
▁သိုး	-10.5083
▁ကရင်နီ	-10.5086
▁၁၉၆၉	-10.5091
အယ်လ်	-10.5093
▁ဝယ်	-10.5094
မွှေး	-10.5095
▁ဗီဒီယို	-10.5099
ကြပ်	-10.5105
▁ကိုင်တွယ်	-10.5105
မျက်မြင်တည်းဖြတ်	-10.5108
ဘောလုံး	-10.511
▁၆။	-10.5114
၈၅	-10.5117
▁ညနေပိုင်း	-10.5122
တလျှောက်	-10.5125
▁စေတီတော်	-10.5127
▁မရှိပေ။	-10.5128
▁ကွဲပြားခြားနား	-10.5128
သမိုင်းကြောင်း	-10.5128
၈၄	-10.513
▁ပြည်သူတွေ	-10.5138
▁ဒိုင်	-10.5141
▁ဘီလူး	-10.5141
ရာစု	-10.5142
မုန့်	-10.5143
ပေးပါ	-10.5144
စာကြည့်တိုက်	-10.5152
ခဲ့သလို	-10.5156
▁တွေ့ရှိရသည်။	-10.5159
ခဲ့သောကြောင့်	-10.5161
မြွေ	-10.5162
ယုံ	-10.5167
မုံ	-10.5169
ပြောကြား	-10.5175
▁မတူ	-10.5176
▁ကျေးဇူးပြု၍	-10.5178
▁ရလဒ်	-10.5182
။၂	-10.5184
▁စားသုံး	-10.5185
▁ကူးစက်	-10.5187
▁သာသနာတော်	-10.5188
▁စစ်ခွေး	-10.5188
ရသဖြင့်	-10.5189
စို	-10.5189
မူပိုင်ခွင့်	-10.5194
ေယျ	-10.5195
▁ကန့်ဘလူမြို့နယ်	-10.5195
▁ပျံသန်း	-10.5196
ရေတပ်	-10.5196
လူမျိုးတို့သည်	-10.5198
ကျဲ	-10.5198
စက်တင်ဘာ	-10.5198
▁နှိုင်းယှဉ်	-10.52
ကိုယ်ပိုင်	-10.5204
ခွင့်ရ	-10.5204
ပထမအကြိမ်	-10.5205
▁ရိုးရိုး	-10.521
မိမိ	-10.521
နိုက်တက်ကင်းဒမ်း	-10.5212
စီရင်စု	-10.5214
ဂျက်	-10.5214
▁ရက်မှာ	-10.5216
▁အရေးပါ	-10.5218
▁အတူတကွ	-10.5218
ခဲ့ပြီး၊	-10.522
▁သင်္ကန်း	-10.5222
နပ်	-10.5227
▁လူနာ	-10.523
ရော့	-10.5234
▁၂ဝဝ	-10.5235
လေကြောင်း	-10.5236
ဖု	-10.5236
ကုလား	-10.5241
▁တတိယမြောက်	-10.5241
▁ကာတာ	-10.5244
▁၁၉၇၇	-10.5248
ရှေး	-10.5249
တက်ရောက်	-10.5251
▁သတင်းထောက်	-10.5257
▁အလင်းဝင်	-10.526
ပြင်ပ	-10.5261
သစ္စာ	-10.5262
▁အကုသိုလ်	-10.5262
ညောင်ရွှေ	-10.5262
▁တိုက်ပွဲဖြစ်	-10.5262
▁တူညီသော	-10.5264
▁ငယ်	-10.5266
အဖွဲ့၏	-10.5267
မံ	-10.5268
ကြို	-10.5271
▁၀၈	-10.5273
ပြီးနောက်ပိုင်း	-10.5275
▁အိပ်မက်	-10.5281
ကာကွယ်ရေးတပ်ဖွဲ့	-10.5286
▁တင်ဆက်ပေး	-10.5286
▁ကျေးလက်	-10.5289
တာပေါ့	-10.529
▁အဆိုအရ	-10.5291
▁ပညာရှင်များ	-10.5291
ကျော	-10.5293
အပြီးတွင်	-10.5293
တွေကလည်း	-10.5294
ချည်း	-10.5298
▁မက္ကဆီကို	-10.5298
သယ်	-10.5298
ခန့်မှန်း	-10.53
များကဲ့သို့	-10.5306
ကွန်ရက်	-10.531
လျှောက်ထား	-10.5311
▁လူပေါင်း	-10.5314
▁ဥရောပတိုက်	-10.5314
၈၆	-10.5315
ရှေးဟောင်းသုတေသန	-10.5316
▁သူတို့သည်	-10.5318
ဟုတ်	-10.5319
▁ကူး	-10.532
▁မင်းဆက်	-10.532
အဆုံး	-10.532
▁ထိပ်	-10.5322
▁ကျူးလွန်	-10.5323
▁ဆိုင်း	-10.5324
ဆောက်လုပ်	-10.5325
ဖလား	-10.5325
▁အနောက်နိုင်ငံ	-10.5333
▁ယင်း၏	-10.5334
ရက်စွဲ	-10.5339
▁ပြန်ကြားရေး	-10.5339
▁ကျင်	-10.534
ယောက်ျား	-10.5348
▁ရှေ့နေ	-10.5349
ထင်ရှားသော	-10.5349
တဦး	-10.535
ကောင်စီက	-10.535
▁အင်ပါယာ	-10.535
ပါလီမန်	-10.535
က္က	-10.5351
▁၅၆	-10.5352
▁ပြင်ဆင်မှု	-10.5352
လာ၍	-10.5353
ဝန်းကျင်	-10.5353
▁သူဌေး	-10.5354
နိုင်သော်လည်း	-10.5355
မလား	-10.5357
ထံတွင်	-10.5359
▁လက်ရှိတွင်	-10.5359
▁အမြောက်	-10.5361
ဖမ်းဆီး	-10.5365
ဝံ့	-10.5369
▁၁၉၄၀	-10.537
▁အမည်ကို	-10.5372
လိမ်	-10.5377
▁မဲဆန္ဒနယ်	-10.5378
▁အခက်အခဲ	-10.5382
▁ယေဘုယျ	-10.5385
▁ရှေ့တန်း	-10.5385
လာပါတယ်	-10.5386
▁ဂုဏ်သတ္တိများ	-10.5388
▁နန်းတွင်း	-10.5389
▁ခံရသည်။	-10.5389
▁ကျည်	-10.54
သပိတ်	-10.5401
ွပ်ကဲမှုဌာနချုပ်	-10.5401
အသိုင်းအဝိုင်း	-10.5403
မိနစ်	-10.5406
ကျန်း	-10.5408
ရွှေကျင်မြို့နယ်	-10.5409
လှူဒါန်း	-10.5413
▁ဆူး	-10.5415
▁ခွင့်ပြုချက်	-10.5415
▁သိမ်းဆည်းရရှိ	-10.5416
စက်မှု	-10.5418
▁အခုလို	-10.5418
▁ထုတ်လုပ်မှု	-10.5425
▁မော	-10.5434
▁စာတမ်း	-10.5435
▁ထိပ်တန်း	-10.544
ကချင်	-10.5442
၁၉၈၈	-10.5442
▁ထိုအချိန်က	-10.5443
ခူ	-10.5445
▁နျူကလီးယား	-10.5446
▁ဟတ်	-10.5446
▁အမျိုးမျိုးသော	-10.5448
▁၁၉၃၈	-10.5448
▁လွတ်မြောက်ရေး	-10.5449
▁ဟုခေါ်သော	-10.5454
▁သတ္တဝါများ	-10.5454
စီရင်	-10.5455
▁၁၉၈၂	-10.5457
အပေါ်တွင်	-10.5459
▁ဤကဲ့သို့	-10.5467
တောင်ကိုရီးယား	-10.5471
▁ယင်းတို့ကို	-10.5472
▁၆၅	-10.5473
▁အကြီးဆုံးမြို့	-10.5475
▁သူမ	-10.5476
▁တစ်ပါး	-10.5477
မေတ္တာ	-10.5482
မြင်းခြံမြို့နယ်	-10.5484
▁၁၉၇၉	-10.5493
▁ပြိုင်ပွဲ	-10.5497
ဘီလူး	-10.5499
အန္တရာယ်	-10.5499
အဆောက်အအုံ	-10.55
ကလပ်	-10.5503
▁အချိန်ကာလ	-10.5503
▁၀၃	-10.5503
▁ပြင်ဦးလွင်	-10.5503
▁အရေးကြီး	-10.5505
ခုံး	-10.5505
မော်လမြိုင်	-10.5505
ပွင့်ဖြူမြို့နယ်	-10.5506
ပ္ပ	-10.5506
လာခဲ့သည်	-10.551
ပူး	-10.5511
လေးပါး	-10.5514
ကျေး	-10.5517
ငူ	-10.5518
ဖယ်	-10.5518
▁အကိုးအကား	-10.5519
▁ဒီနေ့	-10.5519
အဖွဲ့မှ	-10.5521
စစ်ကောင်စီ	-10.5523
လေ့ရှိ	-10.5524
▁ပြည်သူလူထု	-10.5526
▁ဖြစ်ကြ	-10.5528
▁၁၂၀	-10.5531
ဂျွန်	-10.5532
▁ဖြည့်စွက်	-10.5532
▁မော်တော်ယာဉ်	-10.5533
များထဲတွင်	-10.5536
တိုင်းတွင်	-10.5536
ဟင်	-10.5538
▁ကွ	-10.5538
▁မိုးကောင်း	-10.554
ကောင်စီ၏	-10.5544
ရွှေ့ပြောင်း	-10.5546
ခဲ့ရပါတယ်	-10.555
▁ပရောဂျက်	-10.5555
အကြီးအကဲ	-10.5559
တ္ထ	-10.5561
▁ကမ်းခြေ	-10.5561
▁ရွှေတောင်	-10.5566
▁မြစ်များ	-10.5568
၄။	-10.5572
▁စည်းရုံး	-10.5572
အ်	-10.5572
▁တင်ပို့	-10.5578
▁ဆုံးရှုံး	-10.5578
▁ယင်းနောက်	-10.5579
သူများက	-10.5581
▁တံခါး	-10.5586
▁ရုပ်သံသတင်း	-10.5593
▁များသည်	-10.5594
ဖြစ်လျှင်	-10.5595
▁စစ်တပ်ကို	-10.5595
▁ဗြိတိသျှတို့	-10.5597
▁မြေအောက်	-10.5601
▁ရွေး	-10.5606
▁အဖွဲ့က	-10.561
မခံ	-10.5611
တ်တမ်း၀အရေးမကြီး	-10.5611
▁အမိန့်တော်	-10.5614
များသည်လည်း	-10.5614
ရွာကို	-10.5616
▁အခြေခံပညာ	-10.5616
▁နမူနာ	-10.562
▁အကြင်	-10.5624
▁အဓိပ္ပါယ်	-10.5624
၈၇	-10.5624
▁ဖြေ	-10.5625
၏ဟု	-10.5629
▁အပြီးသတ်	-10.5629
ပေးသည့်	-10.5634
များစွာကို	-10.5639
ခဲ့ပါတယ်။	-10.5642
▁မြန်မာလူမျိုး	-10.5644
▁စစ်အုပ်ချုပ်ရေး	-10.5646
ဒါန	-10.5653
▁၅၁	-10.5658
နိုင်မည်	-10.5658
တည်ရှိ	-10.5659
▁တင်း	-10.566
▁ကောင်းကင်	-10.5661
▁ပြတိုက်	-10.5662
▁အာရှတိုက်	-10.5664
▁ဘောလုံးအသင်း	-10.5665
စစ်ရေး	-10.567
▁ထွက်လာ	-10.5672
ခရီးစဉ်	-10.5674
မုန်း	-10.5674
ဆူး	-10.5676
ကြောင်း၊	-10.5677
ကျိုင်းတုံ	-10.5679
▁ဒါက	-10.5681
ယွန်း	-10.5682
၉၇	-10.5683
▁စကြဝဠာ	-10.5683
ဖွံ့ဖြိုးရေး	-10.5684
▁ကိုင်	-10.5685
နှင့်ဆိုင်သော	-10.5686
▁တီး	-10.5687
ဂျာမန်	-10.569
▁ပထမဆုံးအကြိမ်	-10.5691
ပျို့	-10.5692
အဆို	-10.5692
▁ဒါ့အပြင်	-10.57
▁ဘတ်	-10.57
▁စာပေဗိမာန်	-10.57
များအနေဖြင့်	-10.5702
မှုအတွက်	-10.5705
▁တိုက်လေယာဉ်	-10.5705
▁ရန်ပုံငွေ	-10.5706
▁အံ	-10.5707
တောင်ရွာ	-10.571
မယ်ဆိုရင်	-10.5712
တောင်းဆို	-10.5715
နံပါတ်	-10.5716
ခပ်	-10.5717
▁ထိန်	-10.572
တွေ့ရှိ	-10.572
▁ရှောင်	-10.5725
အစိတ်အပိုင်း	-10.5727
▁အေမာမ်	-10.5727
▁ဘူတာတစ်ခု	-10.5728
ခြင်းတို့ကြောင့်	-10.573
သီအိုရီ	-10.5731
▁စက်မှုလက်မှု	-10.5734
သူက	-10.5736
တစ်ကြိမ်	-10.5743
▁မီးရထား	-10.5748
ကျောက်မဲခရိုင်	-10.5749
▁အရာဝတ္ထု	-10.5753
▁အင်္ဂလန်နိုင်ငံ	-10.5758
▁ကျနော်	-10.5759
▁အခြေအနေကို	-10.576
ကြိုးစား	-10.5763
မြောင်	-10.5769
ဟိန်း	-10.5772
ပုံသဏ္ဌာန်	-10.5772
က္	-10.5774
▁ကျွမ်းကျင်	-10.5777
လုံးဆိုင်ရာ	-10.5778
▁ယင်းတို့၏	-10.5781
ပုန်း	-10.5782
▁ချုပ်	-10.5785
မဟာမိတ်	-10.5786
▁အိုလံပစ်	-10.5788
ခွဲခြား	-10.5791
▁စင်စစ်	-10.5792
▁ပေါက်ရောက်	-10.5793
ဗို	-10.5793
▁ဘုရားရှိခိုး	-10.5801
မြစ်ကြီးနား	-10.5802
အသီးသီး	-10.5803
ပြီးနောက်တွင်	-10.5807
▁အရည်အချင်း	-10.5809
နိုင်ငံရေးသမား	-10.581
ဒေသများ	-10.5813
▁မြို့နယ်တစ်ခု	-10.5815
ဝီကီမီဒီယာ	-10.5819
▁အဆောက်အဦး	-10.582
သရက်ခရိုင်၊	-10.5821
ပေး၍	-10.5821
▁မူးယစ်ဆေးဝါး	-10.5821
နေပုံ	-10.5822
▁နန်းတက်	-10.5822
▁ဒါန	-10.5822
ကိ	-10.5824
▁ကမ္ဘာ့အမွေအနှစ်	-10.583
များဖြစ်သည်။	-10.583
▁မည်	-10.5833
့စွယ်စုံကျမ်း	-10.5834
ကွန်မြူနစ်ပါတီ	-10.5834
ကာကွယ်ရေးနှင့်	-10.5834
▁ဖဆပလ	-10.5835
▁မောင်း	-10.5837
▁ခေါ်ကြသည်။	-10.5838
တာဝန်ခံ	-10.5841
▁တောင်ကုန်း	-10.5844
▁ဆွမ်ပရာဘွမ်	-10.5845
သင့်သည်	-10.5848
ကြတယ်	-10.585
▁ပုဒ်မခွဲ	-10.5852
ထိန်	-10.5852
တမ်း	-10.5852
▁တောင်သာမြို့နယ်	-10.5857
▁ချီးကျူး	-10.5861
ဂျစ်	-10.5861
ခုနစ်	-10.5864
▁ကျော	-10.5868
▁အားလုံးကို	-10.5881
တွေပါ	-10.5882
▁နှိပ်စက်	-10.5884
ယုံကြည်	-10.5887
ရလဒ်	-10.5887
▁အရေးအသား	-10.5889
အင်းဝ	-10.5892
သူ့	-10.5892
ရန်း	-10.5894
▁မူဝါဒများ	-10.5895
▁၁၀၁၁	-10.5896
င္	-10.5896
ကျောင်းသားများ	-10.5903
▁မန်း	-10.5903
▁ဗဟုသုတ	-10.5906
ပြောဆိုသည်	-10.5912
▁ကျဆုံး	-10.5916
ခံခဲ့ရသည်။	-10.5918
မှလွဲ၍	-10.592
▁ရရှိသော	-10.592
▁ထုံး	-10.5922
ခဲ့ပေ။	-10.5923
အကွာအဝေး	-10.5926
ရှိနေ	-10.5926
ပြီဟု	-10.593
▁နယူး	-10.593
တော့သည်။	-10.5931
▁အကြံပြု	-10.5933
မှုန့်	-10.5933
ကွမ်း	-10.5933
▁ကိုယ်ခန္ဓာ	-10.5935
▁အမတ်ကြီး	-10.5935
▁စီမံခန့်ခွဲမှု	-10.5936
နှင်	-10.594
▁တေ	-10.594
▁အနားယူ	-10.5941
▁ရည်မှန်းချက်	-10.5942
ဂ္ဂ	-10.5943
▁အစေ့	-10.5946
▁အဆင်ပြေ	-10.5948
▁ကြီးကြပ်	-10.5949
တို့ကြောင့်	-10.595
တော်ကြီး	-10.5951
▁တားဆီး	-10.5954
ပင်ရွာ၊	-10.5954
ဝံသ	-10.5954
▁ကောင်းသော	-10.5954
▁သံအမတ်ကြီး	-10.5958
▁ငန်း	-10.5962
ထုတ်လုပ်ရေး	-10.597
ဈေးကွက်	-10.5971
▁သတ်မှတ်ချက်	-10.5973
ဘုရားကျောင်း	-10.5973
၂၀၀၃	-10.5975
▁အနေနဲ့	-10.5979
သွားကြောင်း	-10.5981
▁အသင်သည်	-10.5982
▁မင်	-10.5986
နေရာမှ	-10.599
။လင့်ခ်သေ	-10.599
▁များပြား	-10.5991
လျှံ	-10.5991
▁ညွှန်ကြားချက်	-10.5991
▁၁၉၈၇	-10.5993
သူကို	-10.5998
ဝီကီ	-10.6004
လမ်	-10.6006
တွေကိုလည်း	-10.6007
မိတ်ဆက်	-10.6011
ရဏ	-10.6015
မြန်မာဘာသာစကား	-10.6016
▁နှစ်ဦး	-10.6018
ပွ	-10.6021
▁ထင်ရှားသည်။	-10.6021
▁သောင်း	-10.6022
နိုင်သဖြင့်	-10.6023
၅။	-10.6026
ချေး	-10.603
▁စီးနင်း	-10.604
ကျူ	-10.604
ပင်လယ်အော်	-10.6041
ကမ္မ	-10.6041
သဒ္ဒါ	-10.6044
▁ဒဏ်ရာ	-10.6044
ပြဇာတ်	-10.6046
▁ဂျာမနီနိုင်ငံ	-10.6048
▁ပျောက်	-10.6051
ယူနိုက်တက်	-10.6055
▁အသက်မွေး	-10.6059
တရုတ်ပြည်သူ့	-10.6063
▁နယ်ပယ်	-10.6065
ဝင်ငွေ	-10.6066
▁ရှား	-10.6066
▁မင်းတုန်း	-10.6071
▁ကြိုဆို	-10.6071
▁ခံရ	-10.6072
▁ကျေး	-10.6076
ဧပြီ	-10.6077
အပူချိန်	-10.6081
▁အားနည်း	-10.6084
▁မတ်လတွင်	-10.6084
▁ဒစ်ဂျစ်တယ်	-10.6085
တရုတ်နိုင်ငံ	-10.6087
တိုက်ခိုက်ခဲ့ရာ	-10.6088
ရတု	-10.6088
ကျေးရွာအုပ်စုက	-10.6089
ပေါင်းစုံ	-10.609
▁ဘော်	-10.6093
ပေးအပ်	-10.6096
၁၉၆၂	-10.6096
▁ခုကို	-10.6097
ရောက်လာ	-10.61
▁တရားသူကြီး	-10.61
ညက်	-10.6102
များပေါ်တွင်	-10.6105
မှော်	-10.6105
▁ဘင်	-10.6107
▁စောင်း	-10.6109
▁၁၅၀	-10.6112
▁အိမ်ထောင်စု	-10.6125
သုခ	-10.6126
တက္ကသိုလ်မှ	-10.6126
လူသား	-10.6127
ကျွေး	-10.6133
▁ဝိုင်း	-10.6133
စိုင်း	-10.6134
▁ဟုလည်း	-10.6138
▁ဆန်စပါး	-10.6138
ကြေညာ	-10.6141
အဖွဲ့ကို	-10.6143
ကြော်	-10.6143
သမိုင်းတွင်	-10.6143
၁၉၄၈	-10.6147
▁သူရဲကောင်း	-10.6147
▁စက်မှုလုပ်ငန်း	-10.615
လုံးကို	-10.6151
မလေး	-10.6151
▁အရသာ	-10.6153
ဥစ္စာ	-10.6154
▁ဗုံးကြဲ	-10.6155
▁အရှေ့ရွာ၊	-10.6156
▁အာရက္ခတပ်တော်	-10.616
▁၇၂	-10.616
ရပါတယ်	-10.6164
ကျွန်းစု	-10.6172
▁စေတနာ	-10.6173
▁ဂုဏ်ထူးဆောင်	-10.6175
▁သင်း	-10.6176
လှူ	-10.6177
စမ်းသပ်	-10.6178
စပိန်	-10.618
များတွင်လည်း	-10.6182
▁သတင်းတွေကတော့	-10.6184
ကျောင်းများ	-10.6184
ဓာတ်ပုံ	-10.6189
၈၃	-10.6189
နိုင်မည့်	-10.619
▁အကြောင်းပြချက်	-10.6193
▁ဆွေမျိုး	-10.6193
▁ပထမဆုံးသော	-10.6195
▁ဒေသပြည်သူများက	-10.6196
တည်းဖြတ်ခြင်း	-10.6196
▁အရှည်	-10.6198
ခိ	-10.6201
▁တပ်ဆင်	-10.6201
▁မိုးကုတ်	-10.6202
ခဲ့ကြသော	-10.6204
သိရှိ	-10.6207
နေသဖြင့်	-10.6208
▁ဖိအားပေး	-10.6208
၆။	-10.6209
▁ရောင်း	-10.621
▁ချိုးဖောက်	-10.6212
ရ၍	-10.6213
▁ငရဲ	-10.6214
ဇီဝ	-10.6216
မကွေးခရိုင်၊	-10.6218
သတင်းဌာန၏	-10.6221
▁အီး	-10.6222
▁ကပြ	-10.6223
ကုဒ်	-10.6224
▁အတတ်ပညာ	-10.6228
ခြင်းမရှိဘဲ	-10.6229
၂၀၀၇	-10.623
▁ဖော်ပြထား	-10.6231
နယ်နိမိတ်	-10.6233
ထပ်မံလိုအပ်သော	-10.6233
သဘင်	-10.6236
▁လင်္ကာ	-10.6236
ဝှက်	-10.6237
▁ကာဗွန်	-10.6242
▁အဋ္ဌကထာ	-10.6242
▁ခရီးသည်	-10.6243
ကျွန်းဆွယ်	-10.6243
▁ခေါ်တွင်	-10.6245
▁ဥပဒေအရ	-10.6246
▁ပြောကြားခဲ့သည်။	-10.625
▁တန်ခိုး	-10.6255
▁ရုပ်သံ	-10.6259
▁ယမ်း	-10.626
ထွေ	-10.6262
▁ရေးသားခဲ့သည်။	-10.6265
▁တစ်နှစ်လျှင်	-10.6267
▁အသင်းတော်	-10.6269
ဗူး	-10.6272
▁ကောင်စီ	-10.6273
▁အမြန်ဆုံး	-10.6274
▁မနက်	-10.6275
ပျမ်းမျှ	-10.6277
လုပ်ငန်းကို	-10.6284
▁မဖြစ်	-10.6285
▁အသိ	-10.6289
ချိတ်	-10.6289
ဒဲ	-10.6289
▁ခေါ်သော	-10.6289
▁မြိတ်	-10.6291
နားလည်	-10.6292
ကားချက်အမှားများ	-10.6292
ဩဇာ	-10.6298
ခီး	-10.6306
ခြင်းတို့ကို	-10.6307
▁အဝ	-10.6308
လုပ်ငန်းရှင်	-10.6308
▁အသိပေး	-10.6309
▁ဟောပြော	-10.6312
ပွဲများ	-10.6315
ပညာရပ်	-10.6317
သန်းခေါင်စာရင်း	-10.6317
▁မဟုတ်ဘဲ	-10.6318
ပိုမို	-10.6321
▁ထိန်းသိမ်းထား	-10.6322
▁ဂျက်	-10.6325
▁အမှုဆောင်	-10.6327
မန္တလေးမြို့	-10.6328
▁စော်ဘွား	-10.6328
စွမ်း	-10.6328
တစ်ခုခု	-10.6329
▁ခရီးစဉ်	-10.633
▁မုန်တိုင်း	-10.6331
ား	-10.6334
▁ကယားပြည်နယ်	-10.6336
နှင့်စပ်လျဉ်း၍	-10.6336
တင်ဆက်ပေးပါမယ်	-10.6338
ဒုတိယဗိုလ်ချုပ်	-10.6338
စိ	-10.6342
နေ၍	-10.6344
ဝ်	-10.6346
နိုင်ငံနှင့်	-10.6348
မျက်	-10.6348
ဂျာနယ်	-10.6349
ဟဲ	-10.6349
▁ကြေညာချက်	-10.6351
▁အနံ့	-10.6353
▁စိတ်ဝင်စား	-10.6355
ပါရမီ	-10.6357
ပြန်၏။	-10.6358
အာရပ်	-10.6359
ငုံ	-10.6362
▁ဖြစ်သွား	-10.6363
အဆိုတော်	-10.6369
▁ခန္ဓာ	-10.637
ပစ္စည်းများကို	-10.6371
▁ထင်း	-10.6372
ဖြစ်ရပ်	-10.6374
ငန်း	-10.6375
ဟောင်းများ	-10.6376
ပါစေ	-10.6379
တစ်ခုလုံး	-10.6379
ရှန်း	-10.638
ခဲ့ရ	-10.6389
▁အဆက်အသွယ်	-10.6392
▁လုပ်ငန်းများကို	-10.6399
ရေးသမားများ	-10.6399
▁ဘရူနိုင်း	-10.6399
အောက်ရွာ၊	-10.6401
▁ဖိအား	-10.6401
တန်းရွာ၊	-10.6406
▁ရပ်တန့်	-10.6407
▁အတိတ်	-10.6407
ပြီးစီး	-10.6408
▁ဆင်ခြင်	-10.6409
များ၁	-10.6411
▁မြိုင်မြို့နယ်	-10.6413
နူး	-10.6414
ခဲ့သည်။၄	-10.6414
▁နန့်	-10.6417
စသည်	-10.6419
▁၎င်းက	-10.6419
▁ထိုင်းနိုင်ငံ၏	-10.642
ပရိသတ်	-10.642
စီမံ	-10.6421
စောင့်ရှောက်ရေး	-10.6423
▁အပ	-10.6423
▁လူတို့၏	-10.6423
▁အနံ	-10.6434
▁အစ်	-10.6436
▁သိက္ခာ	-10.6436
▁ရေနံချောင်း	-10.6438
သိပ်သည်းမှု	-10.644
ဗတ်	-10.644
သွားခဲ့သည်။	-10.6441
လိုက်တဲ့	-10.6441
▁လုပ်ငန်းစဉ်	-10.6442
▁စည်းမျဉ်း	-10.6444
တူရိယာ	-10.6445
▁တပ်ခွဲ	-10.6453
ဆော့လော်မြို့နယ်	-10.6453
သာယာ	-10.6454
အမှန်	-10.6455
ပြုတ်	-10.646
▁ပထဝီ	-10.6464
တတ်ကြသည်။	-10.6465
ပါဠိတော်	-10.6469
တော်မူသည်	-10.6472
တော်မူစဉ်	-10.6478
လှမ်း	-10.6478
▁ခြင်္သေ့	-10.6481
ကုန်သော	-10.6485
▁မှို	-10.6485
▁ထို့အတူ	-10.6491
▁မေးခွန်း	-10.6491
အနောက်ပိုင်း	-10.6492
လော်	-10.6494
အများစုသည်	-10.6496
▁တည်ရှိနေ	-10.6498
▁ချုပ်ဆို	-10.6499
▁ဖြစ်ရပ်	-10.6506
▁မြန်မာစာပေ	-10.6506
▁မည်မျှ	-10.6507
▁ကားလမ်း	-10.6513
ခဲ့ပေမဲ့	-10.6514
အမျိုးအစားအလိုက်	-10.6514
▁ဗိသုကာ	-10.6516
ဂါထာ	-10.6517
▁အမိန့်ပေး	-10.6518
ဝေဖန်	-10.6518
အကြောင်းအရာများ	-10.6519
ဟူ၍လည်းကောင်း၊	-10.652
ဇံ	-10.6521
▁ဖွားမြင်	-10.6523
တောင်အမေရိကတိုက်	-10.6525
ခြင်းမှာ	-10.6528
▁သေဆုံးပြီး	-10.653
▁ရုရှားနိုင်ငံ	-10.6532
ခံရသော	-10.6532
▁လူတွေ	-10.6534
▁ရရှိခဲ့သည်	-10.654
▁အဓိပ္ပာယ်ရသည်။	-10.654
▁မိနစ်အချိန်	-10.654
လိုက်တာ	-10.6546
▁ထောင့်	-10.6552
ပုပ်	-10.6554
၈၂	-10.6562
လာရောက်	-10.6563
▁ကမ္ဘာကျော်	-10.6564
▁ဗေဒင်	-10.6565
ကုန်သည်	-10.6565
နိုင်ပေသည်။	-10.6567
▁ကျိုက်	-10.6568
ရေတံခွန်	-10.6568
စေသည့်	-10.657
၉၅	-10.6573
▁ကလေးများ	-10.6576
၉၃	-10.6576
စားသောက်	-10.658
▁ရေကန်	-10.658
▁သံမဏိ	-10.6584
ဥပမာ	-10.6584
ခံရသည်။	-10.6588
ရောက်ရှိ	-10.659
▁ပါးစပ်	-10.6592
▁အဘယ်	-10.6593
နှစ်ပါး	-10.6594
▁လစာ	-10.6595
ပုဏ္ဏား	-10.6596
▁သမ	-10.6596
▁ပရိ	-10.6598
ဇီး	-10.6599
ပြီးသည့်နောက်	-10.6602
▁အသင့်	-10.6602
ခရီးသွားလုပ်ငန်း	-10.6609
▁ခုသည်	-10.6612
▁အကြောင်းမှာ	-10.6612
လှသည်။	-10.6613
▁နောင်အခါ	-10.6618
▁မြန်မာစစ်တပ်	-10.6621
▁တပ်စွဲထားသော	-10.6624
▁နွားထိုးကြီး	-10.6625
▁လူကြီး	-10.6625
▁အရှိန်	-10.6627
▁မွန်ပြည်နယ်	-10.6629
▁အားကစားကွင်း	-10.6631
▁အယ်ဒီတာ	-10.6631
ဆုတ်	-10.6633
▁တောင်အာဖရိက	-10.6634
ဇ္ဇ	-10.6635
▁ကျောက်ဆည်	-10.6636
၃။	-10.664
ခေါ	-10.6641
ကြခြင်း	-10.6641
▁ရောင်	-10.6643
▁မလုပ်	-10.6645
ခရစ်ယာန်	-10.6645
န္တ	-10.6645
▁၎င်းတို့မှာ	-10.6646
နိုင်ရေး	-10.6651
သတ္တိ	-10.6651
▁ကျေးရွာများကို	-10.6651
▁အစည်းအရုံး	-10.6655
▁၁၉၃၁	-10.6656
ရရှိခဲ့သည်။	-10.6657
တစ်ခုတည်း	-10.6662
▁လမ်းပန်းဆက်သွယ်	-10.6663
▁အင်ဂျန်းယန်	-10.6664
ရကား	-10.6665
▁အဆိုပြု	-10.6668
▁မျက်လုံး	-10.667
▁လူငယ်များ	-10.6671
▁ဦးစားပေး	-10.6672
▁၁၉၄၃	-10.6673
ရိတ်	-10.6675
လျား	-10.6679
စကားပြော	-10.668
▁ပအိုဝ်း	-10.6683
▁အလုံးစုံ	-10.6685
▁အချို့မှာ	-10.6686
ကြီးမား	-10.6686
▁မျိုးရိုး	-10.6686
ဖျက်ဆီး	-10.6688
ညင်း	-10.6695
▁ရေတွက်	-10.6696
▁တောင်သူလယ်သမား	-10.6697
▁ဝန်ခံ	-10.6701
ညှင်း	-10.6701
▁မျှော်လင့်	-10.6708
▁ဖိုး	-10.6711
ဖြတ်မြို့နယ်	-10.6711
▁အရေးကြီးသော	-10.6711
ဇို	-10.6714
ကျွဲ	-10.6716
အကိုးအကားများ	-10.6717
▁၉၉	-10.6718
▁ကိုလိုနီခေတ်	-10.6718
▁အင်္ဂလိပ်တို့	-10.6719
▁ဟူ	-10.672
▁ယနေ့တိုင်	-10.672
▁လူများ	-10.6729
▁မနက်ပိုင်း	-10.6734
အစ္စလာမ်ဘာသာ	-10.6735
ခြားရေးဝန်ကြီး	-10.6736
တို့ကား	-10.674
လီး	-10.6742
▁ထုတ်ပြန်ချက်	-10.6745
ပုဂံခေတ်	-10.6745
▁အင်္ဂလိပ်စာ	-10.6751
နိုင်ငံခြားရေး	-10.6752
▁စိတ်ကူး	-10.6753
ရောင်ခြည်	-10.6753
▁ကမ္ဘာစစ်	-10.6754
ဖြစ်ရပ်များ	-10.6756
▁ဆိုလိုသည်မှာ	-10.6757
အီတလီ	-10.6757
ချုပ်ခွင့်ရဒေသ၊	-10.6758
လုပ်ငန်း၊	-10.6759
▁အမှတ်အသား	-10.6761
တို့အကြား	-10.6762
ိတ	-10.6763
တို့ဖြစ်သည်။	-10.6764
၂၀၀၅	-10.6766
၌သာ	-10.6767
▁ဘော	-10.6768
နုတ်	-10.677
ြန်မာ့ဆိုရှယ်လစ်	-10.6773
ရာမ	-10.6773
နှင့်ပတ်သက်သော	-10.6774
▁ပျော်ဘွယ်	-10.6779
▁၆၆	-10.6783
ပျော့	-10.6783
▁မြတ်စွာဘုရား၏	-10.6784
▁မြင့်မား	-10.6787
▁ဝက်လက်မြို့နယ်	-10.6796
သယ်ယူပို့ဆောင်	-10.6797
▁သပိတ်မှောက်	-10.6799
ခရိုင်ပုသိမ်	-10.6802
▁တိုက်ခိုက်ရာ	-10.6803
▁ကုန်သည်	-10.6804
သူများအား	-10.6811
▁ကြီးမား	-10.6814
▁မွတ်စလင်	-10.6816
▁အိမ်ခြေ	-10.6817
ကန့်ဘလူမြို့နယ်	-10.6817
မဖြစ်	-10.6819
သက်သက်	-10.6819
▁ပြည်သူ့စစ်	-10.6823
▁သက်ဆိုင်သော	-10.6824
ဇာတ်ကား	-10.6824
မှုမှာ	-10.6825
ဒေသကြီးအတွင်းရှိ	-10.6825
သာသနာ	-10.6828
▁အာဇာနည်	-10.6832
ဗဟိုစာမျက်နှာ	-10.6833
▁မင်းကြီးသည်	-10.6835
▁ရမည်းသင်း	-10.6835
▁ပိုင်း	-10.6837
▁တိုးတက်မှု	-10.6841
ရိုက်ကူး	-10.6843
ကြတာ	-10.6846
▁မြေကြီး	-10.6849
▁သိရ	-10.6853
အလျင်	-10.6854
မှတ်ချက်	-10.6856
▁ဝဲ	-10.6857
▁တစ်လ	-10.6857
ဗိုလ်မှူးချုပ်	-10.6858
▁အဖြူရောင်	-10.6859
▁၅ဝ	-10.686
ခဲ့ရပြီး	-10.6863
ရှိခဲ့ကြောင်း	-10.6864
▁ဖြစ်ရပ်များ	-10.6865
▁စီမံခန့်ခွဲရေး	-10.6867
ရှမ်းပြည်နယ်ရှိ	-10.6868
▁မုဆိုး	-10.6869
▁ရဟန္တာ	-10.6869
▁ထိန်းချုပ်ထား	-10.6876
ကျုံ	-10.6877
▁နာရီခန့်တွင်	-10.6877
ကောင်းသော	-10.6879
စေလွှတ်	-10.6879
▁အစဉ်	-10.688
▁ဖွား	-10.688
အယူအဆ	-10.6884
▁စာမေးပွဲ	-10.6887
▁သိပ္ပံပညာ	-10.6887
▁တိုက်ပွဲတွေ	-10.6888
▁ထန်	-10.6894
တွေကနေ	-10.6895
▁ဖာရင်ဟိုက်	-10.6896
အသုံးပြုခြင်း	-10.6897
ဖြစ်လေသည်	-10.6897
▁ပြည်သူ့ကာကွယ်	-10.6902
▁လက်နက်ခဲယမ်း	-10.6904
ကြွယ်	-10.6907
▁အပူပိုင်း	-10.6908
▁ကျွန်တော်မျိုး	-10.691
▁ရွေ့လျား	-10.6911
ဒယ်	-10.6912
ပုလဲ	-10.6917
ပါဝင်ပြီး	-10.6918
▁ငါအရှင်မြတ်သည်	-10.6919
▁ဥက္ကဋ္ဌအဖြစ်	-10.6919
▁အစီရင်ခံစာ	-10.6922
ချမ်း	-10.6922
▁သက်တော်	-10.6924
▁သိမြင်	-10.6927
▁နိုင်ငံတော်၏	-10.6927
မှတစ်ပါး	-10.6928
စစ်ကြောင်း	-10.693
▁အခြေချ	-10.6933
ဒုံ	-10.6933
ဆော်	-10.6934
မင်းကင်းမြို့နယ်	-10.6935
▁ခန့်မှန်းခြေ	-10.6936
အစိုးရ၏	-10.6937
▁သားရေ	-10.6945
▁ပေါင်းစည်း	-10.6946
စဲ	-10.6954
▁လက်မခံ	-10.6955
နိုင်ခဲ့	-10.6959
ပူဇော်	-10.6961
ဖြစ်ပေါ်လာ	-10.6964
▁ချန်	-10.6964
ပြွန်	-10.6966
ပေးတဲ့	-10.6966
နာဂ	-10.6967
▁ဖော်ပြချက်	-10.6968
များဖြစ်ကြသည်။	-10.6968
ယမ်	-10.6971
စောင်	-10.6974
▁ဟင်္သာ	-10.6974
ဓာတု	-10.6975
အီး	-10.6976
▁ဒုတိယဝန်ကြီး	-10.6977
▁ဟဲ	-10.6981
▁မှတ်တမ်း၁၁	-10.6984
အုံး	-10.6985
အစိုးရအဖွဲ့အစည်း	-10.6987
▁ဖြန့်ချိ	-10.6989
ညွတ်	-10.6991
မျှော်	-10.6993
▁အတိုကောက်	-10.6993
သိုက်	-10.6995
▁ညောင်ပင်	-10.6998
စီမံခန့်ခွဲသူ	-10.6999
▁အချုပ်အခြာအာဏာ	-10.7
ရင်းမြစ်တည်းဖြတ်	-10.7001
▁နာမ်	-10.7005
▁ဆရာမ	-10.7005
▁ကက်	-10.7006
အသုံး	-10.7007
▁ပြုလုပ်ခဲ့သည်။	-10.7011
▁လှည်း	-10.7014
▁ကွန်ယက်	-10.7014
▁ပဉ္စ	-10.7015
▁တပ်ဖွဲ့များက	-10.702
▁ကြိုးပမ်းမှု	-10.7022
တော်ဝင်	-10.7027
▁ပြုလုပ်သော	-10.703
ဒေသရှိ	-10.7031
နန္ဒ	-10.7032
ိယ	-10.7032
၁၉၄၇	-10.7035
▁ဧပြီလတွင်	-10.7038
မွန်ပြည်နယ်	-10.7045
▁ရတု	-10.7047
၂၀၀၆	-10.7047
▁တောင်ပေါ်	-10.7051
▁အာဟာရ	-10.7052
▁လီ	-10.7053
▁၇။	-10.7054
▁ဂဏန်း	-10.7056
▁အတိုင်းအတာ	-10.7057
ဒတ်	-10.7061
ဆန့်ကျင်	-10.7062
နောင်ချို	-10.7063
▁တိုးတက်လာ	-10.7066
▁မြို့ကြီး	-10.7066
▁ကြောက်	-10.7067
▁အကျိုးသက်ရောက်	-10.7068
▁ပုဒ်	-10.7069
ဓိ	-10.707
ည်း	-10.7073
နေရ	-10.7075
လမ်း၊	-10.708
▁ပြည်သူများကို	-10.7081
▁သိပ်	-10.7081
လောက်အောင်	-10.7083
▁ဆံပင်	-10.7084
▁သံတောင်ကြီး	-10.7087
နိုင်တယ်လို့	-10.7088
တော်မူ၏။	-10.7089
တွင်သာ	-10.709
ထီ	-10.709
သင့်ကြောင်း	-10.7091
▁၆၀၀	-10.7091
▁အပြည့်အစုံ	-10.7093
▁ပစ်မှတ်ထား	-10.7094
ကြဖို့	-10.7094
စရိတ်	-10.7094
▁စပ်	-10.7095
စေ၏။	-10.7096
▁ဖိတ်ခေါ်	-10.7096
ပစ်ခတ်	-10.7098
▁ထူးခြား	-10.7099
▁သေဆုံးမှု	-10.71
▁ထခွဲ	-10.7101
▁ခေါင်လန်ဖူး	-10.7102
အထိမ်းအမှတ်	-10.7102
▁အကူအညီဖြင့်	-10.7105
▁မြို့ကို	-10.7105
▁အခြေ	-10.7109
▁ဆက်လက်၍	-10.711
▁အသုံးအနှုန်း	-10.7115
▁ဒုတိယဥက္ကဋ္ဌ	-10.7116
ဆေးတက္ကသိုလ်	-10.7119
▁မိန်းကလေး	-10.7119
▁ဂုဏ်တော်	-10.7125
ဘန်း	-10.7125
ယခု	-10.7125
▁အနောက်မြောက်ဘက်	-10.7127
▁လုပ်ပိုင်ခွင့်	-10.7128
မပျက်	-10.7129
▁မဲပေး	-10.7129
▁မွေးချင်း	-10.7132
▁အရှေ့တောင်ဘက်	-10.7135
မျာ	-10.7136
မြို့ဟောင်း	-10.7138
▁စောင့်	-10.714
တည်ထောင်ခြင်း	-10.7141
▁၈၅	-10.7142
▁လိုက်ပါ	-10.7144
▁ဟုမ္မလင်း	-10.7147
နေထိုင်ရာ	-10.715
ဒေဝ	-10.7152
▁ငြင်းပယ်	-10.7155
▁စီမံခန့်ခွဲ	-10.7155
4	-10.7157
ချ်	-10.7158
▁ဒရုန်းဖြင့်	-10.7158
▁တစ်နေ့	-10.7159
မြောက်ပိုင်းတွင်	-10.7159
▁၈၈	-10.7161
မြား	-10.7166
ပါတ်	-10.7168
▁မူလတန်း	-10.7168
အဖွဲ့ဝင်များ	-10.717
▁နိမိတ်	-10.7171
▁အဖွဲ့ဝင်များ	-10.7177
တို့နှင့်အတူ	-10.7179
▁ပြည်မြို့	-10.7183
သက္ကရာဇ်	-10.7187
ငါးပါး	-10.719
▁ဘန်ကောက်မြို့	-10.7191
၂၀၀	-10.7191
ဩစတြေးလျ	-10.7191
▁ကိုက်	-10.7192
ကာကွယ်ထားသော	-10.7193
ကပြောပါတယ်	-10.7193
ဆုံးသော	-10.7195
ဝိဟာရ	-10.7197
▁လှ	-10.7198
ကြဲ	-10.72
လိမ့်မည်ဟု	-10.7202
ရေကန်	-10.7204
တည်ရှိသည်။	-10.7205
ပလက်ဝမြို့နယ်	-10.7205
ယူ၍	-10.7206
▁၂၀၁၁ကွ	-10.7207
အချိန်တွင်	-10.7208
▁မောင်းနှင်	-10.7209
▁အသုံးပြုရန်	-10.7209
စွယ်	-10.7211
▁အနီး	-10.7212
သေနတ်	-10.7214
စောင့်ရှောက်မှု	-10.7216
ကောင်းမွန်	-10.7218
ကွဲပြားမှုရှိသော	-10.7219
မုဒြာ	-10.7224
▁နိုင်ငံပေါင်း	-10.7224
တိမ်	-10.7224
စွပ်	-10.7225
များအတွင်း	-10.7225
အပြစ်	-10.7226
▁အကြောင်းပြု၍	-10.7229
ပြီးတဲ့နောက်	-10.723
စွန်	-10.7231
ခွင်	-10.7232
ဟူ၍လည်းကောင်း	-10.7232
ဉာဏ	-10.7235
▁အထောက်အပံ့	-10.7236
▁ခုနှစ်များ	-10.7238
များကိုသာ	-10.724
နယ်တွင်	-10.7241
▁အခြေခံ၍	-10.7241
▁ဖြေဆို	-10.7242
▁တရားဟော	-10.7248
။၃	-10.7253
▁ကျမ်းစာ	-10.7254
▁လက်ပံ	-10.7255
ထားတယ်	-10.7255
တပ်မတော်ကာကွယ်	-10.7256
ဓလေ့	-10.7261
သောသူ	-10.7262
▁စစ်သည်	-10.7264
မင်း၏	-10.7267
▁အရှေ့မြောက်ဘက်	-10.7269
တွေထဲက	-10.7269
▁ဦးစွာ	-10.7276
ထန်းတပင်မြို့နယ်	-10.7281
▁ဘဒ္ဒန္တ	-10.7281
▁လေးစား	-10.7286
ရည်ညွှန်း	-10.7287
▁ကညင်	-10.7287
အရာရှိချုပ်	-10.729
လေ့ရှိသော	-10.7291
▁လူတို့သည်	-10.7292
▁ယခုအခါတွင်	-10.7294
▁ရက်၊	-10.7294
▁ဖြစ်သောကြောင့်	-10.7296
ပွဲကို	-10.7298
▁လက်ပံတန်း	-10.7301
ယ်ကျယ်ပြန့်ပြန့်	-10.7305
▁ကောက်ယူ	-10.7305
▁ပန်ဆန်း	-10.7307
▁ဘိန်း	-10.7308
▁ဆင်စွယ်	-10.7313
မှန်း	-10.7313
▁ရှိလာ	-10.7314
သိုင်း	-10.7314
▁ဖျက်	-10.7317
မှအပ	-10.7321
▁ညောင်ဦးမြို့နယ်	-10.7325
ဒုတိယကမ္ဘာစစ်	-10.7326
လိုက်ပါ	-10.7326
ငို	-10.7326
နိုင်ပါတယ်။	-10.7326
▁အမြီး	-10.7327
▁ဦးကျော်	-10.733
လိုအပ်	-10.733
ဖြိုး	-10.7331
▁မြန်မာဘာသာစကား	-10.7332
တပ်ဖွဲ့ဝင်	-10.7332
ကျူး	-10.7334
▁ကျောက်ကြီး	-10.7335
၂၀၀၄	-10.7336
▁လျှပ်စစ်ဓာတ်အား	-10.7336
နိုင်သူ	-10.7336
▁ခန့်အပ်တာဝန်ပေး	-10.7338
ဆွန်	-10.7338
▁အင်္ဂလန်ပြည်	-10.734
▁အပိုဒ်	-10.7341
ချောက်	-10.7342
▁ငါ့ကို	-10.7342
ထားသော်လည်း	-10.7343
သွားခြင်း	-10.7344
▁ရော့ဂျာ	-10.7345
ဘာသာဖြင့်	-10.7346
ရက္ခိုင့်တပ်တော်	-10.7347
▁ဖြစ်သဖြင့်	-10.7349
အုန်း	-10.7351
တယောက်	-10.7351
▁စွန့်လွှတ်	-10.7352
နက္ခတ္တဗေဒ	-10.7357
ကြီးရွာ	-10.7357
▁လွှဲပြောင်း	-10.7358
▁မြို့ရိုး	-10.7361
▁၇၇	-10.7362
ကျွန်းရွာ၊	-10.7362
ပြောင်းလဲမှု	-10.7364
စက	-10.7367
အုတ်တွင်း	-10.7368
နေဝင်း	-10.7369
ို့ဗမာအစည်းအရုံး	-10.7369
▁စိန့်	-10.7377
ကျွန်းများ	-10.7379
များပါဝင်သည့်	-10.738
ခံရသူ	-10.738
▁ကွဲပြားမှု	-10.7383
▁မင်းလှ	-10.7385
▁လက်ဆောင်	-10.7386
လိုက်တယ်	-10.7386
▁ပြည်နယ်များ	-10.7386
အရွယ်အစား	-10.7388
▁သူမသည်	-10.739
တောင်ကြီးခရိုင်၊	-10.7391
▁ရုရှ	-10.7392
▁အသွင်	-10.7395
ခဲ့ဖူး	-10.7395
ဆဲလ်	-10.7401
အဖွဲ့များ	-10.7403
▁အဖြူ	-10.7403
▁၁၉၁၈	-10.7407
▁အရေးမကြီး	-10.7409
ဂျေ	-10.7411
▁ဘာမှ	-10.7412
ဆီကို	-10.7414
ခြင်းငှာ	-10.7415
အမျိုးသားပါတီ	-10.7417
▁ကျေးဇူး	-10.7419
▁ဆောက်လုပ်ရေး	-10.7422
သင်္ကန်း	-10.7423
အသား	-10.7424
8	-10.7425
▁လှူ	-10.7425
▁ဖိနှိပ်	-10.7425
ဖက်ဒရယ်	-10.7427
ဖောင်	-10.743
▁သာသနာရေး	-10.743
ပမာ	-10.7431
ကြုံ	-10.7431
သဘောတူညီချက်	-10.7436
ကြားတွင်	-10.7436
▁မွေးနေ့	-10.7439
၁။	-10.7441
▁အရုပ်	-10.7442
▁ပုံဖော်	-10.7442
▁အကြံ	-10.7444
▁ဘင်္ဂလား	-10.7446
▁ဆုတောင်း	-10.7448
▁သီး	-10.745
▁တိုက်ခိုက်ခဲ့ရာ	-10.7453
▁ဦးအောင်	-10.7457
▁စံတော်ချိန်	-10.7458
ွ	-10.7459
▁စမ်း	-10.7461
▁မိုးညှင်း	-10.7461
▁သက်ရောက်မှု	-10.7462
ကျီ	-10.7462
m	-10.7465
ကယားပြည်နယ်	-10.7468
မြို့နယ်၊မိုင်း	-10.7468
သီချင်းများ	-10.7476
▁၅၇	-10.7481
မြင်ကွင်း	-10.7482
▁မြန်မာဘာသာ	-10.7488
ရူပ	-10.7489
နည်းကို	-10.7491
။၄	-10.7496
ထောက်ပံ့	-10.7498
▁ဒီဇိုင်း	-10.75
ကိုရီးယား	-10.7501
ရွာတွင်	-10.7504
များရှိသည်။	-10.7506
အကြားတွင်	-10.7506
▁၅၈	-10.7508
7	-10.751
နိုင်ခဲ့သည်	-10.7512
▁ပြည်ထဲရေး	-10.7516
စက္ကူ	-10.7517
▁ရှေးဦး	-10.7517
သရုပ်ဆောင်များ	-10.7519
▁အလ်	-10.7521
ဖော်ထုတ်	-10.7521
▁အဘယ်ကြောင့်ဆို	-10.7522
▁ချို	-10.7523
ကထာ	-10.7523
▁အခိုင်အမာ	-10.7524
▁သေဆုံးသွား	-10.7526
▁အင်္ဂလိပ်မြန်မာ	-10.7532
ဝယ်ယူ	-10.7533
▁သစ်သီး	-10.7534
ဗီယက်နမ်	-10.7534
▁ဆောင်းရာသီ	-10.7536
ဗျည်း	-10.7537
ကွတ်	-10.7538
တ္တာ	-10.754
ဖော	-10.7542
ဦးစီး	-10.7547
▁ငြင်းဆို	-10.755
ရဖို့	-10.7553
မည်ဖြစ်သည်။	-10.7556
ပြည်တွင်း	-10.756
▁၄၁	-10.7562
ာဝတီတိုင်းဒေသကြီ	-10.7562
▁တိုက်ခိုက်ရေး	-10.7564
▁ဘီယာ	-10.7564
▁သားဖြစ်သူ	-10.7565
ဗျာ	-10.7565
▁ရောနှော	-10.7567
နိုင်ရေးအတွက်	-10.7567
▁ညာ	-10.757
▁မမ	-10.7571
▁၁၉၄၄	-10.7575
▁အလင်းရောင်	-10.7576
တိုင်းဒေသကြီးဧရ	-10.7579
ထင်ရှားကျော်ကြား	-10.7582
ဂဲ	-10.7583
▁မြင်းခြံ	-10.7585
▁တနင်္သာရီတိုင်း	-10.7587
ဗုံး	-10.7588
▁အဘိဓမ္မာ	-10.7589
အဆောက်အဦ	-10.7593
ဂျ်	-10.7598
▁အတော်များများ	-10.76
▁ဆောင်ရွက်ခဲ့သည်	-10.76
▁လက်တင်	-10.7602
▁ပဉ္စမ	-10.7602
ခေါ်ဝေါ်	-10.7603
▁ပြည်နယ်နှင့်	-10.7606
▁တွေ့ရပါတယ်	-10.7607
ဖြစ်သည်။၂	-10.7607
▁အမည်ရှိ	-10.7608
ကစားနည်း	-10.761
▁ရှိလေသည်။	-10.761
တိုးမြှင့်	-10.761
ရော်	-10.761
▁စီးပွား	-10.7611
▁အတော်	-10.7615
▁ဖြစ်ပေါ်စေ	-10.7621
▁တူးမြောင်း	-10.7621
▁လေယာဉ်ပျံ	-10.7624
အသစ်များကို	-10.7624
သူများအတွက်	-10.7625
▁နှောင်းပိုင်း	-10.7627
▁မေလတွင်	-10.7627
▁ပညာသင်	-10.7627
▁ပွားများ	-10.7632
ဟံသာဝတီ	-10.7634
သူတစ်ဦး	-10.7635
▁အထူးဒေသ	-10.7635
းခရိုင်ဟင်္သာတ	-10.7636
စသည်ဖြင့်	-10.7641
တာပဲ	-10.7643
▁ဗြဟ္မာ	-10.7645
▁အမြန်	-10.7646
▁ရှားပါး	-10.7646
▁ဘိက္ခုနီ	-10.7649
ရေးပါတီ	-10.7649
▁အိမ်ထောင်	-10.7651
▁နေ့လယ်ပိုင်း	-10.7653
▁ထုတ်ဖော်ပြောဆို	-10.7655
▁တို့မှ	-10.7655
ခေတ်တွင်	-10.7656
၇။	-10.7658
ပါမောက္ခ	-10.7659
▁အနိမ့်ဆုံး	-10.7661
၂၀၂၁ကွ	-10.7663
▁နှစ်မျိုး	-10.7665
▁၇၈	-10.7666
▁နေထိုင်သော	-10.7666
▁စစ်ကူ	-10.7666
ရာစုနှစ်	-10.7667
ပြန့်	-10.7667
အပေါင်းတို့	-10.7669
▁အမြစ်	-10.7669
ခြင်	-10.767
တတ်၏။	-10.767
တော်မူ၍	-10.7671
အေဒီ	-10.7671
▁အလိုရှိ	-10.7672
ိန်း	-10.7672
▁ကော့ကရိတ်	-10.7674
▁၈၂	-10.7676
စာသား	-10.7677
ရှေးဟောင်း	-10.7679
ခဲ့ရာမှ	-10.7684
▁ပြင်းထန်စွာ	-10.7686
ဒေါင့်	-10.7687
▁ဆိုလို	-10.7691
▁ဆိုင်ကယ်	-10.7693
▁ဝင်ရောက်လာ	-10.7697
▁အီရတ်	-10.7698
ကျောင်းတွင်	-10.77
စံနစ်	-10.77
▁အပြုအမူ	-10.7701
တစ်ရာ	-10.7703
▁တည်ထား	-10.7707
ဖွဲ့စည်းခြင်း	-10.7708
စဉ်းစား	-10.7708
▁ကျွန်မတို့	-10.7708
ဝဘ်ဆိုဒ်	-10.7709
▁ဂမုန်း	-10.7711
မောက်	-10.7711
စွာဖြင့်	-10.7716
▁ဖြေကြား	-10.7718
နေကြသည်။	-10.7719
▁နောင်တော်	-10.7722
▁ကိုလည်း	-10.7722
အမည်ကို	-10.7723
▁ပိတ်ပင်	-10.7728
▁ဘုန်းကြီး	-10.7728
ထားကာ	-10.7728
▁ကျော်ကို	-10.7729
▁ဟိုတယ်	-10.7729
ေါ	-10.7729
▁၇၃	-10.773
▁စည်း	-10.7731
▁ထီးနန်း	-10.7736
ချွတ်	-10.7737
▁ဗြ	-10.7737
▁ပျက်	-10.7737
ပြည်သူ	-10.7739
ဗီး	-10.774
သူရ	-10.7742
ပတ်လမ်း	-10.7743
တွေး	-10.7747
တောင်ငူ	-10.7748
▁ဒီဇင်ဘာလတွင်	-10.7748
မြို့၏	-10.7749
▁အငြင်းပွားမှု	-10.775
ဗီဇာ	-10.7752
▁ထောက်ပံ့ပေး	-10.7752
သည်။၃	-10.7759
ထပ်မံ	-10.776
▁အဘ	-10.7761
▁ငှက်များ	-10.7764
▁မတရား	-10.7765
နိုင်ပါသည်	-10.7767
ဟုဆို	-10.7767
▁၁၉၃၅	-10.7768
▁ဘိုက်	-10.777
တိန်	-10.7772
▁တစ်နိုင်ငံ	-10.7773
▁ဝိပဿနာ	-10.7776
သွားပြီ	-10.7777
▁စစ်ပွဲများ	-10.7777
▁လေသည်။	-10.7779
ဇီးကုန်းမြို့နယ်	-10.7779
အများစုမှာ	-10.7782
▁ပိဋကတ်	-10.7785
ယူး	-10.7785
▁လယ်သမား	-10.7793
အတည်ပြု	-10.7793
▁ပြန်ဆို	-10.7794
လေ့ရှိပြီး	-10.7796
တြ	-10.7796
▁တဦး	-10.7797
ထော်	-10.7803
အာဏာပိုင်	-10.7806
▁ဘုရားသခင်၏	-10.7807
▁ထေရဝါဒ	-10.7811
▁ဘားအံမြို့နယ်	-10.7811
▁လိုင်း	-10.7813
▁၉၅	-10.7814
▁ခက်	-10.7815
တစ်ခုသည်	-10.7815
▁ကြည်ညို	-10.7817
ဏာ	-10.7817
▁မည်သူ	-10.7819
▁အဆုတ်	-10.7821
ထားသူ	-10.7822
▁အသုံးပြုသည့်	-10.7823
▁လိုလား	-10.7825
သွားရောက်	-10.7828
▁အဲခိသည်ဂျပန်	-10.7828
▁ဟုတ်	-10.7831
၁၀၁	-10.7831
▁ခန့်ထား	-10.7833
▁သူဟာ	-10.7834
▁အကျွန်ုပ်	-10.7834
▁ရာမ	-10.7835
ဒဏ်ကို	-10.7837
▁လောဘ	-10.7837
ညှိနှိုင်း	-10.7838
▁လားရှိုးမြို့	-10.784
▁နို	-10.784
▁ရင်းနှီး	-10.7845
လူ့အဖွဲ့အစည်း	-10.7847
▁့	-10.785
▁မော်တော်ကား	-10.7854
▁ဂိုး	-10.7857
ပျို	-10.7858
စာတွဲနောက်ပြန်	-10.787
အကျယ်	-10.7871
စုတ်	-10.7873
▁စလင်းမြို့နယ်	-10.7873
▁စစ်အုပ်စု	-10.7874
▁ကျောက်တံခါး	-10.7877
▁240	-10.7882
▁ပုန်ကန်	-10.7884
▁ယာယီသမ္မတ	-10.7888
▁လေထု	-10.7889
▁ပြောပြပါတယ်	-10.7889
▁ဟက်	-10.789
▁ကူညီပေး	-10.7892
▁၁ဝဝ	-10.7894
ထုတ်ဝေ	-10.7897
တစ်လျှောက်တွင်	-10.7897
မယ်တော်	-10.7898
ရန်လိုအပ်သော	-10.7899
▁ပြောင်းလဲမှု	-10.7901
အရည်	-10.7902
ပေါင်းချုပ်	-10.7903
ထုံ	-10.7915
▁လှိုင်းဘွဲ့	-10.7916
▁ဖားကန့်	-10.7916
အန်းဒရွိုက်	-10.7917
▁မရှိဘဲ	-10.7918
▁နတ်ရွာစံ	-10.7918
ဂုဏ်ထူးဆောင်ဘွဲ့	-10.7918
▁သင်ကြားပေး	-10.7921
▁ပြီးဆုံး	-10.7921
▁အဖိုးတန်	-10.7923
▁လျှပ်စစ်ဓာတ်	-10.7925
▁၂၅၀	-10.7929
▁နိုင်ငံရေးအရ	-10.7931
▁လောက်ကိုင်	-10.7934
▁ငါ၏	-10.7935
▁ပန်းချီကား	-10.7936
တာဝန်ထမ်းဆောင်ဆဲ	-10.7936
မျိုးနွယ်	-10.7937
▁ဘုရားသခင်	-10.7938
▁ထောက်	-10.7941
သင်တန်းကျောင်း	-10.7941
▁ငါဘုရား	-10.7941
▁ပြီးစီး	-10.7942
ပါကစ္စတန်နိုင်ငံ	-10.7944
▁ဆောင်ရွက်ရန်	-10.7946
▁အဝိဇ္ဇာ	-10.7947
ပညာကို	-10.7947
▁အီတလီနိုင်ငံ	-10.7948
လူငယ်များ	-10.7951
စိုက်ရာမြို့မှာ	-10.7954
▁ထိုအ	-10.7955
▁တာချီလိတ်	-10.7957
▁လယ်ယာစိုက်ပျိုး	-10.7961
ပေးပို့	-10.7962
ချယ်	-10.7963
စာရေး	-10.7965
▁ခံစားရ	-10.7966
၁၉၄၅	-10.7966
ရှိတယ်လို့	-10.7966
နိုင်ကြ	-10.7966
ထက်ပို၍	-10.7967
အောက်ပိုင်း	-10.7969
▁သဲကန္တာရ	-10.7969
▁မှန်ကန်	-10.797
▁ဆောင်းပါးများအ	-10.7971
ဆွေးနွေးပွဲ	-10.7971
▁ဆောင်ရွက်ပေး	-10.7973
▁ပြဋ္ဌာန်းချက်	-10.7978
စည်သူ	-10.7981
အုပ်ချုပ်ခွင့်ရ	-10.7983
ထူထောင်	-10.7984
စုစည်း	-10.7984
ဟောင်	-10.7985
ပြောက်	-10.7985
ချဉ်	-10.7987
▁အဆောင်	-10.7989
မြတ်စွာဘုရား	-10.799
သိုး	-10.7996
ထားဝယ်	-10.8001
ဗိုလ်ချုပ်မှူး	-10.8003
ဖွင့်လှစ်ခဲ့သည်။	-10.8006
▁သင်၏	-10.801
▁လူသိများ	-10.8011
▁နောက်ခံ	-10.8012
▁ထင်ရှားသည့်	-10.8017
ဒုံး	-10.802
လိုက်သောအခါ	-10.8025
▁သထုံ	-10.8031
ဇက်	-10.8031
▁ရုပ်တု	-10.8031
ဏ်	-10.8034
▁ထုတ်ပေး	-10.8035
▁တောင်ယာ	-10.8035
▁ယင်းတို့သည်	-10.8036
ရင်တော့	-10.8036
ဟေ	-10.8038
သစ်များ	-10.8039
▁ဘီး	-10.804
ဖူ	-10.8041
▁မြောက်မြားစွာ	-10.8042
▁ထိုသို့သော	-10.8043
လိုက်နာ	-10.8043
▁အရမ်း	-10.8045
ဒီဂရီ	-10.8053
အုပ်ချုပ်မှု	-10.8055
သမ	-10.8055
▁ပြုလုပ်ခြင်း	-10.8055
ကျက်	-10.8057
ဘွား	-10.8057
စင်တာ	-10.8058
▁၈၃	-10.806
▁ဝှက်ထားသော	-10.8061
ထွတ်	-10.8064
▁ထူး	-10.8067
စာရင်းတွင်	-10.8068
▁ဗန်	-10.807
တပ်ဖွဲ့ဝင်များ	-10.807
ကျုံး	-10.8073
▁ဆောင်း	-10.8075
▁ကျုံး	-10.8075
▁အရင်က	-10.8081
▁ကြွက်	-10.8082
▁၄ဝ	-10.8083
▁ဒါကို	-10.8084
အခြေပြု	-10.8088
သည်လည်းကောင်း၊	-10.8088
▁ပေါက်ကွဲ	-10.8088
မိုးကုတ်မြို့နယ်	-10.8093
့စ်	-10.8093
▁နှိမ်နင်း	-10.8094
▁ထုတ်ယူ	-10.8095
▁၁၉၂၄	-10.8096
▁ဂယ်လက်ဆီ	-10.81
ဒဿန	-10.81
▁အလို	-10.8104
▁၁၉၂၃	-10.8108
▁ရှိသည့်	-10.811
▁နှစ်ယောက်	-10.8111
▁လွတ်ငြိမ်း	-10.8112
ထွန်းကား	-10.8112
▁အဝေး	-10.8114
မြန်မာ့နိုင်ငံ	-10.8116
▁ပက်	-10.8116
▁ဘောလုံးသမား	-10.8116
ဇီဝဗေဒ	-10.8119
သလား	-10.812
နယ်မြေများ	-10.8121
လူမျိုးတို့	-10.8123
ပညာရေးဝန်ကြီးဌာန	-10.8123
ရေနံ	-10.8124
▁စစ်ဘက်ဆိုင်ရာ	-10.8124
အလွှာ	-10.8125
သူတွေကို	-10.8126
▁ဘိုး	-10.8126
▁သူတို့ကို	-10.8127
▁ပျား	-10.8127
ရိပ်သာ	-10.8128
လက်နက်ကိုင်အဖွဲ့	-10.8128
▁ဗျည်း	-10.8128
နှိပ်စက်	-10.8129
သူအား	-10.813
ဖြစ်လို့	-10.813
▁၁၉၁၉	-10.8132
ကျောက်ကြီး	-10.8136
▁မိနစ်ခန့်တွင်	-10.8137
▁ရာစုတွင်	-10.8139
▁ပစ္စည်းများကို	-10.814
အာရုံ	-10.8141
▁မံစီမြို့နယ်	-10.8142
▁မပေး	-10.8143
▁ခန်း	-10.8145
▁ဥပဒေကို	-10.8147
ရန်ကုန်တိုင်း	-10.8154
▁ငြိမ်း	-10.8158
▁မှတ်ယူ	-10.8159
အပြောင်းအလဲ	-10.816
ွီး	-10.816
▁အာဏာရှင်	-10.816
▁ဆတ်	-10.8161
ရှိခဲ့သည်။	-10.8163
▁တရုတ်ပြည်သူ့	-10.8165
▁ထွန်း	-10.8165
နေကြသော	-10.8166
▁အခန်းကဏ္ဍ	-10.8169
▁ပိုက်ဆံ	-10.8169
▁စပ်ဆို	-10.817
▁အခါတွင်	-10.817
သွားသည်	-10.8171
ရှိခြင်း	-10.8172
▁မူလတန်းကျောင်း	-10.8173
▁အကျယ်အဝန်း	-10.8174
▁အမျိုးသားရေး	-10.8175
ပစ်ခတ်တိုက်ခိုက်	-10.8178
▁တိမ်	-10.818
သုတ်မာတိကာ	-10.8181
▁ဈာန်	-10.8187
▁၁၉၂၅	-10.8188
သေးသော	-10.8188
▁ကိန်း	-10.8188
အမ	-10.819
▁ဖြူးမြို့နယ်	-10.8193
▁၁၉၂၂	-10.8195
▁ဟောင်ကောင်	-10.8196
တာဝန်ယူ	-10.8198
အများ	-10.8198
▁တောင်၊	-10.82
ဟူ၍လည်း	-10.8202
ယျ	-10.8204
အဖွဲ့သည်	-10.8204
▁ရာထူးမှ	-10.8205
ဆုပ်	-10.8206
▁မလေးရှားနိုင်ငံ	-10.8206
ဖြစ်သွား	-10.8207
▁ဟာသ	-10.8209
▁ပဋိ	-10.821
လျော့	-10.8212
▁ကတည်းက	-10.8212
ယပ်	-10.8215
▁ချဉ်းကပ်	-10.8215
▁မတ္တရာမြို့နယ်	-10.8217
၀င်	-10.8217
▁ယူဆကြသည်။	-10.8218
▁ရှင်သန်	-10.8222
ဇူ	-10.8223
လွင်ပြင်	-10.8224
ဂွ	-10.8225
▁ပြန်၍	-10.8226
လုံကျေးရွာအုပ်စု	-10.8231
လိမ့်မယ်	-10.8231
▁မိုင်းဆွဲ	-10.8235
မှူးကြီး	-10.8238
▁စစ်အစိုးရ	-10.8238
အလျား	-10.8238
လမ်းညွှန်ချက်	-10.8238
▁တွားသွားသတ္တဝါ	-10.8238
▁ဘာလူစကိုနီ	-10.8239
မယား	-10.8239
▁မု	-10.8245
▁သူငယ်ချင်း	-10.8245
အတ္ထုပ္ပတ္တိ	-10.8247
တည်းဖြတ်မှုများ။	-10.825
လာသဖြင့်	-10.8251
▁၁၉၂၈	-10.8253
သုံးခု	-10.8253
▁သိကြားမင်း	-10.8256
▁ခံတပ်	-10.8256
▁သင်္ခါရ	-10.826
▁ကြို့ပင်ကောက်	-10.826
▁မြင်ရ	-10.8261
▁ဖွားမြင်သည်။	-10.8261
ရရှိသော	-10.8261
▁တွေ့မြင်	-10.8263
ခွ	-10.8266
နက္ခတ်	-10.8266
▁လျှာ	-10.8268
တောင်ဘက်	-10.8275
▁အမေရိကန်သမ္မတ	-10.8276
▁ဩဂုတ်လတွင်	-10.8278
▁မြက်	-10.8279
ခွင့်ပေး	-10.8284
▁ဖေဖော်ဝါရီလတွင်	-10.8284
▁လစဉ်	-10.8284
▁ဝိဇ္ဇာ	-10.8284
▁ကပစ	-10.8285
▁ဖက်ဆစ်	-10.8285
▁ရှိသည်ဟု	-10.8286
▁ရှိ၍	-10.8291
▁အညာ	-10.8293
တွင်း၌	-10.8294
▁၃၀၀၀	-10.8296
ဇိ	-10.8296
▁ထုတ်ဖော်	-10.8298
▁ဘန်ကောက်	-10.8299
▁ယူကေ	-10.8302
ဖိ	-10.8303
မြို့များ	-10.8306
နိမိတ်	-10.8306
▁ရှင်း	-10.8308
▁အလွှာ	-10.831
▁ရေရှည်	-10.8312
▁ဘီလျံ	-10.8314
နှစ်များ	-10.8316
သုံးသပ်	-10.8318
ဖြစ်တယ်	-10.8318
▁၁၉၁၁	-10.8318
▁ရော	-10.8318
ပလာ	-10.8322
သူမှာ	-10.8324
▁ဖျော်ဖြေရေး	-10.8325
▁မည်သူမဆို	-10.8325
▁အကျဉ်း	-10.8328
ပြို	-10.8329
▁ဂျီဒီပီ	-10.833
ခန့်အပ်	-10.833
မတူ	-10.8331
ခေတ်က	-10.8333
▁ဓနု	-10.8335
▁တစ်ခုကို	-10.8338
▁အပ်နှင်း	-10.8338
မျော	-10.8338
ကြိတ်	-10.8339
သင့်သည်။	-10.834
▁ပြင်ပလင့်	-10.8341
စံတော်ချိန်	-10.8342
▁ရရှိသည်။	-10.8344
နေ့တွင်	-10.8346
▁တစ်ခုဖြစ်သည်။	-10.8348
▁မဖြစ်နိုင်	-10.8348
အိုက်	-10.8354
ကြရသည်	-10.8355
ခရာ	-10.8355
အလုပ်လုပ်	-10.8356
ဝဝဝ	-10.8358
ဖီး	-10.8359
▁၁၉၂၁	-10.8361
ဒဏ္ဍာရီ	-10.8362
▁အမည်ပေး	-10.8363
မှုနဲ့	-10.8368
ကျောင်း၊	-10.8371
ကစ်	-10.8372
ရဲတပ်ဖွဲ့	-10.8374
ဖခင်	-10.8374
▁ခဏ	-10.8382
မော့	-10.8382
▁အစဉ်အလာ	-10.8386
ဖိအား	-10.8387
လာအောင်	-10.839
၁၉၉၅	-10.839
ရမှာ	-10.8392
▁အဓမ္မ	-10.8392
▁လွယ်ကူ	-10.8395
▁အကြမ်းဖက်မှု	-10.8397
ညောင်ဦးမြို့နယ်	-10.8398
လူဦးရေ၂၀၁၄	-10.84
တစ်ဦးဖြစ်ပြီး	-10.84
▁ပရိုဂရမ်	-10.8403
▁ဂေါတမ	-10.8404
အယူ	-10.8405
ရောမ	-10.8413
စေခဲ့သည်	-10.8414
▁ဤကား	-10.8414
▁တင်မြှောက်	-10.8415
▁အရပ်ဘက်	-10.8416
အစိုးရသည်	-10.8418
▁အဆင်း	-10.8419
မြှောက်	-10.8421
သတိ	-10.8422
▁စစ်တွေ	-10.8426
ပြီးသော်	-10.8427
▁အာရုံစိုက်	-10.8427
▁ကိုးကန့်တပ်	-10.8432
▁တစ်ခုခု	-10.8433
▁မိဖုရားကြီး	-10.8433
▁မောင်မောင်	-10.8439
နိုင်ငံများနှင့်	-10.8443
ယီ	-10.8443
▁အခုတော့	-10.8449
▁ဒေါ်ခင်	-10.845
တွေ့ဆုံ	-10.8452
▁တီးဝိုင်း	-10.8453
ဟက်	-10.8454
အဆင့်ဆင့်	-10.8454
▁သတ်မှတ်ချက်များ	-10.8455
သည်ကား	-10.8458
▁အဆောင်အယောင်	-10.846
ှ	-10.846
▁ဖြစ်ပေသည်	-10.8464
▁အကျင့်	-10.8467
ပါလိမ့်မယ်	-10.8471
▁စိတ္တ	-10.8471
မုန်	-10.8473
▁တိုးလာ	-10.8475
၉။	-10.8481
နိဗ္ဗာန်	-10.8481
မင်းလှမြို့နယ်၊	-10.8486
နာမ်	-10.8486
▁အတွင်းတွင်	-10.8486
နေ၏။	-10.8489
အစ္စလာမ်	-10.8491
ပန်ဆန်း	-10.8493
ဝေဒနာ	-10.8494
▁ကွန်မွန်းစ်တွင်	-10.8495
ဏ္ဍနိုင်ငံအလိုက်	-10.8497
မျှင်	-10.8497
▁ဗမာ့	-10.8502
ဂင်	-10.8504
▁စည်ကား	-10.8505
တပည့်	-10.8505
▁အလျင်	-10.8506
▁အထိအခိုက်မရှိ	-10.8507
သွားကြ	-10.8507
ကြည့်လျှင်	-10.8508
▁ကလေးသူငယ်	-10.8509
အယူဝါဒ	-10.851
▁သီအိုရီ	-10.851
ခဲ့ကြလေသည်။	-10.8511
အွန်	-10.8511
▁မကျီးကုန်းရွာ၊	-10.8512
ပင်ဖြစ်သည်	-10.8512
နောက်ခံ	-10.8515
သက်သာ	-10.8516
ကွန်ယက်	-10.8518
နိုင်ခဲ့ပြီး	-10.8521
ဖြစ်ပေသည်။	-10.8522
▁သုခ	-10.8522
▁စင်တီဂရိတ်	-10.8523
တွေ့ရ	-10.8523
ကြင်	-10.8523
▁ကျင့်ဝတ်	-10.8525
ပိုင်ခွင့်	-10.8526
ဆောင်ရွက်ရေး	-10.8529
▁ပေါ	-10.853
▁အတွင်းရှိ	-10.8532
စလုံး	-10.8532
အမြင့်ဆုံး	-10.8534
တာလို့	-10.8536
သတ်ဖြတ်	-10.8537
ဟော်	-10.854
▁အောက်ဆီဂျင်	-10.8543
ဆောင်ရွက်ရန်	-10.8545
▁သေဆုံးခဲ့သည်။	-10.8546
ထားရှိ	-10.8547
တာဟာ	-10.8548
ပင်လျှင်	-10.8548
ဦးဆောင်	-10.8549
▁အရှင်ဘုရား	-10.855
▁ဂါထာ	-10.8551
ယေ	-10.8552
၁၉၇၄	-10.8553
တင်သွင်း	-10.8556
▁အတိုင်ပင်ခံ	-10.8557
▁ရှိနေပါတယ်	-10.8558
▁ပုံရိပ်	-10.8559
▁ထိုသူတို့သည်	-10.8561
ပင်လယ်ရေမျက်	-10.8564
▁ဖယ်ခုံမြို့နယ်	-10.857
▁ဖွံ့ဖြိုး	-10.8571
▁ထူးခြားသော	-10.8573
ဝက်ဘ်ဆိုက်	-10.8573
▁တုတ်	-10.8573
လည်ပတ်	-10.8576
▁ထုတ်ပြန်ကြေညာ	-10.8576
နေအိမ်	-10.8577
▁အစ္စလာမ်ဘာသာ	-10.858
▁ဆန့်ကျင်ဘက်	-10.858
▁လွိုင်ကော်	-10.858
သန	-10.8581
ဆောင်ပုဒ်	-10.8581
ထိခိုက်သေဆုံးမှု	-10.8582
ဂယ်လက်ဆီ	-10.8582
ပုံစံများ	-10.8583
▁ပိုက်	-10.8584
▁ရှိသော်လည်း	-10.8584
စိုင်	-10.8585
▁ယခုတိုင်	-10.8588
▁ကျဆင်း	-10.859
▁၅၉	-10.859
▁ဖြစ်စေ၊	-10.8593
စစ်ပွဲများ	-10.8593
မြို့နှင့်	-10.8594
၏သား	-10.8595
ဆင်းရဲ	-10.8595
▁စင်တီမီတာ	-10.8597
ကျေးရွာအုပ်စုကန်	-10.8597
ဘုရား၊	-10.8597
နိုင်ခွင့်	-10.8599
▁ဟီ	-10.8599
▁နေရာကို	-10.8599
တိုးတက်မှု	-10.8604
▁အခြေပြု	-10.8605
▁ကာကွယ်ရန်	-10.8605
▁ဘုန်း	-10.8606
သေန	-10.8608
ကြပါ	-10.8611
▁ကိုက်ညီ	-10.8612
မြူ	-10.8612
▁၈။	-10.8613
▁အကျိုးကျေးဇူး	-10.8614
▁အရင်းအမြစ်	-10.8617
▁တစ်ရက်	-10.862
▁အဆောက်အဦ	-10.8622
မပါ	-10.8623
အကျင့်	-10.8623
ထိခိုက်	-10.8623
ဝန်ကြီးအဖြစ်	-10.8625
သမားများ	-10.8626
▁ဖွင့်ဆို	-10.8626
▁စွမ်းအား	-10.8628
အသိအမှတ်ပြု	-10.8629
▁နှာခေါင်း	-10.8629
▁မလေး	-10.8632
ကိုလိုနီခေတ်	-10.8634
တစ်ခုဖြစ်သည်	-10.8635
လက်ရှိစာတွဲ	-10.8636
▁အရှေ့မြောက်	-10.8637
ပြည်ခရိုင်၊ပေါ	-10.8637
အပစ်အခတ်ရပ်စဲရေး	-10.8637
▁ခံခဲ့ရသည်။	-10.8638
▁ပိုင်	-10.8638
▁ဝက်ဝံ	-10.8639
ဖြည့်	-10.8641
ယင်းမာပင်	-10.8645
5	-10.8646
တစ်ထောင်	-10.8648
▁ရှိကြသည်	-10.8649
▁အမျိုးသားဒီမိုက	-10.865
▁ကိုင်း	-10.8652
▁ဆုတ်ခွာ	-10.8652
▁တေးဂီတ	-10.8652
▁ကျမ်းဂန်	-10.8653
▁အလောင်းမင်းတရား	-10.8653
လင်္ကာ	-10.8657
▁ဒန်	-10.8657
▁အမရပူရ	-10.8661
▁ငယ်စဉ်က	-10.8664
ဆော့	-10.8666
တယ်ဆိုတာ	-10.8668
▁ဆုံး	-10.867
▁ဦးနု	-10.8671
ပင့်	-10.8672
▁ကောင်းမှု	-10.8675
မနေ	-10.8677
▁ဖြတ်တောက်	-10.8679
ပြီးသောအခါ	-10.868
ရာနေရာ	-10.8683
▁ဗျူဟာ	-10.8684
ပရိ	-10.8684
▁ပါရှိသည်။	-10.8686
▁စတင်တည်ထောင်	-10.8687
တပ်ဆင်	-10.8687
▁ကစားနည်း	-10.8688
▁အသုံးပြုမှု	-10.8688
▁အီဂျစ်နိုင်ငံ	-10.8689
▁ဆိုလိုသည်	-10.8689
ဘို့	-10.8692
သံဃာ	-10.8695
▁ကျွန်းများ	-10.8697
▁ကူးပြောင်း	-10.8701
နိုင်စေရန်	-10.8706
လမ်းစဉ်	-10.8706
တိုက်ခိုက်ခဲ့	-10.8707
▁မြင့်တက်လာ	-10.8707
ချိတ်ဆက်	-10.8709
ကျင့်သုံး	-10.8713
တောင်ကြီးခရိုင်	-10.8715
ဝိုင်	-10.8715
▁လူဦးရေ၏	-10.8716
၁၉၉၀	-10.8717
▁မျဉ်း	-10.872
▁ပြင်းထန်သော	-10.872
▁တပ်ရင်းမှ	-10.8721
▁အဆွေ	-10.8722
▁သာဓက	-10.8723
▁မီလီယံ	-10.8723
ဒီပ	-10.8724
ကွေး	-10.8725
▁တိုင်ပင်	-10.8727
ဖိလစ်ပိုင်	-10.873
▁ပြစ်မှု	-10.8736
▁အသက်အရွယ်	-10.8738
▁ဂိတ်	-10.8738
ငင်	-10.8739
▁လှည့်ပတ်	-10.8739
လာအို	-10.874
▁ဝန်ဆောင်မှုများ	-10.8741
▁ရှုမြင်	-10.8742
သဲကုန်းမြို့နယ်၊	-10.8742
▁မိတ္ထီလာ	-10.8745
လာတယ်	-10.8746
ဘွယ်	-10.8746
အရပ်၌	-10.8748
▁အစိမ်းရောင်	-10.8748
။ကိုးကား	-10.8751
အနည်းဆုံး	-10.8757
မြို့လင့်ခ်များ	-10.8758
▁ဂြိုဟ်တု	-10.8762
▁ကုန်သွယ်	-10.8762
▁၁၈၈၅	-10.8762
ထား၏။	-10.8764
▁မင်းတရားကြီး	-10.8765
▁မရှိပါ	-10.8766
▁ဂျေ	-10.8769
တရုတ်ဘာသာစကား	-10.877
ရည်ရွယ်ချက်	-10.8772
ထားသည်ကို	-10.8773
ခဲ့ကြ၏။	-10.8773
▁နှင်ထုတ်	-10.8775
▁ဤသည်မှာ	-10.8775
▁သက်ရောက်	-10.8776
ဟိုင်း	-10.8776
၉၂	-10.8776
ရုပ်မြင်သံကြား	-10.8778
သားတို့	-10.8778
တဏှာ	-10.8778
▁တပ်မှူး	-10.878
▁ဒုတိယသမ္မတ	-10.8781
▁ဇီး	-10.8782
သူတွေက	-10.8787
▁အစိုးရမှ	-10.8788
▁ကဲ့သို့	-10.8788
▁အကြွင်းမဲ့	-10.8788
▁၀၇	-10.8789
▁ဝိုင်းမော်	-10.8792
ပြင်ရွာ	-10.8792
ဟမ်	-10.8794
ကွမ်	-10.8795
အတွင်းမှာ	-10.8795
တိုးတက်ရေးပါတီ	-10.8795
ရက်စွဲများ	-10.8796
▁၁၉၁၄	-10.8796
▁ကယား	-10.8798
ပေါင်းစပ်	-10.8799
▁လောင်	-10.8802
တည်းဟူသော	-10.8806
ဒေါ့	-10.8807
သနည်း	-10.8809
▁နိုင်ငံအတွင်း	-10.8809
ခဲ့ခြင်းဖြစ်ပြီး	-10.8813
▁ထု	-10.8814
နိုင်ငံကို	-10.8817
▁ထိုသူတို့	-10.8817
ပေါင်းစပ်ရမည့်	-10.8817
လျန်	-10.8818
ရင်းမြစ်များ	-10.8818
▁စိုး	-10.8819
▁ညို	-10.8819
မလာ	-10.8822
▁ရဟန်းတို့သည်	-10.8823
ကြီးများကို	-10.8823
ဗုဒ္ဓဝင်	-10.8823
ထောင်း	-10.8825
▁ဆွေးနွေးပွဲ	-10.8826
▁မူတည်၍	-10.8827
သူတို့၏	-10.8828
လူမျိုးတို့၏	-10.8829
မောက်မယ်မြို့နယ်	-10.883
လာကြ	-10.8831
သီရိလင်္ကာ	-10.8831
ရကြောင်း	-10.8833
▁ဘား	-10.8834
▁အဖွဲ့မှ	-10.8834
▁တပ်သားများကို	-10.8835
▁ချင်းတွင်းမြစ်	-10.8836
မုန်တိုင်း	-10.8837
▁သိမ်	-10.8837
▁လက်ဖက်	-10.8839
ပေးခဲ့သည်	-10.884
နယ်၊	-10.8841
▁ပေါက်မြို့နယ်	-10.8842
▁မိုင်းဆတ်	-10.8843
▁ရှင်းပြ	-10.8846
ရုပ်တု	-10.8846
သုတ်မှ	-10.885
▁ကာလအတွင်း	-10.8851
▁တစ်ကမ္ဘာလုံး	-10.8852
▁ဟင်နရီ	-10.8855
▁ရိုက်နှက်	-10.8857
အဘိဓာန်	-10.8857
နှိပ်	-10.886
▁ခွဲထွက်	-10.8861
▁ထုတ်ဝေခဲ့သည်။	-10.8867
▁လူတစ်ယောက်	-10.8867
▁အနောက်တောင်ဘက်	-10.8867
▁ပြား	-10.8868
သီဟ	-10.887
စွမ်းအား	-10.8871
▁မန့်	-10.8871
▁ဆားလင်းကြီး	-10.8871
နိုင်တယ်	-10.8875
ဆိုသည်	-10.8876
▁ရဟန်းတို့အား	-10.8876
ပန်းတောင်း	-10.8877
အကောင့်	-10.8879
တမျိုး	-10.888
ညီလာခံ	-10.888
▁အရှင်မြတ်	-10.8882
အီလက်ထရွန်းနစ်	-10.8882
▁အကွက်	-10.8884
▁အရှေ့အလယ်ပိုင်း	-10.8885
▁တမ်းပလိတ်အလံ	-10.8886
နေသည်ဟု	-10.8886
မကောင်း	-10.8886
ရေကြောင်း	-10.8888
ရွှေ့	-10.8889
မြောက်ဘက်	-10.8892
▁ဘယ်လောက်	-10.8894
ဓာတ်ငွေ့	-10.8896
နွမ်း	-10.8897
များကဏ္ဍ	-10.89
▁ကျွန်ုပ်	-10.8902
▁လင့်ခ်	-10.8905
▁တပ်သားများက	-10.8906
▁ပြောင်းလဲခြင်း	-10.8906
မြီး	-10.8907
▁စက္ကန့်	-10.8907
ပူရ	-10.8907
▁ပိန်း	-10.8908
အဖြစ်လည်းကောင်း	-10.8909
▁ပျော်	-10.891
▁မျိုးဆက်	-10.8911
အက်စ်	-10.8912
အရင်း	-10.8913
ထားတယ်လို့	-10.8913
▁၎င်းတို့အား	-10.8914
▁တံ	-10.8914
▁ဒိုင်း	-10.8916
မျိုးနွယ်စု	-10.8917
ကစပြီး	-10.8918
ဟူသည့်	-10.892
▁ဌာပနာ	-10.8922
အနှံ့	-10.8923
စောက်	-10.8924
▁အောက်တိုဘာလတွင်	-10.8924
းကျေးရွာအုပ်စု	-10.8927
▁ကျွမ်းကျင်သူ	-10.893
▁၂၀၂၁လက်ရှိ	-10.8931
သွားရာ	-10.8931
ဟတ္ထ	-10.8932
▁ပလောင်	-10.8932
လိုက်ကြောင်း	-10.8934
▁အလှ	-10.8936
ဖြစ်စေရန်	-10.8937
ယူနစ်	-10.894
▁အဘိ	-10.894
▁မြဝတီ	-10.8943
ကျေးရွာအုပ်စုကံ	-10.8945
ကြိုင်	-10.8945
▁ကျယ်ပြန့်	-10.8946
အကျဉ်း	-10.8946
▁၁၉၃၂	-10.8946
ခရစ်	-10.8949
။။	-10.8949
နေရာမှာ	-10.8949
▁ဖောက်လုပ်	-10.8951
တပါး	-10.8951
▁ပရို	-10.8952
နေချိန်	-10.8954
▁နဗီတမန်တော်	-10.8954
▁၆ဝ	-10.8955
ဘုရင့်နိုင်ငံ	-10.8955
တ္တိ	-10.896
▁မြန်မာနိုင်ငံ၌	-10.8962
▁ရှိတဲ့	-10.8962
▁ဇွန်လတွင်	-10.8962
▁၆၈	-10.8963
▁သီ	-10.8965
▁ရောက်သွား	-10.8967
ဂူဘုရား	-10.8967
ရှိကာ	-10.8967
ညောင်လေးပင်	-10.8968
▁သာမဏေ	-10.8968
▁ကျူ	-10.8969
ည်နယ်ရခိုင်ပြည်	-10.8973
▁ဇင်	-10.8977
လိုပါက	-10.8977
တန်ဆာ	-10.8985
▁ကုန်းဘောင်	-10.8986
အံ	-10.8989
▁ပန်းချီဆရာ	-10.8991
▁စကော့	-10.8991
ကွပ်	-10.8992
ညွှန်း	-10.8993
▁ဆဲလ်	-10.8993
▁နာဂ	-10.9001
သော်လည်း၊	-10.9001
▁ကြိယာ	-10.9003
ဧရာဝတီမြစ်	-10.9004
ဟုန်	-10.9005
သွားလာ	-10.9007
▁ကလောင်	-10.9007
သျှ	-10.9009
ခုကို	-10.901
မည်ကို	-10.9011
▁ကွန်ဂရက်	-10.9014
မူဆယ်ခရိုင်၊	-10.9014
▁သီချင်းများ	-10.9022
▁ဖိ	-10.9024
ပင်များ	-10.9024
▁မဟုတ်ပေ။	-10.9025
▁သတ်ဖြတ်မှု	-10.9025
သို့သော်	-10.9026
▁အကောင်	-10.9027
▁မတူညီသော	-10.9028
▁ကဏ္ဍမြန်မာ	-10.9032
▁ရှုပ်ထွေး	-10.9033
အမှုထမ်း	-10.9035
ကန့်	-10.9037
ကျူးလွန်	-10.9037
▁စစ်ကိုင်းမြို့	-10.9038
ဇေ	-10.9043
ခွန်း	-10.9045
ပြင်ဆင်ချက်	-10.9045
▁၁၉၁၂	-10.9046
နှုတ်	-10.9048
▁သူဌေးကြီး	-10.9049
ခံတပ်	-10.905
ခေါင်းစဉ်နှင့်	-10.9051
▁စွန့်ပစ်	-10.9056
▁ဇီဝဗေဒ	-10.9058
ဗက်	-10.9058
▁လူနည်းစု	-10.9059
▁ထိုအချိန်	-10.906
▁အောက်လွှတ်တော်	-10.906
▁ရီ	-10.9066
အသစ်များ	-10.9073
▁တူညီ	-10.9075
▁မြို့ကြီးများ	-10.9076
ပေါ်က	-10.9078
ဆုံးမ	-10.9078
မျိုးဆက်	-10.9079
▁၎င်းအား	-10.9083
ဓနု	-10.9085
▁နှစ်ကြိမ်	-10.9087
တောရွာ	-10.9088
▁နေ့တွင်	-10.9088
▁ပယ်ဖျက်	-10.9089
တူးမြောင်း	-10.909
▁လောကုတ္တရာ	-10.9092
▁အီလက်ထရွန်းနစ်	-10.9097
▁အာမခံ	-10.9098
သစ်ပင်	-10.9098
▁ရောစပ်	-10.9098
▁မျိုးသုဉ်းရန်	-10.91
▁မြေခွေး	-10.9102
▁ဖမ်းမိ	-10.9102
▁ဆက်သွယ်မှု	-10.9102
▁ဩဝါဒ	-10.9103
မ္	-10.9103
ဘုရားကြီး	-10.9103
စစ်ကောင်စီက	-10.9104
ဗိမာန်	-10.9107
▁သဘာဝဓာတ်ငွေ့	-10.9107
ထွက်လာ	-10.9108
▁ပေါ်ထွက်လာ	-10.9108
▁ဂလက်ဆီ	-10.9108
▁တရားတော်	-10.911
▁ပြည်သူပိုင်	-10.9111
လွှမ်းမိုး	-10.9112
ခေါ်ဆို	-10.9112
မျောက်	-10.9114
▁ဂျုံ	-10.9114
▁ဆုတ်	-10.9117
▁နံရံ	-10.9118
ပြောင်းရွှေ့	-10.9118
▁နိုင်ငံများတွင်	-10.9119
▁အလုပ်သမားများ	-10.912
▁အစိုးရသည်	-10.9121
▁ဝတ္ထုတို	-10.9123
▁တိုးပွားလာ	-10.9123
▁ဖိုင်များ	-10.9123
အန်း	-10.9124
▁စာရေးသူ	-10.9125
သပ်	-10.9125
ဒြပ်စင်	-10.9125
လို့ရ	-10.9126
▁ညွှန်ပြ	-10.9126
မြင်သာသော	-10.9128
ဆွေးနွေး၏	-10.9129
▁ရုပ်သိမ်း	-10.9136
▁ရှည်	-10.9138
နည်းတူ	-10.9139
ဖိုင်များ	-10.9143
ခဲ့ခြင်းဖြစ်သည်	-10.9145
▁ပါဝင်ဆောင်ရွက်	-10.9147
ဝံ	-10.9148
▁သီဟိုဠ်	-10.9151
▁အစု	-10.9151
အနွယ်	-10.9151
ရှေ့တွင်	-10.9153
ထွဋ်	-10.9154
မထား	-10.9157
မင်းတရားကြီး	-10.9157
လေးတွေ	-10.9163
ကုန်သွယ်ရေး	-10.9163
နေး	-10.9164
အသေးစိတ်	-10.9168
▁ဤရွာသည်	-10.9169
သတ္တဝါများ	-10.917
ဒေသမှ	-10.9171
စလင်းမြို့နယ်၊	-10.9174
▁သမုတ်	-10.9174
ဗိသုကာ	-10.9178
▁အောက်ခြေ	-10.9179
▁ပြောင်းရွေ့	-10.9179
ကျင့်ဝတ်	-10.918
▁၁၉၁၇	-10.9184
နူ	-10.9184
▁ဆည်းပူး	-10.9186
န္ဒ	-10.9189
၁၂၃	-10.919
ကာရ	-10.919
လဲ့	-10.919
ယ်စားလှယ်လောင်း	-10.9191
▁လော	-10.9192
ီး	-10.9192
သူအဖြစ်	-10.9194
▁၉၃	-10.9197
ပုဒ်မ	-10.9199
ဂေါ့	-10.9199
ခဲ့သည်။၅	-10.92
▁ဖြတ်၍	-10.92
▁တူး	-10.9203
▁အကျိုးစီးပွား	-10.9205
▁ဆင့်	-10.9206
မုတ်	-10.9206
စုံစမ်း	-10.921
သမင်	-10.9211
ခံစား	-10.9212
တော်တော်များများ	-10.9212
မည့်သူ	-10.9212
ဟူး	-10.9214
တွင်ပင်	-10.9214
▁အမျိုးအစားများ	-10.9215
ဆေးရုံကြီး	-10.9216
▁ဦးနှင့်	-10.9217
သို့ရောက်	-10.9219
စည်းလုံးညီညွတ်	-10.9219
▁ဇယား	-10.9223
▁ကမာ	-10.9224
ပေါ်ပေါက်လာ	-10.9224
စွန့်	-10.9226
ာသာပြန်စာပေအသင်း	-10.9226
▁အပေါ်တွင်	-10.9227
▁ဂျော့	-10.923
ဇော	-10.923
ဇု	-10.9231
ခြင်းခံရသည်။	-10.9231
၁၉၉၂	-10.9232
▁ရှင်းပြသည်	-10.9234
သစ်ကို	-10.9237
▁ညဉ့်	-10.9237
နိုင်သည်ဟု	-10.9238
▁ရုပ်ပုံ	-10.9239
▁ကြာအင်းဆိပ်ကြီး	-10.9239
ညစ်	-10.9241
▁ဖော်ပြသည်။	-10.9243
▁စာဆို	-10.9244
▁နိုင်ငံပိုင်	-10.9246
မြန်မာပြည်	-10.9246
▁ဖြစ်ပွားခဲ့သော	-10.9247
▁စသဖြင့်	-10.9247
▁ကျွန်တော့်	-10.9247
ဒေသကို	-10.9248
ကာကွယ်ရေးဝန်ကြီး	-10.9248
ညောင်ကုန်း	-10.9249
▁အကြီးမားဆုံး	-10.9251
ခွဲများ	-10.9256
▁ဓာတ်ဆီ	-10.9257
အမွေအနှစ်	-10.9259
▁ယနေ့အထိ	-10.926
▁အဆီ	-10.9261
▁မွန်ဂို	-10.9263
▁ဖြစ်လာခဲ့သည်	-10.9264
▁တောက်	-10.9265
▁ယွန်း	-10.9265
အတူ	-10.9268
▁ပြည့်စုံသော	-10.9268
▁မဏိပူရ	-10.927
▁နီ	-10.927
မိဘ	-10.9273
▁အက်ဥပဒေ	-10.9273
▁၉၆	-10.9275
မဝင်	-10.9275
▁ဟားမတ်စ်	-10.9276
▁ဘာသာတရား	-10.9277
▁စာမျက်နှာအား	-10.9277
▁စီးပွားရေးနှင့်	-10.9278
စာစောင်	-10.9278
၁ဝ	-10.9279
စိပ်	-10.928
▁တစ်စုံတစ်ရာ	-10.9284
▁အစရှိသည့်	-10.9284
▁တတ်မြောက်	-10.9285
▁တစ်ဦးတည်းသော	-10.9288
▁စက်တင်ဘာလတွင်	-10.9291
၀၆	-10.9291
▁အစ်ကို	-10.9291
▁ဒေ	-10.9292
ကျစ်	-10.9294
▁ရှေးအကျဆုံး	-10.9294
ကြည်း	-10.9295
▁သိပ္ပံနှင့်	-10.9298
ဝန်ကြီးဌာနက	-10.9299
▁ဧရာဝတီတိုင်း	-10.93
မည်၏။	-10.93
နယ်ခြားစောင့်တပ်	-10.93
▁ဂို	-10.9302
မိုင်းမော	-10.9303
▁ခွဲစိတ်	-10.9305
▁ကွာ	-10.9306
▁သရုပ်ဖော်	-10.9306
လူဝင်မှုကြီးကြပ်	-10.9307
အချက်အလက်များကို	-10.931
▁သက်ဆိုင်	-10.9311
▁ကော်ဖီ	-10.9313
ကိုယ်စား	-10.9316
ဂျာမနီနိုင်ငံ	-10.9317
စေရန်အတွက်	-10.932
မှုအပေါ်	-10.9321
အစားအစာ	-10.9322
▁တစ်ခါ	-10.9328
ဗ္ဗ	-10.9328
▁သတ်မှတ်ထား	-10.9329
▁အနား	-10.9329
ပျံသန်း	-10.9332
▁စုဝေး	-10.9333
▁ကုန်းကြမ်း	-10.9333
တဲ့အထိ	-10.9335
▁ဗလီ	-10.9337
လေတပ်	-10.9337
ရေနံချောင်း	-10.934
နေတာပါ	-10.9341
လိုအပ်ချက်	-10.9346
▁လက်အောက်တွင်	-10.9347
2	-10.9347
▁ဂျို	-10.9349
▁နန်	-10.935
▁ဘုရင်များ	-10.9353
▁ဝိနည်း	-10.9353
ပြုံး	-10.9354
မှလည်း	-10.9355
▁ကျက်စား	-10.9355
▁ခြေထောက်	-10.9359
ဘာဝနာ	-10.936
ပို၍	-10.9361
ဂု	-10.9363
တွန်း	-10.9366
▁ကြာမြင့်	-10.9367
ပြောပြ	-10.9369
လျှော့	-10.9373
▁ပုရပိုက်	-10.9375
▁အရှင်မြတ်သည်	-10.9375
ညောင်ပင်	-10.9375
▁ကုဒ်	-10.9375
တချို့ကို	-10.9377
နိဒါန်း	-10.9381
တစ်ခုလုံးကို	-10.9382
▁ရက်က	-10.9385
အနောက်ဘက်	-10.9389
▁၁၉၃၄	-10.9389
▁အမေရိကန်က	-10.939
▁အဲဒီမှာ	-10.9391
ဂုံ	-10.9392
ခဲ့ပေသည်။	-10.9392
▁ဘေ	-10.9395
▁သစ်စေး	-10.9395
ပါပြီ	-10.94
▁ရေကို	-10.9403
စီးဆင်း	-10.9404
▁၇၆	-10.9405
▁အတွင်းဝန်	-10.9406
ရာထူးကို	-10.9407
ပြင်ရွာ၊	-10.941
▁ဉာဏ	-10.9414
▁ဖြစ်ပြီး၊	-10.9416
ဝိဇ္ဇာ	-10.9417
လာခဲ့	-10.9418
ရှက်	-10.9418
နီးယား	-10.9418
▁ထွက်ပေါ်လာ	-10.9419
အနိုင်ရ	-10.9419
အများပြည်သူပိုင်	-10.942
▁လက်ယာ	-10.9421
▁နာယက	-10.9423
ရက်နေ့တွင်	-10.9423
မျိုးတွင်	-10.9423
▁တကောင်း	-10.9424
ခြင်း၏	-10.9425
▁မြေထဲပင်လယ်	-10.9427
စုဆောင်း	-10.9427
▁အထင်ရှားဆုံး	-10.9427
ပွန်	-10.9429
နံရံ	-10.9429
▁ဟင်	-10.943
▁ဘေးအန္တရာယ်	-10.9431
▁ဓနိ	-10.9432
▁ရသည်။	-10.9433
ဘုန်းတော်ကြီး	-10.9433
စီစဉ်	-10.9435
ထရီ	-10.9436
▁ဘန့်ဘွေးကုန်း	-10.9436
စိမ့်	-10.9437
တည်ဆောက်ရေးအဖွဲ့	-10.9439
နမူနာ	-10.9444
▁အာဏာသိမ်းမှု	-10.9444
ထုတ်လွှင့်	-10.9444
ကုံး	-10.9444
▁အဖြစ်ဖြင့်	-10.9445
▁သန်းကျော်	-10.9447
ပေးနိုင်	-10.9448
ဖြင့်လည်းကောင်း၊	-10.945
၈။	-10.945
▁ရောဂါပိုး	-10.9451
▁အလှူ	-10.9452
တိုက်ဖျက်ရေး	-10.9453
▁၁၉ဝ	-10.9454
မှတ်ပုံတင်	-10.9454
အားလုံး၏	-10.9456
▁ချိုး	-10.9457
တောင်တန်းများ	-10.9459
▁စုံ	-10.9459
ပြင်ဦးလွင်ခရိုင်	-10.946
ယွန်	-10.9462
▁ခရစ်တော်	-10.9467
၁၉၈၉	-10.9468
တရပ်	-10.9469
ဒီဇိုင်း	-10.9469
ရပ်တည်	-10.9469
သီဆို	-10.947
▁ဗီဇာ	-10.947
အစရှိသော	-10.9471
▁ဓလေ့	-10.9474
▁သုည	-10.9474
▁ဖူ	-10.9478
ကြေညာချက်	-10.9479
သတ်မှတ်ချက်	-10.948
▁ထိုအချိန်မှစ၍	-10.9484
▁ဖီဂျီ	-10.9484
စင်ကာပူ	-10.9485
▁ဘုရားလောင်း	-10.9489
▁တဲ	-10.949
ရှူး	-10.9492
မျိုးရိုး	-10.9494
▁မြိုင်	-10.9495
▁အဖျား	-10.9498
▁ဇင်းမယ်	-10.95
▁ကော်ပိုရေးရှင်း	-10.95
▁စေ	-10.9501
▁ပဌမ	-10.9505
▁အဖေ	-10.951
ဖြစ်တယ်လို့	-10.9511
▁ဆင်တူ	-10.9515
စွမ်းရည်	-10.9515
မိတ်	-10.9518
လမ်းမကြီး	-10.9518
▁ပေါင်းတည်	-10.9519
အင်္ဂုတ္တရနိကာယ်	-10.9519
ဖွံ့ဖြိုး	-10.952
နိုင်ပါသည်။	-10.9524
ကားမဲ့အဆိုများပါ	-10.9531
တစ်ရပ်ကို	-10.9531
▁ငှားရမ်း	-10.9532
သတ်မှတ်ခြင်း	-10.9535
▁ငါန်းဇွန်	-10.9535
▁မရမ်း	-10.9536
▁နေထိုင်ရာ	-10.9536
သူဌေး	-10.9538
စီမံခန့်ခွဲမှု	-10.9538
လိုက်သည့်	-10.954
▁ကုန်းမြေ	-10.954
ရိန်း	-10.9541
▁အတ္တလန္တိတ်	-10.9543
▁ထရမ့်	-10.9544
▁ဖြစ်လာသည်	-10.9546
။မြန်မာ	-10.9549
လာကြောင်း	-10.9549
မျိုးမှာ	-10.955
▁ယင်းတို့မှာ	-10.9551
အက်တမ်	-10.9551
သွင်	-10.9552
ပေါ်ပေါက်	-10.9553
သာယာဝတီခရိုင်	-10.9553
လှသဖြင့်	-10.9553
▁သံယုတ္တနိကာယ	-10.9555
ရှေ့နေ	-10.9555
▁အက်ဆစ်	-10.9556
▁ခန	-10.9557
ကသာ	-10.9557
▁မျိုးနွယ်စု	-10.956
မဆိုင်းမတွ	-10.9562
ခဏ	-10.9563
မြို့နယ်အတွင်း	-10.9563
ပဲ့	-10.957
ခရိုင်ရန်ကုန်	-10.9571
နှစ်သက်	-10.9572
▁ကလည်း	-10.9573
ဒန်း	-10.9575
▁ကျယ်ပြန့်သော	-10.9576
▁ကနေဒါနိုင်ငံ	-10.9577
▁ဆပ်	-10.9579
▁အသက်ရှင်	-10.9579
▁အနေ	-10.9581
9	-10.9587
▁အတွင်းပိုင်း	-10.9588
▁တိုင်းမှူး	-10.9591
▁သီပေါမင်း	-10.9592
▁၁၉၂၉	-10.9593
▁ကြောက်ရွံ့	-10.9594
▁လိုင်	-10.9594
ခဲ့သည်။၆	-10.9594
▁တိုက်ပွဲအတွင်း	-10.9595
▁ဒုက္ခသည်	-10.9597
▁ကျယ်ပြန့်စွာ	-10.9597
▁ပြုလုပ်ရန်	-10.9598
▁အဲ့	-10.9598
▁တဖက်	-10.9599
လိန်း	-10.9601
ထောက်ခံ	-10.9603
အရင်းအမြစ်	-10.9604
▁ဘုရားရှင်က	-10.9604
▁လှံ	-10.9605
▁စွန့်	-10.9607
▁အနန္တ	-10.9609
လိုပဲ	-10.9611
▁ပုံပြင်	-10.9611
တပ်ဖွဲ့များ	-10.9612
ထိုက်သော	-10.9612
▁ဆင်နွှဲ	-10.9614
မရှိဘူး	-10.9619
▁သမိုင်းပညာရှင်	-10.9619
▁မွမ်းမံ	-10.962
▁ရပ်ဆိုင်း	-10.9624
▁တိမ်းစောင်းမှု	-10.9626
ပေါ်တူဂီ	-10.9628
▁ပင်းယ	-10.9629
▁ကျန်းမာ	-10.9632
▁နိုဝင်ဘာလတွင်	-10.9635
h	-10.9636
ငံ	-10.9636
▁ချဲ့ထွင်	-10.9636
ရွေ့	-10.9637
▁အကျယ်အဝန်းမှာ	-10.9637
အက်ဖ်	-10.9637
▁၉၂	-10.9637
▁တစ်ပတ်	-10.9639
▁ပွဲတော်	-10.964
စက္ကန့်	-10.964
▁ပါရှိ	-10.964
▁ဓန	-10.9641
▁လက်နက်များ	-10.9641
▁ဗုံးသီး	-10.9642
▁စစ်တပ်ရဲ့	-10.9645
ဇွန်း	-10.9645
အစာ	-10.9646
▁ပတ်သက်	-10.9648
လိုသည့်	-10.9648
▁စစ်ဆေးခြင်း	-10.965
ချောင်ရွာ၊	-10.9651
ကျေးရွာတွင်	-10.9651
▁ဥရောပသမဂ္ဂ	-10.9652
▁ဒဏ်ရာရရှိ	-10.9652
၁၉၉၇	-10.9652
ချောင်းဝ	-10.9652
ရာ၏။	-10.9653
▁နယ်ခြား	-10.9657
▁ခိုး	-10.9657
မွေးဖွားခုနှစ်	-10.9659
ပါနဲ့	-10.966
မန္တလေးတိုင်း	-10.9664
ဦးဆောင်သော	-10.9664
▁ကျဲချ	-10.9666
▁ပြန်ညွှန်း	-10.9669
ဉ္စ	-10.967
ဇန	-10.9671
ခရီးသည်	-10.9673
▁သေးငယ်သော	-10.9674
ပဋိပက္ခ	-10.9674
ထွက်ပြေး	-10.9674
▁လူမှုကွန်ရက်	-10.9675
လက်ထပ်	-10.9677
ခေ	-10.9678
ရေးဆိုင်ရာ	-10.968
▁တရားစီရင်ရေး	-10.9681
အောက်မှာ	-10.9686
▁ထိုးစစ်	-10.9687
▁မြောက်အမေရိက	-10.9688
ရုပ်ပုံ	-10.9688
▁သက်ရှိထင်ရှား	-10.9688
▁အကြမ်းဖက်စစ်တပ်	-10.9689
ကာကွယ်ရေးတပ်	-10.969
ချက်များကို	-10.969
ကဇာတ်	-10.9691
▁ထိုခေတ်က	-10.9691
ပိုဒ်	-10.9691
၅၀၀၀	-10.9691
ဖွံ့ဖြိုးမှု	-10.9692
▁သစ်တောများ	-10.9693
▁သန့်ရှင်း	-10.9695
ခဲ့တာဖြစ်ပါတယ်	-10.9696
▁ရေးထိုး	-10.9698
စေလို	-10.9698
အကျဉ်းသား	-10.97
▁လန်	-10.9701
ဥပ	-10.9702
▁မော်ဒယ်	-10.9703
ဝင်ရိုးစွန်း	-10.9704
▁ထိုခေတ်	-10.9708
▁ရှီ	-10.9712
▁စပိန်နိုင်ငံ	-10.9714
▁လမ်းစဉ်	-10.9716
▁ဒေသများတွင်	-10.9717
မှုန်	-10.9718
▁ခုနှစ်များတွင်	-10.972
▁၀၁	-10.9721
▁အကြမ်း	-10.9722
▁၀၈၅	-10.9722
ဖစ်	-10.9723
▁ဂျပန်တို့	-10.9724
နိုင်သောကြောင့်	-10.9725
▁အတန်း	-10.9727
▁ဖြစ်နိုင်သည်။	-10.9728
ကျွန်းစုမြို့နယ်	-10.9729
▁အုပ်ချုပ်သူ	-10.9733
▁တန်ပြန်	-10.9733
▁လှပ	-10.9734
လွတ်မြောက်	-10.9734
▁ရွှေ့	-10.9737
▁သတ္တုတွင်း	-10.9737
ရေးတပ်မတော်	-10.9739
▁ဝိုင်းဝန်း	-10.9739
တွက်ချက်	-10.9741
▁သယ်ဆောင်	-10.9742
▁ဒဂုန်	-10.9744
3	-10.9746
▁စာရင်းများ	-10.9748
▁မြို့တော်နှင့်	-10.9748
လိတ်	-10.9749
ဥပဒေကို	-10.9749
အသုံးချ	-10.9751
▁လူကြိုက်များ	-10.9752
▁အမည်တွင်	-10.9756
▁ဖြစ်ကာ	-10.9756
▁၂၀၁၁၊	-10.9759
မြက်	-10.9761
မကျီးကုန်းရွာ၊	-10.9761
▁အရှင်မင်းကြီး	-10.9762
တွေအပေါ်	-10.9762
▁အမှတ်စဉ်	-10.9764
ကိုလိုက်၍	-10.9764
ဆက်ဆံ	-10.9764
▁ဇန်နဝါရီလတွင်	-10.9767
▁ဒဿန	-10.9768
ဟုခေါ်	-10.9768
ကြီးမှာ	-10.9768
အော	-10.9769
▁၆၇	-10.9771
ဖိတ်	-10.9774
▁မြို့စား	-10.9775
▁လူမျိုးရေး	-10.9776
အာကာသ	-10.9776
▁ဝပ်	-10.9776
စတန်	-10.9779
▁ကြေးနန်း	-10.9781
ခေါင်လန်ဖူး	-10.9783
▁ထိခိုက်ပျက်စီး	-10.9784
▁နောင်ချိုမြို့	-10.9788
▁ချီးမွမ်း	-10.9788
▁ပြာ	-10.9789
▁ဦးနေထိုင်သည်။	-10.979
▁ထိုအကြောင်းကို	-10.9791
▁စစ်ကြောင်းကို	-10.9792
တစ်ခုမှ	-10.9792
▁လွယ်ကူစွာ	-10.9794
တို့ကလည်း	-10.9795
ဌာနများ	-10.9795
ထားခြင်းဖြစ်သည်။	-10.9798
တစ်ပုဒ်	-10.98
နယ်ခရိုင်စစ်တွေ	-10.98
အဋ္ဌကထာ	-10.9803
ချမ်းသာခွင့်	-10.9805
တယ်ဆိုပြီး	-10.9805
▁နယ်သာလန်နိုင်ငံ	-10.9806
ဆိုဗီယက်	-10.9807
▁ထိုမှ	-10.9807
▁အတင်း	-10.9808
သတင်းဌာနသို့	-10.9809
▁နာမ	-10.981
ယန္တရား	-10.981
၁၀၉	-10.9811
တယ်လီဖုန်းကုဒ်	-10.9817
▁ထမ်း	-10.9819
ငါ့	-10.9821
ခဲ့ဘူး	-10.9824
▁မှူးမတ်	-10.9825
▁ဂဠုန်	-10.9826
▁သရက်ချောင်း	-10.9829
▁လွတ်လပ်ရေးရ	-10.983
မှုများနှင့်	-10.9831
မေးမြန်း	-10.9833
▁အငြင်းပွား	-10.9833
▁စတု	-10.9837
လမ်းစဉ်ပါတီ	-10.9838
▁သဲကုန်းမြို့နယ်	-10.9838
ယူပြီး	-10.9839
▁အဓိကထား	-10.984
▁ကွန်မြူနစ်ပါတီ	-10.9842
▁ကိုယ်ဝန်	-10.9842
▁ထုတ်ပြန်ခဲ့သည်။	-10.9842
▁နက္ခတ္တဗေဒ	-10.9844
▁၁၉၂၇	-10.9845
▁ဒယ်	-10.9847
▁လော့	-10.9847
▁ဖန်ဆင်း	-10.9848
တွ	-10.985
ွာ	-10.9852
ပြင်းထန်	-10.9854
မှုတွင်	-10.9854
နမူနာပုံငယ်	-10.9854
အဝင်	-10.9855
ဆုကို	-10.9855
▁မဖြစ်မနေ	-10.9859
တော်၌	-10.9859
စသည်တို့ကို	-10.9859
▁၁၉၁၅	-10.9861
စေကာမူ	-10.9862
▁ဖော်ဆောင်	-10.9862
နောက်ထပ်	-10.9865
နှင့်သက်ဆိုင်သော	-10.9868
မြောင်း	-10.9869
သစ်တော	-10.9872
▁ရံဖန်ရံခါ	-10.9873
ပလောင်	-10.9873
▁ဆိုသူ	-10.9873
▁ဖော်ပြခဲ့သည်။	-10.9877
စကီး	-10.9878
▁တောင်တန်းများ	-10.9878
▁ပြဿနာများ	-10.9879
▁ကုန်ပစ္စည်း	-10.988
▁ရဲစခန်း	-10.988
▁အဲဒါ	-10.988
u	-10.9882
စစ်တက္ကသိုလ်	-10.9884
တာချီလိတ်ခရိုင်	-10.9885
မြန်မာနိုင်ငံဘ	-10.9886
▁မြေး	-10.9888
▁ခမိ	-10.9888
▁ယုန်	-10.9889
▁ဉာဏ်ပညာ	-10.9892
စက်တင်ဘာလ	-10.9893
▁မွေးဖွားသည်။	-10.9894
ပြည်ထောင်စုတွင်	-10.9894
▁ဖူး	-10.9894
၊တာချီလိတ်ခရိုင်	-10.9896
သမ္မတမြန်မာ	-10.9896
▁အသက်ရှူ	-10.9899
ဆီက	-10.9899
များကိုပါ	-10.9899
▁အခွံ	-10.99
ချုံ	-10.99
တစ်ချောင်း	-10.99
ကျကျ	-10.9902
ရလျှင်	-10.9902
▁ညီညွတ်	-10.9908
▁မိုင်ခန့်	-10.9908
လူမှုရေး	-10.9909
မျက်စိ	-10.9911
▁ရေစကြိုမြို့နယ်	-10.9912
ပလ္လင်	-10.9912
▁လူသားများ	-10.9912
▁ဇူလိုင်လတွင်	-10.9915
▁ကျင်းပခဲ့သည်။	-10.9917
လေးစား	-10.992
ဆွမ်း	-10.9921
ကာတွန်း	-10.9921
ရွှင်	-10.9921
ရက်တွင်	-10.9923
▁အုတ်တွင်း	-10.9923
အမည်များ	-10.9923
ဟိုင်	-10.9924
ရိုင်	-10.9924
ဘွဲ့ကို	-10.9926
▁ပစ်ခတ်မှု	-10.9928
ခရိုင်ဖျာပုံ	-10.9929
့စွယ်စုံကျမ်းကို	-10.9929
သက်ရောက်	-10.9929
▁အရေးတော်ပုံ	-10.9931
မပါဘဲ	-10.9933
ဆွမ်ပရာဘွမ်	-10.9936
သမ္မတနိုင်ငံ၏	-10.9937
▁ဆီဆိုင်မြို့နယ်	-10.9939
သူများနှင့်	-10.9939
▁ကွဲပြားမှုမ	-10.9942
▁အထူးပြု	-10.9942
▁ဦးထက်မနည်း	-10.9946
▁အဝင်	-10.9947
တစ်ဦးဖြစ်သည်။	-10.9948
မြန်မာ့သမိုင်း	-10.9949
မျိုးသည်	-10.9949
သည့်ပြင်	-10.9949
မှစတင်၍	-10.9949
▁ဟူသည့်	-10.9949
ဆန့်	-10.9951
▁ကဝမြို့နယ်	-10.9951
▁ဆန့်ကျင်ရေး	-10.9952
▁သူပုန်	-10.9954
မြို့ဖြစ်သည်	-10.9956
စစ်သည်	-10.9957
▁ထွက်ပေါ်	-10.9957
၊ကျိုင်းတုံ	-10.996
▁ဟိ	-10.9962
▁ဝီရိယ	-10.9962
သူကြီး	-10.9962
▁ဘုရားကြီး	-10.9963
အရပ်တွင်	-10.9963
▁တယောက်	-10.9964
လုပ်ထုံးလုပ်နည်း	-10.9964
▁ငွေကျပ်	-10.9967
ပေးကာ	-10.9969
လာကြသည်	-10.9969
▁တု	-10.9969
▁စစ်သားများ	-10.9974
မဟုတ်သည့်	-10.9976
အစ်	-10.998
▁ကယ်	-10.9981
▁ယုံ	-10.9983
▁လစ်	-10.9984
▁ရသ	-10.9984
ကနေဒါ	-10.9985
ယူကာ	-10.9986
▁ဓလေ့ထုံးစံ	-10.9987
▁ဂြိုဟ်ရံလ	-10.9988
မလေးရှား	-10.999
အသုံးပြုမှု	-10.9993
သူဖြစ်သည်။	-10.9994
▁ဟောတော်မူ	-10.9995
▁သန့်စင်	-10.9996
ကျေးရွာကို	-10.9997
▁စစ်ဖက်ဆိုင်ရာ	-11
တို့ဖြစ်သည်	-11.0002
ဂေ	-11.0005
▁အယူ	-11.0006
▁လေ့ကျင့်ရေး	-11.0007
▁မှတ်တမ်းတင်ထား	-11.001
ခရိုင်တွင်	-11.0016
▁ပြင်ဆင်ဖွဲ့စည်း	-11.0017
လွန်လေပြီးသောအခါ	-11.0022
အစုံ	-11.0022
▁ရေငုပ်သင်္ဘော	-11.0022
▁ရှိတယ်	-11.0023
ထော	-11.0027
▁၉၇	-11.0027
ခန်းမ	-11.0028
ရုံး၊	-11.0029
▁ပုလဲမြို့နယ်	-11.003
▁မြန်မာပြန်	-11.0031
တစ်ယောက်က	-11.0031
▁မြို့ပေါ်	-11.0034
▁ကောင်းမွန်စွာ	-11.0035
▁ဒြပ်စင်	-11.0037
▁ဝေး	-11.0037
▁တုံ	-11.0039
▁အတူတူ	-11.0039
▁စလင်း	-11.004
▁ယူနီကုဒ်	-11.0043
ွပ်	-11.0044
မက်မန်းခရိုင်၊	-11.0046
▁စစ်မြေပြင်	-11.0048
▁ထိုသူ	-11.0053
▁ပင်စည်	-11.0053
မြစ်သည်	-11.0054
▁၇၄	-11.0055
▁လူသားချင်းစာနာ	-11.0055
ဆိပ်ရွာ၊	-11.0058
▁စတင်ဖွင့်လှစ်	-11.0059
▁ထူးချွန်	-11.0059
နှင့်တူသော	-11.006
လက်ရှိစာတွဲများ	-11.0061
▁ဟင်္သာတ	-11.0062
ပြီလို့	-11.0062
ေး	-11.0062
ယှဉ်	-11.0064
၁၁၁	-11.0064
ယုန်	-11.0065
▁ပြက္ခဒိန်	-11.0066
▁တွေ့ရှိရ	-11.0066
လေ့ကျင့်ရေး	-11.0068
▁ပဲခူးမြို့နယ်	-11.0068
▁မြန်မာ့သမိုင်း	-11.0069
တွာ	-11.0072
▁အတွင်းသို့	-11.0073
ထားကြသည်။	-11.0073
▁ရေချို	-11.0074
▁အမေရိက	-11.0075
ကျဉ်း	-11.0075
▁အသျှင်ဘုရား	-11.0078
ံး	-11.0081
▁၉၁	-11.0084
အနား	-11.0085
▁ဒူး	-11.0087
▁၈၆	-11.0087
▁တစ်နည်း	-11.0091
▁စစ်ဌာနချုပ်	-11.0092
မြို့ပေါ်	-11.0092
နို့	-11.0092
▁အသုံးဝင်	-11.0093
တယ်ဆိုတဲ့	-11.0093
ပိုင်ဆိုင်	-11.0096
ဂျူး	-11.0097
▁တတိယအကြိမ်	-11.0098
ဇယ်	-11.0098
ခံစားရ	-11.01
▁အသိပညာ	-11.0101
▁အသိုင်းအဝိုင်း	-11.0103
ကောင်းစွာ	-11.0108
လိင်	-11.011
▁တောင်ဘက်သို့	-11.011
▁သရေခေတ္တရာ	-11.0111
သွားသောအခါ	-11.0112
ra	-11.0113
▁အသုံးပြုကြသည်	-11.0116
ကစလို့	-11.0117
▁အထောက်အထားများ	-11.0118
ကျို	-11.0119
၂၀၆	-11.0119
ဝတ်စုံ	-11.0119
၁၉၉၃	-11.0121
▁ပြန်လည်ပြင်ဆင်	-11.0124
▁ကင်ဆာ	-11.0124
အုပ်စိုး	-11.0125
ကိုးကားထားသည့်	-11.0126
ထားလေသည်။	-11.0127
▁ကောက်ခံ	-11.0128
▁သူရိယ	-11.0131
▁မဂ်	-11.0131
အလှ	-11.0132
▁တစ်နေ့သ၌	-11.0132
အစီရင်ခံစာ	-11.0133
▁၆၁	-11.0134
▁ငှက်ပျော	-11.0134
▁အပြာရောင်	-11.0134
▁လမ်းလျှောက်	-11.0135
လျက်ရှိပြီး	-11.0136
လိုက်လေသည်။	-11.0137
▁လွမ်း	-11.0138
▁မိုင်းယန်း	-11.0139
များကလည်း	-11.0139
အရေးပါ	-11.0142
သွားရန်	-11.0142
၁၉၈၀	-11.0142
▁အိန္ဒိယပြည်	-11.0143
▁မရှိသော	-11.0144
ခဲ့ဖူးသည်။	-11.0145
လျှော်	-11.0147
▁ရှက်	-11.0147
▁ကဗျာများ	-11.0148
▁ရွေးချယ်စရာများ	-11.0149
▁ဒိုင်မန်းရှင်း	-11.0151
▁တည်ထောင်သူ	-11.0152
▁အရင်း	-11.0152
▁အုပ်စုများ	-11.0153
▁ဗျ	-11.0153
▁မှား	-11.0154
▁မိုဟာမက်	-11.0155
▁ပို့ဆောင်ရေး	-11.0159
သာရွာ၊	-11.016
▁သပိတ်ကျင်း	-11.016
အာဆီယံ	-11.016
▁စူဠ	-11.0162
▁ချစ်ခင်	-11.0169
▁စနစ်ကို	-11.0169
▁ဝါကျ	-11.017
▁စနစ်များ	-11.0171
▁မော်စကို	-11.0172
▁ယင်	-11.0173
ဟစ်	-11.0173
▁အစောပိုင်းတွင်	-11.0173
ရပ်ကွက်၊	-11.0175
နောက်ပြန်	-11.0178
မရှိ၊	-11.018
▁ဆိုး	-11.018
အုတ်	-11.0181
လာခဲ့ပြီး	-11.0183
▁အမ်း	-11.0184
▁ပိုင်ဆိုင်မှု	-11.0184
▁ညောင်လေးပင်	-11.0185
▁ဖြတ်ကျော်	-11.0185
ဆွ	-11.0186
▁သံသရာ	-11.0187
▁ဟိဂရှိ	-11.0188
▁ဂေါ်	-11.0189
▁သဒ္ဓါ	-11.0191
▁ဖီ	-11.0192
စစ်သား	-11.0192
▁မြို့သစ်	-11.0193
▁သုတ	-11.0194
▁မော်ဂျူး	-11.0195
ကျင်းရွာ၊	-11.0196
▁ရွှေဘိုမြို့နယ်	-11.0198
အတွေ့အကြုံ	-11.0198
▁သတိထား	-11.02
▁အနိစ္စ	-11.02
▁ဘရာဇီး	-11.0206
▁ကြွေ	-11.0206
တစ်ဝက်	-11.0207
အီဂျစ်	-11.0207
ခရီးသွား	-11.0209
ံ။	-11.0209
▁သူငယ်	-11.021
▁ကွယ်လွန်ချိန်	-11.0211
တစ်မျိုးကို	-11.0212
▁စိုးစံ	-11.0213
▁တိဗက်	-11.0213
ပျော်ဘွယ်	-11.0214
ဖောင်ဒေးရှင်း	-11.0214
▁လက်ဖြင့်	-11.0216
ဖြစ်ခဲ့ပြီး	-11.0217
များပြား	-11.0217
မှုဆိုင်ရာ	-11.0218
▁ဘန်း	-11.0218
▁နောက်တွင်	-11.0222
မ့်	-11.0224
▁နှစ်တွင်	-11.0226
ချဲ့	-11.0228
ကုမ္ပဏီများ	-11.023
▁သူတစ်ပါး	-11.0231
၁၉၉၁	-11.0231
ညီညွတ်ရေး	-11.0234
ကျေးဇူး	-11.0235
▁မုတ္တမ	-11.0236
▁အတွင်း၌	-11.0236
▁ခုန်	-11.024
▁ဆွီဒင်	-11.0241
သူတို့သည်	-11.0241
ပြီးသား	-11.0242
▁၂၀ဝ	-11.0244
တော့မည်	-11.0244
▁ရက်နေ့မှာ	-11.0245
▁ဒိဋ္ဌိ	-11.0248
မထေရ်	-11.0248
ထွာ	-11.0251
▁မိသားစုဝင်	-11.0251
မူ၊	-11.0254
လူမျိုးစုများ	-11.0258
ဆွစ်ဇာလန်နိုင်ငံ	-11.0259
တိုးချဲ့	-11.0261
ရွဲ	-11.0264
▁ပိုလန်	-11.0266
သည်။၄	-11.0266
▁ဟေ	-11.0267
▁နောက်မှ	-11.0267
လှန်	-11.0268
အခြေ	-11.0269
▁သစ်ပင်များ	-11.0271
▁ရေကန်များ	-11.0271
▁ဒေးဗစ်	-11.0272
▁ရာဇာဓိရာဇ်	-11.0273
▁မှားယွင်း	-11.0274
▁မိုင်ပေါင်း	-11.0275
▁သယ်ယူ	-11.0276
▁ကုန်စည်	-11.0276
▁သုံးနှစ်	-11.0278
▁သူနာပြု	-11.0279
လာသည်ကို	-11.0282
လှဲ	-11.0282
▁လိုအပ်ချက်	-11.0283
တော့ဘူး	-11.0286
▁မက္က	-11.0286
အစောပိုင်း	-11.0287
စေတတ်သော	-11.0287
▁နှမ်း	-11.0289
ဆောင်းပါးကောင်း	-11.029
▁စာရင်းအရ	-11.0291
▁တွက်	-11.0291
▁ဟိုပုံးမြို့နယ်	-11.0291
▁ဖာပွန်မြို့နယ်	-11.0292
လက်ထောက်	-11.0292
▁ဘိုးတော်ဘုရား	-11.0293
▁၁၀၁	-11.0295
▁၄ပါး	-11.0297
▁စာဖတ်	-11.0299
▁အိမ်ရှေ့မင်း	-11.03
▁ပြောင်းလဲသွား	-11.0301
ပြင်းပြင်းထန်ထန်	-11.0302
မှို	-11.0303
အပ်နှင်း	-11.0304
▁အကြားတွင်	-11.0307
▁အနက်ရောင်	-11.0307
▁ရှည်လျားသော	-11.0309
▁ပတ်သက်လို့	-11.0309
ဂေါ်	-11.0309
▁အနောက်တောင်	-11.0309
▁ဟုခေါ်သည်။	-11.0311
အင်္ဂလိပ်ဘာသာ	-11.0311
▁အလင်းဝင်ရောက်လာ	-11.0311
▁ပူးပေါင်း၍	-11.0312
လာစေရန်	-11.0315
ခြင်း။	-11.0315
▁ကုန်ကျစရိတ်	-11.0315
▁ဝမ်းတွင်း	-11.0318
အိုလံပစ်	-11.032
ဗေး	-11.032
▁သုံးနှုန်း	-11.0321
▁စပြီး	-11.0323
▁အက်စ်	-11.0325
ကျော်ထင်	-11.0326
အခမ်းအနား	-11.0329
တုန်	-11.033
ဝန်ကြီးဌာန၏	-11.0331
▁ဈ	-11.0332
▁မကောင်းမှု	-11.0337
သမာဓိ	-11.0342
▁ပေါက်ခေါင်း	-11.0343
▁သေဒဏ်	-11.0344
▁ရှင်းပြပါတယ်	-11.0344
သွားမည်	-11.0345
▁အမွေ	-11.0345
▁မပါ	-11.0347
▁ဒို	-11.0348
▁သျှင်	-11.0349
။၅	-11.0349
စည်းကမ်း	-11.035
ဖြစ်၍၊	-11.0352
▁ပျံ	-11.0352
သံယုတ္တနိကာယ်	-11.0352
အတိုင်းအတာ	-11.0353
▁နော်	-11.0356
▁ခရစ်ယာန်ဘာသာ	-11.0357
တဲ့သူ	-11.0359
▁ကလေးသူငယ်များ	-11.036
▁ပုံနှိပ်ထုတ်ဝေ	-11.0362
▁ကမ်းလှမ်း	-11.0362
▁နောက်ပြီး	-11.0363
အချက်များ	-11.0363
သံယုတ္တ	-11.0364
အတိုကောက်	-11.0365
တစ်ဖက်	-11.0367
အခြေအနေကို	-11.0367
ရန်ကုန်မြို့ရှိ	-11.0372
▁ထိန်း	-11.0372
ခံရတဲ့	-11.0373
၂၀၀၂	-11.0375
▁မူး	-11.0375
ကျော့	-11.0375
အမျိုးမျိုးကို	-11.0375
▁အသိဉာဏ်	-11.0379
တာဖြစ်ပါတယ်	-11.0381
▁စိတ်ကို	-11.0381
▁ပြဆို	-11.0382
▁ညီအစ်ကို	-11.0383
▁၂၀၂၂ခုနှစ်	-11.0384
▁စားပွဲ	-11.0389
ထောင့်ဖြတ်	-11.0392
▁ဒဂုံ	-11.0392
▁နိုင်ငံကို	-11.0392
▁ဟောကြားတော်မူ	-11.0394
လောကတွင်	-11.0394
▁ပင်လယ်ပြင်	-11.0394
အစစ်	-11.0397
အခြေချ	-11.04
▁စိုးမိုး	-11.04
▁ဒေတာ	-11.04
▁စျေး	-11.0401
နာယက	-11.0401
▁အဖြစ်အပျက်	-11.0401
၁၉၅၈	-11.0402
မဟုတ်၊	-11.0402
စတီ	-11.0402
မှတ်တမ်းများ	-11.0407
ခီ	-11.0408
▁ရေးသားထားသော	-11.0408
ိတ်	-11.041
▁တစ်ဦးချင်း	-11.041
▁ပစ်ဇယ်	-11.0411
▁ဇော်ဂျီ	-11.0411
▁ပြုလုပ်ထားသော	-11.0411
အတတ်ပညာ	-11.0413
ရမည်းသင်း	-11.0414
▁မင်းကွန်း	-11.0416
ကျိုးပျက်နေသော	-11.0418
▁ပဋိသန္ဓေ	-11.0418
▁ရေနွေးငွေ့	-11.0419
▁အင်အားကြီး	-11.0419
▁ဂေါ	-11.0421
▁ကမ္ဘာမြေ	-11.0426
ည်နယ်ကချင်ခရိုင်	-11.0426
ရှိလျှင်	-11.0427
ချထား	-11.0427
▁ခွဲဝေ	-11.0429
▁ဖွဲ့စည်းထားသည်။	-11.0435
ရွာ၌	-11.0436
▁အလယ်ခေတ်	-11.0438
▁ဗြိတိန်နိုင်ငံ	-11.044
▁သင်တို့	-11.0441
ပြန်သည်	-11.0441
စာရင်းအင်း	-11.0442
လူမျိုးမြန်မာ	-11.0446
ဟွန်း	-11.0448
ချိုင်	-11.045
▁နေအိမ်များ	-11.045
▁ပြန်လည်ထူထောင်	-11.045
▁ဗုဒ္ဓဘာသာဝင်	-11.045
▁မလှိုင်မြို့နယ်	-11.045
နဲ့ချီ	-11.0452
ပုံနှင့်	-11.0453
ဆရာဝန်	-11.0455
▁သနား	-11.0455
သေးတယ်	-11.0458
မာလာ	-11.0459
သောအားဖြင့်	-11.0459
စေပြီးလျှင်	-11.0459
နေရာ၌	-11.046
▁ဘယ်သူ	-11.0461
ရခြင်းမှာ	-11.0461
▁အရွယ်ရောက်	-11.0465
တစ်ဆူ	-11.0465
မ်းပလိတ်တွင်းရှိ	-11.0467
တစ်မျိုးဖြစ်သည်။	-11.0467
ခ်များပြင်ဆင်ရန်	-11.0467
ဒွန်	-11.0469
▁အီလက်ထရွန်	-11.0471
မြို့မ	-11.0472
▁သံဃာတော်	-11.0473
▁ချောက်	-11.0473
▁မသိရှိရသူများ	-11.0476
တိရစ္ဆာန်များ	-11.0477
▁ဝင်လာ	-11.0477
▁အောက်မေ့	-11.0479
ငွေ့	-11.048
ချီတက်	-11.048
▁မုန်း	-11.0481
▁ဟင်းသီးဟင်းရွက်	-11.0484
မပေး	-11.0485
၊မိုင်းပျဉ်း	-11.0485
▁အချိုး	-11.0486
▁၅၀၀၀	-11.0489
မပြု	-11.049
▁ထို့	-11.049
▁အေဂျင်စီ	-11.0492
လှုပ်	-11.0492
လန့်	-11.0495
▁အရိပ်	-11.0496
▁သွင်း	-11.0496
▁ဆံ	-11.0497
▁၉။	-11.0497
သီးသန့်	-11.0498
မှသာလျှင်	-11.0499
▁ဖယ်	-11.0501
ှတ်တမ်းအရေးမကြီး	-11.0502
လာရာ	-11.0503
▁ဖြစ်ပေါ်လာသော	-11.0504
အိမ်စောင့်အစိုးရ	-11.0507
▁ဆေးတက္ကသိုလ်	-11.0508
ရွ	-11.0508
ပျူ	-11.0508
▁တယ်	-11.0509
မထွက်	-11.0509
ခံရသည့်	-11.051
ဂျီး	-11.051
▁၁၁၂	-11.0511
▁အသည်း	-11.0511
▁ဘူတာရုံများ	-11.0512
သေးဘူး	-11.0514
ဖက်မှ	-11.0516
▁တစ်ခုနှင့်တစ်ခု	-11.0516
တွယ်	-11.0517
စနစ်များ	-11.0518
မှိုင်း	-11.0518
သိဒ္ဓိ	-11.0519
▁တရုတ်ရဲ့	-11.0521
▁ဆိုက်	-11.0522
ခြင်းခံရသော	-11.0525
▁ကယ်ဆယ်ရေး	-11.0527
ပုံး	-11.0529
တတ်သူ	-11.053
နှစ်အရွယ်	-11.053
▁ကျွန်းဆွယ်	-11.053
ဖောင်း	-11.0531
▁ဒင်္ဂါး	-11.0531
အချို့က	-11.0531
▁အသုံးပြုပြီး	-11.0533
ပြုလုပ်ခြင်း	-11.0534
၁၉၄၉	-11.0536
▁မြတ်စွာဘုရားအား	-11.0536
လူမျိုးများသည်	-11.0537
ပြခန်း	-11.0539
ရှိသဖြင့်	-11.0541
▁ကဗျာဆရာ	-11.0544
▁သူရ	-11.0546
▁မော်တော်ကားလမ်း	-11.0547
▁တာဝန်ပေး	-11.0547
▁သတိရ	-11.0549
▁ခြင်	-11.0549
လောက်တွင်	-11.055
▁မွတ်ဆလင်	-11.055
မြို့နယ်တရားရုံး	-11.055
▁နေရောင်ခြည်	-11.0552
▁ဒေသန္တရ	-11.0554
▁အသုံးပြုခဲ့သည်။	-11.0555
▁မတိုင်မီ	-11.0557
▁အိ	-11.0557
▁မြစ်ဝကျွန်းပေါ်	-11.0558
မာန	-11.0558
▁ကလောမြို့နယ်	-11.0558
အတွက်လည်း	-11.0562
တော်မူခြင်း	-11.0566
▁သတင်းဌာန	-11.0569
မည်ဆိုပါက	-11.0569
အသီး	-11.0569
စာကို	-11.0571
▁နေထိုင်သူ	-11.0574
▁စစ်ကောင်စီဘက်က	-11.0575
▁ယူနိုက်တက်	-11.0577
လွိုင်ကော်	-11.0581
▁ပါဠိတော်	-11.0583
တွေအနေနဲ့	-11.0583
▁စစ်တပ်နှင့်	-11.0588
▁တရားမျှတမှု	-11.0588
ပုံနှိပ်လုပ်ငန်း	-11.059
▁မဟုတ်ပါ	-11.0596
▁တရုတ်လူမျိုး	-11.0597
မြစ်ဝှမ်း	-11.0598
ပေးသည်	-11.0598
▁တရုတ်ဘာသာစကား	-11.0598
နိုင်ငံများ၏	-11.0598
ပါမောက္ခချုပ်	-11.0599
လာကာ	-11.0599
▁ဆက်သ	-11.0602
တဲ့အကြောင်း	-11.0604
ကိုလိုနီ	-11.0604
▁နားထောင်	-11.0605
▁အစုအပြုံလိုက်	-11.0605
▁ဖဲ	-11.0605
▁လန်ဒန်မြို့	-11.0607
▁ဖြန့်ဝေ	-11.0607
အင်းတော်မြို့နယ်	-11.0608
ဆောင်ရွက်ခြင်း	-11.0609
နိုင်၍	-11.0612
▁အဓိပ္ပာယ်မှာ	-11.0613
▁ဝါရှင်တန်	-11.0616
အဆင့်အတန်း	-11.0617
▁ဆရာစံ	-11.0617
▁ထုလုပ်	-11.0617
ထားရန်	-11.0618
▁ဗိုင်းရပ်စ်	-11.0618
▁သမိုင်းတွင်	-11.0618
▁လိုအပ်သည်။	-11.0618
။၁၁	-11.0621
လိုက်လျှင်	-11.0621
အကြိမ်	-11.0623
ခြင်းမရှိ	-11.0625
ွိုင်း	-11.0625
နှစ်လုံး	-11.0627
▁မြန်မာနယ်စပ်	-11.063
မြတ်စွာဘုရား၏	-11.0632
မိန့်	-11.0633
ကြံစည်	-11.0635
▁အဝတ်အစား	-11.0638
အလျောက်	-11.0638
▁တပ်မတော်မှ	-11.0638
▁မြို့နယ်အတွင်း	-11.0639
လုလင်	-11.064
▁ဖြစ်တယ်လို့	-11.064
ဖြင့်လည်းကောင်း	-11.064
▁စွန်	-11.0642
▁နှစ်ကြာ	-11.0643
အဆောက်အအုံများ	-11.0645
ပြည်နယ်များ	-11.0645
ကေး	-11.0645
ဝန်ကြီးဌာန၊	-11.0646
အရည်အသွေး	-11.0647
▁အလယ်တန်းကျောင်း	-11.0649
▁မင်းကြီးလည်း	-11.0651
ယှက်	-11.0653
▁သာယာဝတီ	-11.0653
ခွင့်ကို	-11.0655
▁ချက်ပြုတ်	-11.0657
အိပ်မက်	-11.0658
ဒမ်း	-11.0659
▁မြို့ဟောင်း	-11.066
၆၀၀	-11.0661
ဆောင်ရွက်မှုများ	-11.0661
▁၁၉၃၃	-11.0663
▁တောက်လျှောက်	-11.0664
တဲ့သူတွေ	-11.0664
▁အထက်ပိုင်း	-11.0668
▁မမြင်	-11.0669
▁ပကတိ	-11.067
အမိန့်ကြော်ငြာစာ	-11.067
ပါလ	-11.0672
▁လည်ပင်း	-11.0673
▁အာဂျင်တီးနား	-11.0673
ခဲ့ပါဘူး	-11.0678
ရှုံး	-11.0679
▁ဖွံ့ဖြိုးမှု	-11.068
အသိ	-11.0681
ဝကျေးရွာအုပ်စု	-11.0681
မြို့မှာ	-11.0684
ဒိဋ္ဌိ	-11.0685
ပြက္ခဒိန်	-11.0685
ဏီ	-11.0685
ပိန်း	-11.0686
လွတ်လပ်စွာ	-11.0687
▁အကယ်ဒမီ	-11.0689
▁၉၄	-11.069
အံ့၊	-11.069
▁သုံးခု	-11.0692
▁စည်ပင်	-11.0695
ဗမာပြည်	-11.0699
နှစ်ခုကို	-11.07
။၆	-11.0701
တခုခု	-11.0701
လေသည်။၁	-11.0703
နံ့	-11.0705
အမြောက်အမြား	-11.0706
အပူ	-11.0706
▁အောက်ပိုင်း	-11.071
▁တောင်းခံ	-11.0711
▁ပင်လည်ဘူး	-11.0712
ဆောင်းပါးတစ်ပုဒ်	-11.0714
သန့်စင်	-11.0716
▁အဆက်မပြတ်	-11.0717
▁ဂျာနယ်	-11.0718
▁ဘုရင်မ	-11.0718
▁အခြေအနေများ	-11.0721
▁သုံးသပ်ပါတယ်	-11.0722
သက်သေ	-11.0724
၀၈	-11.0725
သဘောထား	-11.0725
▁တော်တော်	-11.0726
▁လွှဲပြောင်းပေး	-11.0727
▁စစ်သင်္ဘော	-11.0731
▁၁၉၁၆	-11.0731
▁၈၄	-11.0731
ဘီလီယံ	-11.0732
ဂါးရွာ၊	-11.0733
လုတ်	-11.0733
ယိမ်း	-11.0733
▁ဘာဝနာ	-11.0734
▁ဂျာ	-11.0737
▁မြန်မာ့တပ်မတော်	-11.0741
▁ဖြစ်ခဲ့သည်	-11.0741
ဂျို	-11.0741
▁လက်မှတ်ထိုး	-11.0742
အလေးချိန်	-11.0743
တည်ထောင်သူ	-11.0743
စန္ဒ	-11.0743
လာသည်နှင့်အမျှ	-11.0744
▁ဥတ္တရ	-11.0747
ရွှေဘိုမြို့နယ်	-11.0747
▁နှစ်နှစ်	-11.0749
အင်္ဂလန်နိုင်ငံ	-11.0753
ဏ္ဍ	-11.0753
▁အငြိမ့်	-11.0754
ကြွက်	-11.0755
▁ခွန်	-11.0757
▁တွန်းလှန်	-11.0759
ကိုးကန့်	-11.0759
လည်းဖြစ်	-11.0761
တိုးချဲ့ရန်	-11.0762
ညှာ	-11.0762
မြန်မာစာ	-11.0763
▁တီးမှုတ်	-11.0767
လိုကြောင်း	-11.0767
များဟု	-11.0768
▁ထောက်လှမ်းရေး	-11.0769
▁ဘူတာရုံ	-11.077
ခွါ	-11.0771
ရှီး	-11.0772
ပေါများ	-11.0772
▁ဆောင်ရွက်ခြင်း	-11.0772
ရွေးကောက်ပွဲများ	-11.0773
▁အခြားကြည့်ရန်။	-11.0774
▁တင့်တယ်	-11.0775
▁ကင်းထောက်	-11.0776
▁သင့်လျော်	-11.0776
မှုတွေကို	-11.0777
▁ပိုမို၍	-11.0778
တက္ကသိုလ်များ	-11.0779
အတွင်းက	-11.078
▁မဆို	-11.0783
▁ပူးပေါင်းကာ	-11.0784
▁နယူးဇီလန်	-11.0785
▁တိုက်နယ်ဆေးရုံ	-11.0785
▁အိမ်ရှင်	-11.0788
▁မုံရွာမြို့	-11.0788
▁တိုက်ပွဲဝင်	-11.079
သဘောကို	-11.0793
ဝတ်ဆင်	-11.0795
▁ပခုက္ကူမြို့နယ်	-11.0795
▁နောက်ပြန်	-11.0796
စာမေးပွဲ	-11.0797
ထိုင်းနိုင်ငံ၏	-11.0798
▁အများက	-11.0798
အဆိုပါ	-11.08
ပြုလုပ်ရန်	-11.08
ကရင်အမျိုးသား	-11.0803
မကွေးတိုင်း	-11.0803
▁အကာအကွယ်	-11.0805
မင်းလက်ထက်	-11.0806
တို့ကဲ့သို့	-11.0806
▁ကျော်စွာ	-11.0807
တပ်ဖွဲ့များက	-11.0811
▁အမက	-11.0812
▁ကလ	-11.0814
ဂျင်း	-11.0815
▁သီဟသူ	-11.0815
▁သင်္ဂြိုဟ်	-11.0816
▁အဆွေခင်ပွန်း	-11.0816
ဇတ်	-11.0817
▁စုံစမ်းစစ်ဆေး	-11.0817
မှတ်သား	-11.0817
▁ကွယ်လွန်ခဲ့သည်။	-11.0818
▁၁၉၁၀	-11.082
▁ကျေးဇူးပြု	-11.082
အော့	-11.0821
အတွေးအခေါ်	-11.0824
နေရာများတွင်	-11.0826
▁မတွေ့ရ	-11.0831
▁တစ်ရပ်	-11.0831
စစ်ကိုင်းတိုင်း	-11.0832
▁အမှန်စင်စစ်	-11.0835
သည	-11.0835
▁ရှိကြောင်း	-11.0836
▁ဂျော်ဂျီယာ	-11.0836
နေထိုင်ကြသည်။	-11.0837
ဝါဒကို	-11.0838
▁ဖားကန့်မြို့နယ်	-11.084
▁သမ္မတအဖြစ်	-11.0842
တာကတော့	-11.0842
အရှေ့ရွာ၊	-11.0843
ဟူသည်မှာ	-11.0845
▁အနီးတွင်	-11.0846
▁ဘုတလင်မြို့နယ်	-11.0848
ဝက်လက်မြို့နယ်	-11.0849
တော်များ	-11.085
ကြီးနှင့်	-11.085
▁မိစ္ဆာ	-11.0854
▁အရေးပေါ်အခြေအနေ	-11.0855
▁ပုသိမ်မြို့	-11.0855
▁ပြည့်နှစ်၊	-11.0855
▁သားငယ်	-11.0856
▁လှုံ့ဆော်	-11.0859
▁တွေ့ဆုံဆွေးနွေး	-11.0859
▁သဘောတူညီ	-11.0863
▁တလိုင်း	-11.0865
▁ဆောင်ရွက်သည်။	-11.0866
ညှိ	-11.0867
▁ရှိသဖြင့်	-11.0868
လော့၊	-11.0868
ဖြူးမြို့နယ်၊	-11.0868
▁လိုက်၍	-11.0871
▁စင်	-11.0871
▁ဦးဘိုး	-11.0873
နေ့စဉ်	-11.0874
▁ကာကွယ်ဆေး	-11.0877
အာရှတိုက်	-11.0878
▁အသုံးပြုသည်	-11.0881
၀၄	-11.0884
▁ဟစ်	-11.0884
▁ခွာ	-11.0885
ကျဆင်း	-11.0886
▁တေး	-11.0886
▁လောင်းလုံး	-11.0888
▁စီးပွားဖြစ်	-11.0889
လိုလျှင်	-11.089
▁နေ့စွဲအချိန်	-11.0894
၉၁၀	-11.0894
▁မိကျောင်း	-11.0894
စိုးရိမ်	-11.0895
၁၂၂	-11.0895
▁ထိုအရှင်မြတ်သည်	-11.0897
နတ်ဘုရား	-11.0898
၁၉၈၁	-11.0898
▁ယုံကြည်ခြင်း	-11.0899
ပုံပြင်	-11.0899
လင့်ခ်သေ	-11.0901
▁ဒတ်ချ်	-11.0902
▁ကျော်လွန်	-11.0903
▁ခုနှစ်ကတည်းက	-11.0904
ထွင်း	-11.0906
▁ဘုရင်မင်းမြတ်	-11.0906
▁နည်းလမ်းများ	-11.0907
အဆင်း	-11.0908
▁ထုတ်ကုန်	-11.091
ဘာသာစကားဖြင့်	-11.091
လုပ်ဖို့	-11.091
▁၁၈၀	-11.0911
မူရင်း	-11.0913
တာတွေကို	-11.0913
▁လိုအပ်သည်	-11.0914
▁အမေရိကတိုက်	-11.0914
သတင်းထောက်	-11.0915
မရွေး	-11.0915
ကြောက်	-11.0916
ကလောင်	-11.0917
မင်းလှမြို့နယ်	-11.0919
▁၁၉၀၀	-11.0919
▁နှင့်အတူ	-11.092
▁အကွာ	-11.092
ရှူ	-11.092
အာဏာသိမ်း	-11.0922
▁တို့နှင့်	-11.0923
ဝဲလ်	-11.0924
▁စောင်	-11.0927
▁အသုံးပြုသူကို	-11.093
▁၁၀၅	-11.093
ခဲ့ရသော	-11.0933
▁ရှည်လျား	-11.0934
ဖှ	-11.0934
▁ဆီးချို	-11.0937
အားလုံးရန်ကုန်	-11.0939
▁တစ်လုံး	-11.094
▁ကော့သောင်း	-11.094
▁ပြည်သူ့အင်အား	-11.0942
လေးခု	-11.0943
ပညာရှင်များက	-11.0943
▁ကနီမြို့နယ်	-11.0944
ဖန်တီးသူ	-11.0946
▁တိတိကျကျ	-11.0947
▁ကုရ်အာန်	-11.0948
▁၀၈၄	-11.0949
▁ဆင်းရဲသား	-11.0949
▁ပြင်ဆင်ခြင်း	-11.0949
အောင်မြင်ခဲ့သည်။	-11.095
နေတာကို	-11.095
▁မိုက်	-11.0951
အရေးမကြီးသော	-11.0953
လင့်များပါသည့်	-11.0954
အဆောင်	-11.0955
များအသုံးပြုသူမ	-11.0958
ပိုင်ဆိုင်မှု	-11.0958
▁မြင်းခြံခရိုင်	-11.096
တိုက်ကြီး	-11.096
ခဲ့ပြန်သည်။	-11.0962
တစ်နိုင်ငံ	-11.0963
လိမ့်	-11.0965
ချင်တဲ့	-11.0965
▁ဥပဒေများ	-11.0966
တစ်ဝန်း	-11.0969
▁မပါဝင်	-11.0971
▁နီး	-11.0973
▁အစိမ်း	-11.0975
▁ဖောက်	-11.0975
၀၉	-11.0976
ထမင်း	-11.0977
▁အကြောင်းကြား	-11.0977
တစ်ခါ	-11.0978
▁၉၈	-11.0979
လူမှု	-11.098
▁အမှတ်တံဆိပ်	-11.0981
▁စာနယ်ဇင်း	-11.0982
ထိုင်ဝမ်	-11.0983
▁မိုင်းလား	-11.0988
▁ပင်း	-11.0989
▁မကျီး	-11.0989
လက်ပံတောင်းတောင်	-11.099
▁ကြ	-11.0991
လိမ့်မည်။	-11.0991
▁တည်ရှိ၍	-11.0993
။၈	-11.0994
ကိုးကွယ်	-11.0994
▁နိုင်ငံတွင်း	-11.0994
▁ခန့်က	-11.0994
▁အကျဉ်းသား	-11.0994
▁စာသင်	-11.0995
းရွာ၊	-11.0996
▁မြန်မာ့အရေး	-11.0996
ယောင်း	-11.0997
▁တယော	-11.0998
▁ဆည်မြောင်း	-11.1
ဟိုတယ်	-11.1
▁အနောက်မြောက်	-11.1001
လိုက်ခြင်း	-11.1002
▁လိပ်စာ	-11.1003
နှစ်ဖက်	-11.1003
ွိုက်	-11.1004
▁သံသယ	-11.1004
▁ဇရပ်	-11.1004
ဆန်သော	-11.1005
▁နှစ်အတွင်း	-11.1007
သံ၊	-11.1008
▁ဒလ	-11.1009
ဖြစ်ခဲ့	-11.101
၁၉၆၁	-11.1011
▁ကာကွယ်ပေး	-11.1011
▁သတ်မှတ်ထားသည့်	-11.1011
ကြီးတစ်ခု	-11.1012
▁ကဲ	-11.1013
အမည်မှာ	-11.1014
▁စာမျက်နှာလင့်	-11.1016
▁အခွင့်	-11.1017
သာကျေးရွာအုပ်စု	-11.1018
ကစ၍	-11.1018
▁သိမ်းပိုက်နိုင်	-11.1019
▁ပြောခဲ့ပါတယ်	-11.102
၁၉၆၉	-11.102
▁အမိန့်အမှတ်	-11.1021
စခန်းကို	-11.1024
ထွက်ခွာ	-11.1026
ဗျူဟာ	-11.1027
▁အစိုးရနှင့်	-11.1029
ဘွဲ့ရ	-11.1029
▁အခွင့်အရေးများ	-11.103
မြို့အနီး	-11.103
▁ဖိနပ်	-11.1031
ဦးခေါင်း	-11.1031
ကြီးတွင်	-11.1031
စစ်မှုထမ်း	-11.1033
▁ရှိခိုး	-11.1033
▁နှုတ်ခမ်း	-11.1035
▁မြောင်း	-11.1036
▁အနုပညာရှင်	-11.1038
ပုံနှိပ်	-11.1039
▁ရုရှားက	-11.104
ူး	-11.104
ခဲ့ပေမယ့်	-11.1043
▁နတ်သမီး	-11.1043
▁ခွဲထုတ်	-11.1044
ဖြစ်လာသည်	-11.1046
နိုင်ငံခြား	-11.1047
▁ဦးသိန်းစိန်	-11.1047
ပိန်	-11.1047
▁အိုင်ယာလန်	-11.1047
၁၉၇၀	-11.1049
▁ပေါ်တွင်	-11.1049
ကျမ်းစာ	-11.1051
▁ခြောက်သွေ့	-11.1052
▁သိုင်း	-11.1052
▁အောင်ဆန်း	-11.1055
▁ရဲဘော်များ	-11.1055
▁တိုကျို	-11.1058
▁ဆောက်တည်	-11.1059
သတ်မှတ်ချက်များ	-11.1059
ဆောင်ရွက်ချက်	-11.106
▁ကျင်းပသည့်	-11.1062
မျို	-11.1064
▁ကျိုတို	-11.1064
နှံ	-11.1065
ဉ်	-11.1069
အုပ်ချုပ်ပုံ	-11.1069
▁မူတည်	-11.1069
▁ဖြစ်နိုင်	-11.1069
နမ့်ခမ်းမြို့နယ်	-11.107
မေ့	-11.1072
မည်ဖြစ်ပြီး	-11.1075
▁ကြားခံ	-11.1076
▁နတ်လူတို့ဆရာ	-11.1077
ထားသဖြင့်	-11.1078
▁ထိရောက်စွာ	-11.1079
ဖြစ်ပါက	-11.108
▁ဖြစ်ပွားခဲ့သည်။	-11.1081
မြို့တော်ဝန်	-11.1082
ကျောင်းကုန်း	-11.1082
အက်ဥပဒေ	-11.1082
ပါဝင်သည်	-11.1084
အသစ်ကို	-11.1085
ခဲ့သည်မှာ	-11.1087
ပုံပြင်များ	-11.1088
င်္	-11.1089
ကြကြောင်း	-11.1092
▁ပါရမီ	-11.1093
ဖြတ်သန်း	-11.1093
▁ဖခင်ဖြစ်သူ	-11.1098
ထမ်းဆောင်ခဲ့သည်။	-11.11
▁မြို့ရွာ	-11.1101
တစ်နိုင်ငံလုံး	-11.1102
၁၉၂၀	-11.1102
ကြိုက်	-11.1104
ဟိုပုံးမြို့နယ်	-11.1107
ဦး၊	-11.1108
အောင်း	-11.1108
▁စန္ဒရား	-11.1108
▁ကောင်းမွန်သော	-11.111
▁အကျဉ်းထောင်	-11.1111
▁အလွန်အမင်း	-11.1113
ဒဂုံ	-11.1113
မြင့်မား	-11.1113
▁မဟုတ်ပါဘူး	-11.1113
စျေး	-11.1114
▁လေ့လာခြင်း	-11.1116
အများစုကို	-11.1116
ကိုမဆို	-11.1117
▁ဘူမိဗေဒ	-11.1117
▁၁၁၀	-11.1118
အားကစားကွင်း	-11.1119
အပေါ်၌	-11.1121
သုံးမျိုး	-11.1122
▁ပင့်	-11.1122
▁သတိပြု	-11.1123
ပြင်သစ်နိုင်ငံ	-11.1123
ရေတွက်	-11.1124
▁ထုတ်ဝေသော	-11.1124
ဝန်ကြီးချုပ်များ	-11.1125
▁ထွက်ခွာသွား	-11.1125
▁တီးခတ်	-11.1125
▁ဆိုက်ရောက်	-11.1126
▁မင်းပြု	-11.1126
▁စွယ်စုံ	-11.1126
▁ကျောင်း၊	-11.1129
ရုံမက	-11.1129
▁ဆော့ဖ်ဝဲ	-11.1129
▁ဆင်ဖြူ	-11.113
မြို့သစ်မြို့နယ်	-11.1132
လူများ	-11.1132
▁အယ်လ	-11.1133
▁ကိုယ်ဝန်ဆောင်	-11.1133
အတော်များများ	-11.1133
▁ရက်နေ့မှစ၍	-11.1133
▁ပုဂံပြည်	-11.1134
▁စကားပြေ	-11.1138
▁ကီ	-11.1138
စိတ်ဓာတ်	-11.1141
▁ပွဲချင်းပြီး	-11.1144
▁လုပ်ငန်းခွင်	-11.1147
▁ကြီးစိုး	-11.1151
▁လူသားတို့	-11.1155
ကန်ရွာ	-11.1156
၁၉၉၉	-11.1158
ငါးရာ	-11.1159
ဘယ်လို	-11.1162
ဒိုက်	-11.1166
၃၀၀၀	-11.1167
၁၀၆	-11.1167
▁ပြန်ရောက်	-11.117
လည်းဖြစ်သည်	-11.1171
▁မြို့တော်မှာ	-11.1172
ယခင်က	-11.1173
▁ချပ်	-11.1173
▁ကြုံ	-11.1173
စနစ်ဖြင့်	-11.1174
ယူခြင်း	-11.1175
ပြီးဆုံး	-11.1175
▁စဉ်	-11.1175
များအပါအဝင်	-11.1177
▁ကွယ်လွန်သွား	-11.1179
▁အရွယ်တွင်	-11.1184
၁၉၆၀	-11.1186
လေ့လာမှု	-11.1186
အု	-11.1188
▁စတင်ပြီး	-11.1188
ယူဆ	-11.1189
လုပ်သား	-11.1189
▁ကြသည်။	-11.1191
ကျိ	-11.1192
ပြဋ္ဌာန်း	-11.1194
▁စစ်အာဏာသိမ်းမှု	-11.1197
မွေးမြူ	-11.1197
ငုတ်	-11.1199
စာဆို	-11.1199
▁ခတ်	-11.12
▁မြှောက်	-11.1201
▁ရှုတ်ချ	-11.1203
▁အကောင့်	-11.1204
▁မြှင့်တင်	-11.1204
▁ရေတံခွန်	-11.1205
▁ခိုက်	-11.1205
▁အရပ်ရပ်	-11.1206
ရီးယား	-11.1206
ပတ်လည်	-11.121
ရိယ	-11.1213
▁အငြိမ်းစားယူ	-11.1215
လာလျှင်	-11.1216
▁၁၅၀၀	-11.1217
▁မိုင်းမော	-11.1217
▁တတ်	-11.1218
လှည်း	-11.1218
နေခဲ့သည်။	-11.1218
ဘုတလင်မြို့နယ်	-11.1218
▁စတင်တည်ထောင်ခဲ့	-11.1219
နီးစပ်	-11.122
ကျတော့	-11.122
တိုက်ပွဲများ	-11.1222
▁စစ်သူကြီး	-11.1223
တစ်ဦး၏	-11.1225
ခြမ်း	-11.1225
စားသုံး	-11.1226
လောက်က	-11.1226
▁ကျွမ်းကျင်သော	-11.1226
ပစ်ခတ်မှုကြောင့်	-11.1226
တွေထဲ	-11.1228
အပင်များ	-11.123
ကျွမ်းကျင်	-11.1231
ချီး	-11.1232
▁လှုပ်	-11.1233
၌မူ	-11.1233
▁ထိခိုက်မှု	-11.1234
ဂျန်	-11.1235
ကုပ်	-11.1235
▁ရှောက်	-11.1236
မက္ကဆီကိုနိုင်ငံ	-11.1236
မလှိုင်မြို့နယ်	-11.1236
ရီယာ	-11.1237
နွေး	-11.1237
ခွဲခြားခြင်း	-11.1241
▁သုံးပါး	-11.1243
၊သာယာဝတီခရိုင်၊	-11.1244
▁အနီရောင်စာရင်း	-11.1245
တက်လာ	-11.1247
▁သားကောင်	-11.1248
၁၀၇	-11.1249
▁ရွတ်ဆို	-11.1251
စစ်မှုထမ်းခြင်း	-11.1251
0	-11.1251
လုပ်ငန်းစဉ်	-11.1253
▁တစ်ခုတည်း	-11.1253
ရှိုး	-11.1255
▁ခရမ်း	-11.1258
▁လား	-11.1259
တဲ့အချိန်မှာ	-11.126
▁မနော	-11.1261
ရှိလေသည်။	-11.1265
ဝင်ရောက်လာ	-11.1268
▁သတိုး	-11.1271
နန္ဒာ	-11.1271
ဝင်ဘာဒီဇင်ဘာင	-11.1272
ဿာ	-11.1273
ဝဏ္ဏ	-11.1274
ဗားရှင်း	-11.1277
▁ပြုလုပ်ပေး	-11.1277
▁အထည်	-11.1278
▁အရှေ့တိုင်း	-11.128
▁အဖိုး	-11.1281
ပြန်ကြားရေး	-11.1282
ထားရာ	-11.1283
▁ရွေးကောက်ခံ	-11.1283
▁လွိုင်လင်	-11.1284
▁အာဏာကို	-11.1284
▁ရှုံး	-11.1284
▁ဆေးလိပ်	-11.1285
▁ဖောင်	-11.1285
▁အသုံးပြုသူအမည်	-11.129
ပ္	-11.129
▁ပျဉ်းမနား	-11.1291
ချိုင်း	-11.1291
▁ရေအားလျှပ်စစ်	-11.1291
ပအိုဝ်းအမျိုးသား	-11.1291
▁ကောလင်းမြို့နယ်	-11.1293
ဂျာမနီ	-11.1294
▁သက်ဆိုင်သည့်	-11.1297
တော်မှ	-11.1298
နိုင်လေသည်။	-11.1298
ထံ၌	-11.1299
တည်ရာ	-11.13
▁ကျန်ရစ်	-11.13
▁အနှံ့အပြား	-11.1301
▁ဒိန်းမတ်	-11.1304
▁သဘောတူညီမှု	-11.1308
တရားကို	-11.1308
သွား၍	-11.1311
▁စစ်ရှောင်	-11.1311
▁ပါဝင်မှု	-11.1312
အခွန်	-11.1313
လိပ်စာ	-11.1313
▁ဗဟိုဘဏ်	-11.1313
တွင်လည်းကောင်း၊	-11.1313
▁ပြင်းအား	-11.1316
ဘောလုံးသမား	-11.1319
▁မိန့်ခွန်း	-11.132
▁ရာဇဝတ်	-11.1321
င်းနှီးမြှုပ်နှံ	-11.1322
▁ထွက်လာသော	-11.1322
▁တချို့က	-11.1324
▁သင်္ကြန်	-11.1327
▁တကွ	-11.1328
▁အလင်းဝင်ရောက်	-11.1329
ပုံစံကို	-11.1332
▁အရာများ	-11.1332
25	-11.1335
၃၀၀	-11.1335
ကိုးကားထည့်ခြင်း	-11.1336
▁သီဟ	-11.1336
▁ဗန္ဓုလ	-11.1338
၅၀၀	-11.1339
ချက်များအရ	-11.1342
▁သာသနာ့	-11.1342
▁ငလျင်ကြောင့်	-11.1344
စာတည်းအဖွဲ့	-11.1344
ဇနီး	-11.1347
▁ရက်မှ	-11.1347
▁နှစ်အောက်	-11.1347
တာဝန်ကို	-11.1348
▁အရောင်းအဝယ်	-11.1349
▁အညီ	-11.135
မြိုင်မြို့နယ်	-11.135
▁မပြော	-11.1351
▁ဥပဒေပြု	-11.1351
ဗလီ	-11.1355
▁ရောဂါများ	-11.1357
အဆောက်အဦး	-11.1357
စက်များ	-11.1358
သွားလေသည်။	-11.1358
ကြီးအား	-11.136
ရေဒီယို	-11.136
ခဲ့တာလို့	-11.136
ဆမ်	-11.1361
▁ဦးက	-11.1362
▁မျိုးချစ်	-11.1363
ကျောက်ဆည်	-11.1365
ရှင့်	-11.1367
နယ်ကို	-11.1368
▁နင်	-11.1368
▁မိုင်းကိုင်	-11.1369
▁ထွက်ရှိ	-11.1372
▁စွမ်းရည်	-11.1372
သုံးနှုန်း	-11.1372
တုံ့ပြန်	-11.1373
သက	-11.1373
▁ဖောင်ဒေးရှင်း	-11.1374
▁ဩစတြေးလျနိုင်ငံ	-11.1374
ဗယ်	-11.1377
▁နယူးယောက်	-11.1378
▁ဆမ်	-11.1379
ရဲဘော်	-11.1379
အကွက်	-11.138
မည့်အကြောင်း	-11.1381
▁မည်သူမျှ	-11.1383
စဥ်	-11.1384
ဖြူးမြို့နယ်	-11.1384
ပွားများ	-11.1385
၁၉၉၆	-11.1387
▁အိုက်	-11.1387
ဣ	-11.1387
လက်တင်ဘာသာစကား	-11.1389
လာခဲ့ကြသည်။	-11.1389
▁ဒေသပြည်သူတစ်ဦးက	-11.139
▁ဖြစ်တဲ့	-11.1391
ညွှန့်	-11.1391
ယ်လက်ဆီ၊ဂယ်လက်ဆီ	-11.1391
ုလိုက်အပြုံလိုက်	-11.1391
▁အစိုးရကို	-11.1392
စာများ	-11.1392
အာရှတိုက်ရှိ	-11.1393
▁ပထမကမ္ဘာစစ်	-11.1394
အကျဉ်းထောင်	-11.1394
ပခုက္ကူခရိုင်	-11.1394
▁အကွာတွင်	-11.1395
အခေါ်	-11.1397
▁မဟုတ်ပါ။	-11.1398
▁ခေတ်ပြိုင်	-11.1399
လာနိုင်	-11.1402
တိုက်ခိုက်မှုကို	-11.1404
ပွဲတွင်	-11.1405
▁လိမ်လည်	-11.1406
အိမ်တော်	-11.1407
စူး	-11.1408
ဒပ်	-11.1412
ချူး	-11.1412
▁လွိုင်	-11.1414
များထံမှ	-11.1414
မှုရှိ	-11.1419
စွ	-11.1421
ံ၊	-11.1421
▁ဂါဇာ	-11.1422
▁လျှော့ချ	-11.1422
အုတ်ဖိုမြို့နယ်၊	-11.1424
မျ	-11.1426
▁သာစည်	-11.1426
ဇာတ်တော်	-11.1427
▁လားဟူ	-11.1427
▁တာဝန်ရှိသူက	-11.1428
လှိုင်းဘွဲ့	-11.1428
တန်ခိုး	-11.143
ဓဇ	-11.1431
▁ရောက်ရှိခဲ့သည်။	-11.1434
▁အနိုင်ရရှိ	-11.1437
တုပ်	-11.1439
▁လူပုဂ္ဂိုလ်	-11.1439
ဟောက်	-11.1442
အောက်ရှိ	-11.1443
သူများမှာ	-11.1443
အတွဲ	-11.1443
သဘောတရား	-11.1445
▁ပိတ်ပင်ခဲ့သည်	-11.1448
▁ကင်ညာ	-11.1449
▁အပစ်ရပ်	-11.145
▁မုခ်ဝ	-11.1453
▁ကောင်းကျိုး	-11.1454
/69	-11.1457
၌ရှိသော	-11.1459
▁ညီနောင်	-11.1459
▁ရေးမြို့နယ်	-11.1462
ဒေါ်လာ	-11.1462
ဆောင်တော်မူသတည်း	-11.1462
ကြည့်ပါ	-11.1462
▁ကျောင်းများ	-11.1463
▁ပုလောမြို့နယ်	-11.1464
▁ချောင်းဦး	-11.147
▁ပေါ့	-11.147
▁ဆပ်ပြာ	-11.1473
▁အိုင်ဖုန်း	-11.1474
ခံ၍	-11.1474
ဝစ်	-11.1475
▁မက်မန်းမြို့နယ်	-11.1475
ဟိုး	-11.1476
ကြိုးပမ်း	-11.1477
ခဲ့ကြရာ	-11.1478
ကောင်စီကို	-11.1479
▁၀၆၄	-11.148
▁ချထား	-11.1482
▁ခမာ	-11.1482
▁အထောက်အကူပြု	-11.1482
သည်ထက်	-11.1484
▁မြန်မာနိုင်ငံမှ	-11.1487
ကြာအင်းဆိပ်ကြီး	-11.1492
တာဝန်များ	-11.1492
နွားထိုးကြီး	-11.1492
ကော်ပိုရေးရှင်း	-11.1492
▁အင်မတန်	-11.1493
တည်ရှိရာ	-11.1493
သောအခါတွင်	-11.1493
ထုတ်ယူ	-11.1494
▁ယုံကြည်ကြသည်။	-11.1494
အရှေ့ဘက်	-11.1495
▁ဒဏ်	-11.1495
▁ရှောင်ကြဉ်	-11.1496
၁၉၆၅	-11.1501
▁ပြိုကျ	-11.1503
▁ဖို	-11.1508
ပါဝင်မှု	-11.1511
ထစ်	-11.1511
▁ငါးပိ	-11.1511
▁မိမိကိုယ်တိုင်	-11.1512
▁၈၀၀	-11.1512
▁ရေးသားခဲ့သည်	-11.1513
ဖြည့်စွက်ရေးသား	-11.1513
▁လုပ်ကိုင်ကြသည်။	-11.1513
▁ပြုမူ	-11.1514
▁အနည်းငယ်သာ	-11.1517
နေရာသို့	-11.1519
အသုံးအနှုန်း	-11.1519
၅၀၁၀၀၂၅၀၅၀၀	-11.152
ိုင်းမောဝအထူးဒေသ	-11.152
▁အဘယ့်ကြောင့်	-11.152
၏။၁	-11.152
▁ပုဒ်ဖြတ်	-11.1521
▁နန္ဒ	-11.1522
▁စာစောင်	-11.1524
▁ဗီယက်နမ်နိုင်ငံ	-11.1526
▁တို့ဖြစ်သည်။	-11.1527
▁တွေ့နိုင်သည်။	-11.153
မြိုင်မြို့နယ်၊	-11.1532
▁သင်ခန်းစာများ	-11.1532
▁သာယာဝတီခရိုင်	-11.1532
မိဖုရားခေါင်ကြီး	-11.1533
▁အင်းစိန်	-11.1533
▁အင်္ဂုတ္တရနိကာယ	-11.1534
▁အရာရှိများ	-11.1534
တပ်ကုန်းမြို့နယ်	-11.1534
ဖောင့်	-11.1535
▁ရေးသားသော	-11.1536
နိုင်ပေသည်	-11.1538
▁ခိုင်	-11.1538
▁သီပေါ	-11.1539
အုပ်ချုပ်ခဲ့သည်။	-11.1541
ခဲ့ခြင်းကြောင့်	-11.1549
▁ဝီ	-11.1549
▁ကျင်း	-11.1549
▁မြေပြန့်	-11.1551
ကျွမ်း	-11.1552
▁အသေးစား	-11.1558
▁ရဲတပ်ဖွဲ့	-11.1559
▁ဖမ်းဆီးရရှိ	-11.1559
1	-11.1561
▁အဲဒီနောက်	-11.1562
ရန့်	-11.1562
ပွားခြင်းမရှိဘဲ	-11.1562
ရေယာဉ်	-11.1564
အမျိုးမျိုးဖြင့်	-11.1565
ပဲခူးတိုင်း	-11.1565
▁၂၂၄	-11.1566
ဖုတ်	-11.1566
ဖော်ပြချက်တို	-11.1567
▁ခုံ	-11.1569
▁အသုံးမပြု	-11.157
ထေရဝါဒ	-11.1571
▁ဤသို့လျှင်	-11.1571
ရုပ်ပွားတော်	-11.1571
▁အရံ	-11.1571
ပေါ်လာ	-11.1574
ပါကြောင်း	-11.1574
▁အငယ်ဆုံး	-11.1575
▁အအေး	-11.1575
လွမ်း	-11.1575
ပြုကာ	-11.1576
ရန်သူ	-11.1577
▁ထုတ်ပြန်ထားသည်	-11.1578
ထိတွေ့	-11.158
▁ဗြဟ္မဒတ်မင်း	-11.158
▁ဆင်ဖြူရှင်	-11.1582
၁၁၂	-11.1582
▁ဖမ်းယူ	-11.1583
ို	-11.1583
၁၉၆၆	-11.1584
အံ့။	-11.1587
▁ရပ်ရွာ	-11.1587
▁မစ်	-11.1588
▁မြင်ကွင်း	-11.1588
၌ကား	-11.1588
သိပ်	-11.159
တွေ့ရသည်။	-11.1592
▁ဆောင်ရွက်နိုင်	-11.1594
ကြယ်စုတန်း	-11.1594
▁ချောက်မြို့နယ်	-11.1597
ရှော	-11.1599
▁ကရုဏာ	-11.16
▁နယ်မြေများ	-11.16
▁သင့်လျော်သော	-11.16
▁အနီးကပ်	-11.1605
▁ဩစတြီးယား	-11.1606
▁ဆောင်ရွက်ခဲ့	-11.1607
▁ဖျက်ပစ်ရန်	-11.1608
▁၇၉	-11.1609
၃၀၈	-11.1609
▁ကိစ္စရပ်များ	-11.1609
တိုက်တွန်း	-11.161
ကျောင်းအုပ်ကြီး	-11.1612
▁ပိတ်ထားသည်	-11.1612
▁၆၉	-11.1613
ခြည်	-11.1618
▁ပစ္စုပ္ပန်	-11.162
တို့ရဲ့	-11.162
ခုခံ	-11.1621
မိန်း	-11.1622
တင်မြှောက်ခြင်း	-11.1628
▁အသီးအသီး	-11.1629
သော်၊	-11.1629
ရာတွင်လည်း	-11.1629
▁သံလွင်မြစ်	-11.1634
▁သဏ္ဌာန်	-11.1634
ယုံကြည်မှု	-11.1636
၁၉၇၂	-11.1637
နေသောကြောင့်	-11.1637
ပြန်၍	-11.1639
▁ထိုကဲ့သို့သော	-11.1639
▁သောတာပန်	-11.164
ပြည်သူများ	-11.164
▁၀၄၅	-11.1641
ပုတ္တ	-11.1642
လိမ်း	-11.1643
၌လည်းကောင်း၊	-11.1644
ချင်တယ်	-11.1644
ကျောင်း၌	-11.1645
▁၀၇၅	-11.1645
▁အိမ်သာ	-11.1646
▁၁၉၂၆	-11.1647
▁တင်ဆက်	-11.1647
▁ပျက်စီးသွား	-11.1652
ယော်	-11.1653
ဂျပန်ဘာသာစကား	-11.1653
ဉ	-11.1655
▁မြစ်ကြောင်း	-11.1656
ရင်းနှီး	-11.1657
▁ညွှန်းဆို	-11.1657
ကြလေကုန်။	-11.1658
ကျွတ်	-11.1659
ဖြေရှင်း	-11.1661
တတ်သည့်	-11.1662
ွင်း	-11.1662
န္န	-11.1663
ကား၊	-11.1663
ကြချေ။	-11.1664
ကွန်ဂရက်	-11.1665
တက်ကြွလှုပ်ရှား	-11.1665
▁လူတန်းစား	-11.1666
▁အယောက်	-11.1667
▁စာမျက်နှာတစ်ခု	-11.1667
ထင်ပေါ်ကျော်ကြား	-11.167
▁အပြား	-11.167
ဆေး၊	-11.1671
များဖြစ်ကြသော	-11.1672
ြန်မာ့နိုင်ငံရေး	-11.1673
မင်းက	-11.1675
▁လေကြောင်းရန်	-11.1677
▁ချိုးဖောက်မှု	-11.1678
▁ငြင်းဆန်	-11.1678
မှာဖြစ်ပါတယ်	-11.168
ဂျပန်နိုင်ငံ	-11.168
ထွား	-11.1682
။၁၇	-11.1682
တော်၏	-11.1683
တစ်ဦးအဖြစ်	-11.1684
အလုပ်ကို	-11.1684
မွဲ	-11.1686
အိုင်ရွာ၊	-11.1687
▁မူဆယ်မြို့နယ်	-11.1688
▁သန်းခန့်	-11.1689
ဟုဆိုကာ	-11.1691
▁အတည်ပြုနိုင်	-11.1693
▁တွေ့ရှိရသည်	-11.1693
▁ဒဿနိကဗေဒ	-11.1696
အဝ	-11.1699
▁ပဋိပက္ခများ	-11.1703
▁အမဲလိုက်	-11.1704
ကင်ဆာ	-11.1706
တင်၍	-11.1706
ဦးနှောက်	-11.1706
လာလေသည်။	-11.1707
▁မကျေနပ်	-11.1708
▁သိရတယ်	-11.1708
▁အီးမေးလ်	-11.1709
▁အမှတ်တရ	-11.1711
အင်အားစု	-11.1712
မည်၊	-11.1714
ရှိခဲ့ပြီး	-11.1716
ဘုရင်မ	-11.1717
▁ဟောတော်မူသည့်	-11.1717
▁ကွပ်ကဲ	-11.1718
နှင့်ကောလိပ်များ	-11.1721
▁ကြွ	-11.1721
ရပ်ဝန်း	-11.1723
ပြည်တွင်းစစ်	-11.1724
▁ဘာကြောင့်	-11.1724
တကာ	-11.1725
▁ဇီးကုန်း	-11.1727
ပရာ	-11.1728
အခမဲ့	-11.173
▁ဂန္ထဝင်	-11.1731
အကျယ်အဝန်း	-11.1731
▁သာစည်မြို့နယ်	-11.1733
▁၅ပါး	-11.1733
တွေကြား	-11.1734
▁သက်သာ	-11.1735
အညွှန်း	-11.1737
သမဂ္ဂ	-11.1738
▁အီလက်ထရောနစ်	-11.1738
စိတ္တ	-11.174
ပြန်ရာ	-11.174
▁ယူအေအီး	-11.1741
▁မှတ်ချက်	-11.1742
ဗန်း	-11.1743
လက်အောက်တွင်	-11.1744
ဘူတာရုံ	-11.1747
အပြည့်	-11.1747
သမီးတော်	-11.1747
▁တခါ	-11.1747
သည့်တိုင်အောင်	-11.1749
၀၇	-11.1749
▁နက္ခတ်	-11.1749
နွေဦးတော်လှန်ရေး	-11.175
▁ထနောင်း	-11.175
▁ကျေးသီးမြို့နယ်	-11.1752
▁ဖြစ်ထွန်း	-11.1752
ဖယ်ခုံမြို့နယ်	-11.1752
အရှည်	-11.1753
▁ဘီးလင်းမြို့နယ်	-11.1753
၁၉၅၆	-11.1755
ဟွာ	-11.1755
▁သူခိုး	-11.1756
ယာယီ	-11.1757
▁ရေဦးမြို့နယ်	-11.1759
▁ဆဲ	-11.1759
ယ့်	-11.1762
▁စတင်ခဲ့ပြီး	-11.1764
မိန်	-11.1766
လောက်ပဲ	-11.1767
▁ဆည်းကပ်	-11.1767
▁မုချ	-11.1768
ဏှ	-11.1769
ပကတိ	-11.1769
အသင်းတော်	-11.1769
သည့်အနေဖြင့်	-11.1771
။၁၀	-11.1773
6	-11.1773
▁စီးဝင်	-11.1774
▁ရှိသေးသည်။	-11.1775
ဖွင့်ဆိုချက်	-11.1776
▁မြန်မာဘုရင်	-11.1778
▁အဝါ	-11.1781
▁အရေးအခင်း	-11.1782
မြစ်သားမြို့နယ်	-11.1783
▁အခြင်းအရာ	-11.1783
▁မလာ	-11.1784
၁၉၉၄	-11.1784
▁အလုံး	-11.1784
သွန်	-11.1785
▁အဆုံးအမ	-11.1786
▁သုံးဦး	-11.1786
▁ရည်ရွယ်၍	-11.1786
ပျဉ်	-11.1789
တပ်တွေ	-11.1789
နှောင်း	-11.179
▁တိုင်ကြား	-11.1791
▁သီပေါမြို့နယ်	-11.1792
က်စ်	-11.1793
ဝရ	-11.1797
သုံ	-11.18
▁ရရှိနိုင်	-11.18
▁ဦးတင်	-11.1801
နေလျှင်	-11.1803
ဂေး	-11.1804
▁နိုင်ငံ့	-11.1806
ကျေးရွာမှ	-11.1806
အမည်ရင်း	-11.1807
▁ဗြိတိသျှအစိုးရ	-11.181
▁အဆိုတော်များ	-11.1812
▁သင့်အား	-11.1812
တော်လှန်	-11.1818
▁နာရေး	-11.182
▁စမ်းချောင်း	-11.1821
ဖိနပ်	-11.1822
▁ဒီနှစ်	-11.1822
ဌာနတွင်	-11.1823
အထက	-11.1825
လှော်	-11.1827
အစားထိုး	-11.1828
ရေးဌာန	-11.183
▁တနင်္ဂနွေနေ့	-11.1831
▁၈၉	-11.1831
▁ပြန့်ပွား	-11.1832
▁ဖြစ်သည်။၃	-11.1833
များဝှက်	-11.1833
▁ဆန်း	-11.1834
▁ချစ်သူ	-11.1835
စေတနာ	-11.1839
▁ဖြစ်ကြသော	-11.1839
ပေးခြင်း၊	-11.184
▁မဟာယာန	-11.1842
နည်းသော	-11.1842
▁ဆုံ	-11.1844
ပျိုး	-11.1849
▁မြောက်လတ္တီတွဒ်	-11.1849
▁စစ်ဆေးရန်အကူအညီ	-11.1849
ခက်ခဲ	-11.1851
လုပ်ငန်းများတွင်	-11.1853
▁တိုက်ကြီး	-11.1855
လွှင့်	-11.1855
▁ယှဉ်	-11.1855
ရရှိသည်။	-11.1855
▁အကျိုးဆက်	-11.1855
လိုက်ရ	-11.1856
ငြား	-11.1857
ဝီကီပီးဒီးယားကို	-11.1857
ဟုမ္မလင်း	-11.1858
ရှပ်	-11.1858
ရ။	-11.1859
▁မိမိအား	-11.186
ညံ့	-11.186
ခါနီး	-11.1863
လုပ်ဆောင်ချက်	-11.1863
ကမ်	-11.1864
ဆိုသည်။	-11.1865
သင်္ကေတများ	-11.1866
▁ရေကြီး	-11.1868
▁အစပြု၍	-11.1869
လှပ	-11.1872
▁မတွေ့	-11.1872
▁အရှေ့တောင်	-11.1874
▁ရေချိုး	-11.1875
▁ရုပ်ပွားတော်	-11.1875
သွားအောင်	-11.1876
အရေးအခင်း	-11.1878
▁ကြားရ	-11.1882
၁၀၀၀	-11.1883
▁မတူပီမြို့နယ်	-11.1883
▁လက္ခဏာများ	-11.1889
မြည်	-11.1899
▁ဒါး	-11.1899
အရသာ	-11.1901
ကြွေ	-11.1902
▁ဦးရေ	-11.1902
10	-11.1904
အဖွဲ့တွင်	-11.1905
ွမ်း	-11.1905
▁ဥပုသ်	-11.1908
ဒြပ်ထု	-11.1908
ရေးတွင်	-11.1909
လုပ်ဆောင်မှု	-11.1911
▁မီလီမီတာ	-11.1911
နေတတ်	-11.1911
ကြသူများ	-11.1911
▁စေ့စပ်	-11.1911
ဖြူး	-11.1914
ပုံမှန်	-11.1914
▁ဖော်ပြပါ	-11.1916
၀ရက်အတွင်း	-11.1917
ဗေဒင်	-11.1917
▁ရက်နေ့၌	-11.1918
ရရှိရေး	-11.1919
▁ယခုလက်ရှိ	-11.192
▁ပစ်ချ	-11.1924
ပုံစံဖြင့်	-11.1926
သို့သော်လည်း	-11.1929
▁၁၆၆	-11.1931
▁ဆက်စပ်မှု	-11.1931
▁ဇင်း	-11.1931
ရွှေဘိုခရိုင်	-11.1932
အင်္ဂလန်	-11.1932
▁နန်းယွန်း	-11.1934
▁ခြားနား	-11.1935
ခဲ့သည်။၇	-11.1935
တ်တမ်း၁	-11.1935
▁မြို့နယ်ရုံး	-11.1937
▁အစွန်း	-11.1939
ွှ	-11.1939
ဖြင့်လည်း	-11.194
ဥရောပတိုက်	-11.194
မေလ	-11.1941
သိမ်းယူ	-11.1941
ကျမ်းကို	-11.1942
ဓန	-11.1943
▁စားနပ်ရိက္ခာ	-11.1944
အေဂျင်စီ	-11.1944
သုံးပြီး	-11.1948
▁အဝါရောင်	-11.1949
စယ်	-11.195
▁ဉာဏ်တော်	-11.1951
▁ဇန်	-11.1953
အပြား	-11.1953
တက္ကသိုလ်တွင်	-11.1953
၁၂၀	-11.1954
တောင်၊	-11.1954
▁ဌ	-11.1954
လုပ်ကြံ	-11.1956
၊၊။တွင်	-11.1956
မျိုးဖြစ်သည်။	-11.1958
▁မုံရွာမြို့နယ်	-11.1958
▁အရိယာ	-11.1958
▁ဆောင်းပါးတစ်ခု	-11.1959
▁ပုံတူ	-11.1961
▁တယ်လီဖုန်း	-11.1963
▁ဆရာတော်သည်	-11.1963
▁ဦးစံ	-11.1964
အကျဉ်းချုပ်	-11.1964
တပ်စခန်းဌာနချုပ်	-11.1966
▁ပျို့	-11.1967
▁၀၇၄	-11.1968
▁တစ်နေရာ	-11.197
စေတသိက်	-11.1971
လုံရွာ၊	-11.1974
▁ပြစ်မှုထင်ရှား	-11.1976
ခမည်းတော်	-11.1977
အကြံပေး	-11.1977
▁စတင်ကာ	-11.1977
▁တိမ်းရှောင်	-11.1977
▁ဓနုဖြူ	-11.1978
ဝတ္ထုတိုများ	-11.1978
▁သွင်းကုန်	-11.1979
▁မှစသော	-11.1979
▁လှမ်း	-11.198
▁မိုးကုတ်မြို့	-11.1981
ငတ်	-11.1981
၁၃၇၁၄၃	-11.1984
ကျွန်ုပ်တည်းဖြတ်	-11.1984
စိစစ်	-11.1984
ဟုခေါ်သည်	-11.1984
ထားရသည်။	-11.1985
ဟုန်း	-11.1986
ဂလက်ဆီ	-11.1986
▁အကယ်	-11.1986
▁လွန်ခဲ့တဲ့	-11.1988
ဆင်ခြင်	-11.1988
▁ဒြပ်	-11.1989
ပါမည်	-11.199
ဆွယ်	-11.1991
မည်သည့်	-11.1992
▁ဒီပဲယင်း	-11.1993
ပျစ်	-11.1993
▁သင့်အနေဖြင့်	-11.1994
▁ပီတာ	-11.1995
မင်းခေါင်	-11.1995
▁တန့်ဆည်မြို့နယ်	-11.1996
တောင်ငူခရိုင်	-11.1996
▁ဆုတ်ခွာနိုင်ခဲ့	-11.1997
ဆောက်လုပ်ရေး	-11.1998
▁အသင်တို့အား	-11.2
တွေဖြစ်တဲ့	-11.2001
ထိုင်းဘာသာစကား	-11.2002
ကစားသမား	-11.2002
▁ကုန်ကျ	-11.2002
▁ကျောင်းဆရာ	-11.2004
▁စာရင်းသွင်း	-11.2004
ကရ	-11.2004
▁ပစိဖိတ်	-11.2005
လေ့ကျင့်	-11.2005
▁သက်သေခံ	-11.2006
ခဲ့ကြသည့်	-11.2007
ကယား	-11.2007
ဝိုင်းမော်	-11.2007
▁သတ်မှတ်ခဲ့သည်။	-11.2008
▁အလုံ	-11.2008
▁ကဗျာလင်္ကာ	-11.2008
မြိတ်	-11.2009
▁တိမ်ကောသွားပြီ	-11.2012
ရုံသာမက	-11.2013
လိုက်၍	-11.2013
▁မကျီးကုန်း	-11.2014
▁ကြီးထွားလာ	-11.2014
▁ထင်မြင်	-11.2015
ကူးစက်	-11.2015
▁ထိုဒေသ	-11.2018
လက်ပန်	-11.2019
▁လူ၏	-11.2019
အရေးတော်ပုံ	-11.202
ပင်ကျေးရွာအုပ်စု	-11.2022
လဟာ	-11.2023
▁နာဇီ	-11.2023
ထနောင်း	-11.2024
ခဲ့သည်။၁၂	-11.2025
ဗဲ	-11.2025
ဝှက်ထားသော	-11.2028
ကလေးများကို	-11.2032
▁တောင်ကြီးမြို့	-11.2033
▁ပါဝင်လာ	-11.2035
အခြားအမည်များ	-11.2036
▁ခရု	-11.2036
ထို့အတွက်ကြောင့်	-11.2038
▁အကြီးအကဲများ	-11.204
ကာလမှာ	-11.204
ကျေးလက်	-11.2042
ဘုန်းကြီး	-11.2043
▁ရေယာဉ်	-11.2043
▁မြို့တွင်း	-11.2043
အနာ	-11.2044
ုန်းဘောင်မင်းဆက်	-11.2044
▁ချီးမြှောက်	-11.2045
▁လက်ရာများ	-11.2047
ဒွန်း	-11.2047
ဝန	-11.2047
တီးတိန်မြို့နယ်	-11.2049
၄၀၀	-11.2049
ဘော့များပြ	-11.205
ကျည်	-11.205
ပါရှိသည်။	-11.2051
န်ဝီကီဒေတာပြရန်၁	-11.2052
ထည့်သွင်းခြင်းပြ	-11.2052
▁မစ္စ	-11.2054
ရှုပ်	-11.2054
လူပုဂ္ဂိုလ်	-11.2054
▁တည်ဆောက်ခဲ့သည်။	-11.2056
▁ပခုက္ကူမြို့	-11.2056
▁၁၂၅	-11.2057
▁လာအိုနိုင်ငံ	-11.2057
၁၉၈၃	-11.2058
အထိမ်းအမှတ်အဖြစ်	-11.206
အာဏာကို	-11.2061
▁ဟား	-11.2062
တိုင်းမှူး	-11.2063
▁အသုံးအဆောင်	-11.2063
▁ပြည်မ	-11.2065
ခိဘူတာ	-11.2066
ကိုင်တွယ်	-11.2067
ထင်း	-11.2067
▁ကင်မရာ	-11.2067
ပြည်နယ်နှင့်	-11.2067
▁ရှုံးနိမ့်	-11.2071
▁စည်းလုံးညီညွတ်	-11.2072
ဟိုပန်ခရိုင်၊	-11.2075
။၉	-11.2075
မုခ	-11.2075
ကျောင်းမှ	-11.2078
▁မိဘများ	-11.2079
တင့်တယ်	-11.2082
ဆုရရှိ	-11.2082
ဖြောင့်	-11.2082
▁အချက်အချာ	-11.2082
▁ကွဲ	-11.2085
ကြားမှုအရင်းခံ	-11.2085
▁မိုက်ကယ်	-11.2085
ဇူး	-11.2085
▁စီးကို	-11.2086
▁အလယ်တန်း	-11.2087
သွားပါတယ်	-11.2088
▁ကိုယ်တော်	-11.2089
မှုတ်	-11.2089
အပါး	-11.2092
▁ပတ်သက်သည့်	-11.2093
▁ဆိပ်ဖြူမြို့နယ်	-11.2094
▁စစ်သုံ့ပန်း	-11.2094
ချောင်း၊	-11.2095
ခြင်းအတွက်	-11.2096
ဘန့်ဘွေးကုန်းရွာ	-11.2096
▁အသုံးပြုခဲ့ကြ	-11.2096
▁သုံးမျိုး	-11.2096
ထရာ	-11.2096
▁ပစ္စည်းဥစ္စာ	-11.2098
▁ဖန်တီးမှု	-11.2101
▁ခိုလှုံ	-11.2101
ကြေ	-11.2103
နေထိုင်သူ	-11.2103
▁တိဘက်	-11.2105
မဂ်	-11.2107
▁ကက်သလစ်	-11.2108
၁၉၇၁	-11.211
▁ရူ	-11.2111
သင့်သော	-11.2111
ာဘိဝံသ	-11.2113
▁၁၁၃	-11.2113
▁ယင်းကဲ့သို့	-11.2114
သီတာ	-11.2114
ခဲ့ပေ	-11.2114
▁မြား	-11.2117
တူညီ	-11.2119
▁ချီးမြှင့်ခြင်း	-11.2119
၁နိမ့်ဆင်းမှု၁	-11.212
▁အကူအညီပေး	-11.2122
▁လေကြောင်းဖြင့်	-11.2123
▁သက္ကတ	-11.2124
မရှိတော့	-11.2125
ဖျင်း	-11.2128
▁အလုံးစုံသော	-11.2129
▁ပြုံး	-11.213
▁ခေါ	-11.2132
ကိုမျှ	-11.2132
▁တစ်ခါတစ်ရံတွင်	-11.2132
▁စံပြ	-11.2132
▁အမြတ်	-11.2134
ပတိ	-11.2134
▁ဒေဝ	-11.2137
▁တွေ့မြင်ရ	-11.214
▁ဖြစ်ရာ	-11.2141
▁မပြုလုပ်	-11.2141
▁အပူပိုင်းဒေသ	-11.2143
ကြော့	-11.2144
▁၁၈၈၆	-11.2144
ဖင်	-11.2144
တဲ့အချိန်	-11.2144
ခေါ်ယူ	-11.2145
ခဲ့ပြီ	-11.2145
▁ကံမမြို့နယ်	-11.2146
▁အကြီး	-11.2146
ဖော်ဆောင်	-11.2146
တည်း၊	-11.2146
▁ပြောင်းလဲခဲ့သည်	-11.2147
ဂွန်	-11.2147
မှောက်	-11.2147
ုပ်ပိုင်းဆိုင်ရာ	-11.2148
၁၉၇၃	-11.2151
▁ထိန်းချုပ်နိုင်	-11.2152
▁စရိတ်	-11.2154
ဒ္ဓ	-11.2159
▁ဗန်းမောက်	-11.2159
ခန္ဓာ	-11.216
▁တပ်ဖွဲ့များ	-11.216
▁မူဆယ်	-11.2163
ပျံ့	-11.2165
ဟင်္သာ	-11.2165
▁ဖွံ့ဖြိုးဆဲ	-11.2169
▁ပိဋကတ်တော်	-11.217
သည်။၅	-11.217
လှောင်	-11.217
ဒါယက	-11.2172
▁၁၀၀၀၀	-11.2173
▁ဆိုတာကို	-11.2175
စေနိုင်	-11.2175
▁သေးငယ်	-11.2181
▁သံလိုက်	-11.2184
▁ဝန်းရံ	-11.2187
အားထုတ်	-11.219
မြန်မာခေတ်များ	-11.2191
▁ပြောသည်	-11.2191
▁ဤသို့သော	-11.2192
▁ပြောက်ကျား	-11.2195
▁ဉ	-11.2197
ညဉ့်	-11.2198
အဖွဲ့နှင့်	-11.2199
▁ပစ်သတ်	-11.2202
ပလ	-11.2205
များအားလုံးကို	-11.2205
▁ပြောင်	-11.2206
▁မှော်	-11.2207
လီယာ	-11.2208
▁ခန့်တွင်	-11.2208
လေတော့သည်။	-11.2209
▁နည်းစနစ်	-11.221
▁မြင့်မားသော	-11.221
▁ကိုယ်ကျင့်တရား	-11.2213
▁ဟိုက်ဒရိုဂျင်	-11.2214
တိုက်ပွဲတွင်	-11.2214
အောင်ဆန်းစုကြည်၏	-11.2214
နှလုံး	-11.2215
အခန်းကဏ္ဍ	-11.2215
▁ရှေ့ဆက်	-11.2215
ကလဲ	-11.2216
▁ရန်ကုန်မြို့ရှိ	-11.2217
▁တံတားဦးမြို့နယ်	-11.2217
ဒေါသ	-11.2218
▁ဖေ	-11.2219
▁ရန်ကုန်မြို့၌	-11.2219
▁ခိုင်း	-11.2221
တံတားဦးမြို့နယ်	-11.2222
▁အင်ပိုင်ယာ	-11.2222
▁လျော့နည်း	-11.2224
ွယ်	-11.2224
သက်ရောက်မှု	-11.2224
▁အပန်းဖြေ	-11.2225
ထနောင်းကုန်းရွာ၊	-11.2226
▁မြစ်သားမြို့နယ်	-11.2227
နိုင်ငံအဖြစ်	-11.2228
မိန်းကလေး	-11.2229
တခုကို	-11.223
▁ရောမမြို့	-11.2231
အတု	-11.2231
▁တွန်း	-11.2231
▁မြေဩဇာ	-11.2232
▁မွေးမြူရေး	-11.2232
▁သူကိုယ်တိုင်	-11.2234
ရမယ်လို့	-11.2236
ဘောလုံးအသင်း	-11.2237
အနေ	-11.2239
ယတ်	-11.224
ခဲ့ပါသည်။	-11.2241
▁ပွဲတော်များ	-11.2243
▁တစ်စိတ်တစ်ဒေသ	-11.2243
▁မရှိချေ။	-11.2243
▁တန်ချိန်	-11.2248
▁မြန်မာ့ရိုးရာ	-11.2248
▁ယုဒ	-11.2249
လေကြောင်းလိုင်း	-11.2249
▁ကျောက်တုံး	-11.2249
၁၉၆၄	-11.225
▁အရေးပါသည့်	-11.225
▁အဓိ	-11.225
မဟုတ်ပေ။	-11.2251
ကောက်ယူ	-11.2251
▁နားမလည်သော	-11.2251
▁အိမ်ထောင်ပြု	-11.2253
▁မကောင်းသော	-11.2253
▁နှုန်း	-11.2254
ကျဆုံး	-11.2254
▁နေထိုင်ကြသော	-11.2254
စေကာ	-11.2256
▁နှစ်ပါး	-11.2259
ကောင်စီသည်	-11.2259
▁သီဟိုဠ်ကျွန်း	-11.226
▁သင်္ဘောများ	-11.2261
▁ထိန်းချုပ်မှု	-11.2261
▁ပဲခူးမြို့	-11.2262
ဠာ	-11.2262
စေဖို့	-11.2262
တိတ်	-11.2264
။၁၄	-11.2265
ရမည်ဖြစ်သည်။	-11.2267
▁ရှိသည်။၁	-11.2268
▁ကလပ်	-11.2269
▁အချိန်ဇုန်	-11.2269
ပိုင်ဆိုင်သူ	-11.227
▁လုပ်သား	-11.227
ကွဲပြားမှု	-11.2271
စခန်းများ	-11.2271
▁ထွက်သွား	-11.2273
▁သံတွဲ	-11.2273
အစိုးရကို	-11.2273
သတင်းဌာန	-11.2273
▁မြန်မာလို	-11.2274
အားပေး	-11.2274
ပိုင်နက်	-11.2275
အရက်	-11.2276
မြို့ပြ	-11.2278
▁အနော်ရထာ	-11.2281
နေသော်လည်း	-11.2281
ဖာပွန်မြို့နယ်	-11.2281
▁သတ္တိ	-11.2283
▁ခေတ်ပေါ်	-11.2285
▁မိုးရွာ	-11.2288
နိုင်ငံများသို့	-11.2289
▁သေဆုံးခဲ့ပြီး	-11.2289
▁တုန်လှုပ်	-11.2289
ဂတ်	-11.229
▁၁၈၂၄	-11.229
▁၁၉၁၃	-11.2291
▁ဆံတော်	-11.2291
▁ဘူ	-11.2292
▁တပ်ဖွဲ့ဝင်	-11.2292
▁စူပါ	-11.2292
ကတော်	-11.2293
▁ဝက်ဘ်ဆိုဒ်	-11.2293
တောင်မှ	-11.2296
▁ရှိရာ	-11.2297
ဒေါက်	-11.2298
ည်	-11.2299
မြေပြင်	-11.2301
မြစ်ကြီးနားမြို့	-11.2302
▁အမည်ညွှန်း	-11.2302
▁သောင်	-11.2303
▁ဧချင်း	-11.2306
အရိုး	-11.2306
▁ပေါများ	-11.2307
▁၁၆၈	-11.2308
▁တရားဥပဒေ	-11.2309
▁အမည်များ	-11.2309
တားမြစ်	-11.2311
▁အမည်မှာ	-11.2315
ထိုင်းနိုင်ငံရှိ	-11.2315
ဘက်ခြမ်း	-11.2315
▁ကွာရှင်း	-11.2318
ခြင်းများကို	-11.2319
▁သာမက	-11.2319
▁အာသံ	-11.232
တူးဖော်	-11.232
▁ရှယ်ယာ	-11.232
သူရဲကောင်း	-11.2322
▁မင်းတို့	-11.2323
▁၂၁၂	-11.2323
ဇေယျ	-11.2323
ဂေါင်း	-11.2324
▁မှတ်ချက်ပြု	-11.2325
▁မြန်	-11.2326
▁တိုးပွား	-11.2326
ဖြစ်ရုပ်ကြွင်း	-11.2327
စေမည့်	-11.2329
▁စာသားကို	-11.2329
▁အဖွဲ့၏	-11.2332
ခဲ့တာကြောင့်	-11.2332
▁တစ်နည်းအားဖြင့်	-11.2334
▁ပူး	-11.2335
▁အစီအစဉ်များ	-11.2338
ဘဝကို	-11.2338
တော်၊	-11.2342
ဗြဟ္မာ	-11.2343
▁အောင်လံမြို့နယ်	-11.2346
ကယ်လီဖိုးနီးယား	-11.2346
▁မြန်မာအစိုးရ	-11.2346
▁အနီးရှိ	-11.2346
အခေါ်အဝေါ်	-11.2347
ပါလျှင်	-11.2347
▁ကုလ	-11.2349
ကိုးကွယ်သည့်ဘာသာ	-11.235
ဝယ်၊	-11.2351
▁ကွမ်	-11.2352
မိုင်းကိုင်	-11.2352
ရရှိရန်	-11.2352
ကြသောကြောင့်	-11.2354
▁ပါတီ၏	-11.236
▁မီးခိုး	-11.2361
▁သာလွန်	-11.2362
ဘော့	-11.2363
ရာဒေသ	-11.2364
▁တရားခံ	-11.2366
တော်မြတ်	-11.2366
▁ထင်ရှားသည်	-11.2368
▁အဖွဲ့ဝင်အဖြစ်	-11.237
စည်းမျဉ်း	-11.2371
စာလုံးပေါင်း	-11.2371
▁တောင်ငူမြို့နယ်	-11.2372
သင်ယူ	-11.2372
တမန်	-11.2375
ဆိုဒ်	-11.2377
▁မြေယာ	-11.2377
ဆိုရှယ်လစ်	-11.2377
▁ယူနစ်	-11.2377
▁ကူးယူ	-11.2378
ပေးသူ	-11.2379
ခြင်္သေ့	-11.2381
၁၉၈၅	-11.2381
သုံးစွဲမှု	-11.2383
ရှဲ	-11.2384
အမေ	-11.2386
အရောက်တွင်	-11.2387
▁ပဓာန	-11.2387
အင်္ကျီ	-11.2388
ဆက်ခံ	-11.2388
▁အန်း	-11.2389
ရေးသားသော	-11.2389
အတိုင်ပင်ခံ	-11.2389
အီရန်	-11.239
▁လှိုင်	-11.2391
▁လဲလှယ်	-11.2391
ဥပဒေအရ	-11.2391
နေကြတဲ့	-11.2393
ကိုပဲ	-11.2394
အပြုအမူ	-11.2394
လမ်းကို	-11.2395
ကြကုန်သော	-11.2396
လျ	-11.2396
▁ထိပ်ဆုံး	-11.2396
သရက်	-11.2396
ခြင်းဖြစ်ပြီး	-11.2397
မိဘများ	-11.2397
င္း	-11.2398
▁ဖြစ်ခြင်း	-11.2398
▁လူသတ်မှု	-11.2398
▁င်းပြင်	-11.2399
▁ညာဘက်	-11.24
မုခ်	-11.2401
ဘုရင်ခံ	-11.2403
▁အသေ	-11.2403
ပရ	-11.2404
▁လက်တွဲ	-11.2405
▁ဓာတ်တော်	-11.2407
လိုသူ	-11.2407
▁စန္ဒ	-11.2407
သေးပေ။	-11.2408
ထုထည်	-11.2409
▁ထုတ်လွှတ်	-11.241
ိန္ဒ	-11.2411
အယ်လ်ဘမ်	-11.2412
▁မြောက်ရွာ	-11.2412
▁ကမ်	-11.2412
င်းပါးတိုတစ်ပုဒ်	-11.2412
ကြီးမားသော	-11.2412
▁ပရ	-11.2413
▁စည်းစိမ်	-11.2414
ထားကြ	-11.2414
▁အသုံးများ	-11.2415
ထာဝရ	-11.2416
ရသောကြောင့်	-11.2416
▁နှလုံးသွင်း	-11.2417
ထားနိုင်	-11.2417
▁တို့ဖြစ်သည်	-11.2418
ထုတ်လုပ်သူ	-11.2418
သီးခြား	-11.2419
▁ရရှိရန်	-11.2419
▁နွယ်	-11.2421
ကုန်းပြည်ခရိုင်၊	-11.2421
▁အစာအိမ်	-11.2422
တော်မမူ	-11.2423
▁ငယ်စဉ်ကပင်	-11.2424
ယိုးဒယား	-11.2424
ိပ်	-11.2429
▁ဦးမြင့်ဆွေ	-11.243
▁မသေ	-11.2431
တစ်ခုဖြစ်သော	-11.2432
ဂန်း	-11.2433
▁အဆောက်အဦးများ	-11.2434
အခြေခံဥပဒေအရ	-11.2434
ရင်လည်း	-11.2435
▁ဦးနေဝင်း	-11.2437
တောင်းပန်	-11.2438
▁ခြံ	-11.2442
ရာဇဝတ်မှု	-11.2442
ုတ်	-11.2443
▁များပြားလာ	-11.2443
သည့်အခါတွင်	-11.2444
အထောက်အပံ့	-11.2445
▁၀၅၄	-11.2448
▁ကွပ်မျက်	-11.2451
နိုင်ငံသားအလိုက်	-11.2452
၂၀၈	-11.2452
အဖြေ	-11.2452
▁ခန့်အပ်ခဲ့သည်။	-11.2452
▁ဆန်းစစ်	-11.2454
အနီ	-11.2456
▁တခါတရံ	-11.2457
တို့ထက်	-11.2457
▁မှစ၍	-11.2461
မ္ဗ	-11.2463
နှာပြင်အမြင့်	-11.2463
အသုံးပြုသော	-11.2464
▁ပင်ကို	-11.2464
▁ယူကရိန်းကို	-11.2465
▁မင်းတပ်မြို့နယ်	-11.2465
ပေးခြင်းဖြင့်	-11.2465
။၁၂	-11.2466
▁ဆောင်ပုဒ်	-11.2467
▁ပျောက်ဆုံး	-11.2469
▁အုတ်ဖိုမြို့နယ်	-11.2469
ခဲ့ချေ။	-11.2472
ပြန်ညွှန်းအသစ်	-11.2473
▁ကဲ့ရဲ့	-11.2473
▁ကယ်တင်	-11.2476
▁ကူညီပါ။	-11.2478
ဗွီ	-11.2478
လွင့်	-11.2478
ရှိနေပါတယ်	-11.2478
▁ထုံ	-11.2478
သားကို	-11.2479
▁ဖွားမြင်ခဲ့သည်။	-11.248
ကြူး	-11.2482
▁အခြေခံပြီး	-11.2483
တန့်ဆည်မြို့နယ်	-11.2483
▁၃ပါး	-11.2484
▁၁၁။	-11.2484
▁အင်ဂျင်	-11.2485
▁ပျောက်ကွယ်	-11.2487
▁အပြီး	-11.2487
▁အလျောက်	-11.249
ဩစတြေးလျနိုင်ငံ	-11.2491
ပဲခူးမြို့နယ်	-11.2492
နှေး	-11.2492
▁ပုသိမ်ကြီး	-11.2496
၊။တွင်	-11.2498
ရထားလမ်း	-11.2501
▁ထိခိုက်စေ	-11.2501
▁သံလွင်	-11.2501
▁ချည်	-11.2504
▁မဟုတ်၊	-11.2506
ဂျုံ	-11.2508
▁အနော်ရထာမင်း	-11.2512
နယ်ဘယ်ကလင့်ထားလဲ	-11.2512
▁မြန်မာတို့၏	-11.2514
▁တွေ့မြင်နိုင်	-11.2515
▁၁၀။	-11.2515
ခဲ့သူဖြစ်သည်။	-11.2516
▁ဘီအေ	-11.2518
▁ရေတွင်း	-11.2519
ဒ္ဒ	-11.2521
▁သားသမီးများ	-11.2522
ဟယ်	-11.2522
▁သတ်မှတ်ခြင်း	-11.2523
▁ထုတ်ပယ်	-11.2524
မျက်နှာပြင်အထက်	-11.2526
သပြေ	-11.2527
▁ထာဝရ	-11.2528
▁အကျုံးဝင်	-11.2528
ကဏ္ဍများ	-11.2529
ရေစကြိုမြို့နယ်	-11.253
▁ရွှေပြည်သာ	-11.2531
▁ကျိုး	-11.2532
ရုပ်သံ	-11.2534
လွယ်ကူ	-11.2534
ကြူ	-11.2537
စလင်းမြို့နယ်	-11.2538
▁ပေါ်ထွန်းလာ	-11.2539
▁ဂရိနိုင်ငံ	-11.2539
▁အစ္စလာမ့်	-11.254
▁ဟိမဝန္တာ	-11.254
▁အံ့ဖွယ်	-11.2541
နာ၊	-11.2542
▁ကြည်	-11.2543
▁ကွာခြား	-11.2543
▁တာဝန်ရှိ	-11.2543
နယ်မှ	-11.2544
ြောက်အမေရိကတိုက်	-11.2545
။၇	-11.2547
▁၁၀၃	-11.2547
ဗီဒီယို	-11.2548
ဖြန့်	-11.2549
▁ပြန်ပို့	-11.2551
ဘာဝ	-11.2552
ပင်လယ်ကွေ့	-11.2553
▁စစ်ကဲ	-11.2553
တဲ့အခါမှာ	-11.2554
▁သုံးဆယ်	-11.2554
တည်ရှိနေ	-11.2554
လျှာ	-11.2554
▁၁၃၀	-11.2556
▁ဖြည့်	-11.2558
▁ဆုတ်ယုတ်	-11.2558
၂၇၃	-11.256
ဘုရင်၏	-11.256
ဖြစ်သလို	-11.2561
လိုသဖြင့်	-11.2562
▁ထိုနေ့	-11.2564
▁ပိတ်ထား	-11.2564
ထို့အပြင်	-11.2565
များကိုမူ	-11.2566
▁နည်းနည်း	-11.2567
အောက်၌	-11.2568
မှုတို့ကို	-11.2568
▁တစ်ဆူ	-11.2569
▁လူမျိုးစုများ	-11.2569
▁တို့ဖြင့်	-11.2569
နည်းပါး	-11.2569
အင်းရွာ၊	-11.2571
ထယ်	-11.2571
ဘုရားရှင်	-11.2572
▁မျှဝေ	-11.2573
▁ကျောက်စိမ်း	-11.2573
▁ဖြစ်ပျက်	-11.2575
နိုင်လောက်အောင်	-11.2576
▁ဆရာတော်ကြီး	-11.2577
▁ပညတ်	-11.2579
လေ့ရှိပါတယ်	-11.2579
ဝန်ဆောင်မှုများ	-11.2581
၁၀၈	-11.2582
▁တောင်းဆိုမှု	-11.2583
▁ယူရို	-11.2584
▁လူနေမှု	-11.2585
▁လှည့်	-11.2585
သွားသည့်	-11.2586
▁ရေအောက်	-11.2587
လျာ	-11.2589
▁အကျိုးအမြတ်	-11.2589
တားဆီး	-11.2593
တွေမှာလည်း	-11.2594
ဖြစ်ထွန်း	-11.2594
▁အပြာ	-11.2596
▁အကြီးစား	-11.2597
▁အိတ်	-11.2597
▁ကျောက်မဲ	-11.2597
တစ်ခုဖြစ်သည့်	-11.2598
၅၉၊	-11.26
▁စိတ်ကူးယဉ်	-11.26
▁လက်နက်ကြီးဖြင့်	-11.26
နဲ့ပတ်သက်လို့	-11.2601
▁ရွေ့ပြောင်း	-11.2602
ခန့်တွင်	-11.2603
တောင်ငူမြို့နယ်၊	-11.2605
▁လိပ်ပြာ	-11.2606
▁မပြတ်	-11.2611
▁မရှိသေး	-11.2611
▁ဆိုရင်	-11.2612
တာလဲ	-11.2613
တော့ပေ။	-11.2615
နေလို့	-11.2616
နှင့်ပတ်သက်ပြီး	-11.2617
စောင့်ကြည့်	-11.2617
ခြ	-11.262
▁ရွှေရောင်	-11.2621
▁သူကြီး	-11.2622
ယိုင်	-11.2622
▁အလယ်တွင်	-11.2626
▁ဂုဏ်ထူး	-11.2627
▁ဇေတဝန်ကျောင်း၌	-11.2628
▁ထပ်တိုး	-11.2628
▁ကထိက	-11.2631
▁ပို့ကုန်	-11.2633
▁အထက်တွင်	-11.2633
ခြယ်	-11.2634
▁အထောက်အကူ	-11.2634
မှန်သမျှ	-11.2635
▁ပါဝင်ပါတယ်	-11.2635
▁အချက်များ	-11.2636
မှောင်	-11.2636
ဂျူ	-11.2638
▁ချင်	-11.2639
လက်ဆောင်	-11.2639
▁တကယ့်	-11.264
▁တပ်မတော်က	-11.2641
သည်ဖြစ်၍	-11.2641
▁ဖော်ပြထားပါတယ်	-11.2644
▁၈၇	-11.2645
အတွင်းဝန်	-11.2647
▁အလေ့အထ	-11.2648
▁စာတိုက်	-11.265
လေးကို	-11.265
ကာယ	-11.265
ဘ၀	-11.265
▁မိတ်	-11.2651
▁တွေး	-11.2652
▁စစ်တက္ကသိုလ်	-11.2653
ပါရှိသော	-11.2653
ကျော်ကြား	-11.2653
▁သုံးကြိမ်	-11.2654
ကောလင်းမြို့နယ်	-11.2654
ချိန်၌	-11.2654
သီး၊	-11.2655
ဆေးများ	-11.2655
▁ညွန့်ပေါင်း	-11.2659
ခြင်းသဘော	-11.266
ချ၍	-11.2661
လမ်းပိုင်း	-11.2662
▁စဉ့်ကူးမြို့နယ်	-11.2663
▁ပါဝင်နေ	-11.2664
လာပြီ	-11.2665
ကြပေ။	-11.2665
▁မြေမျက်နှာပြင်	-11.2666
လက်တင်	-11.2666
▁ထိတ်လန့်	-11.2667
ဓာတ်အားပေးစက်ရုံ	-11.2668
▁ကျန်းမာရေးနှင့်	-11.2668
အုပ်ချုပ်ခွင့်	-11.2669
တောင်ကြီးမြို့	-11.267
▁ဝီလျံ	-11.2672
အမှား	-11.2673
မြစ်နှင့်	-11.2674
▁ဖြစ်ခဲ့	-11.2675
▁ရက်အထိ	-11.2676
▁အပို	-11.2678
▁ကနောင်မင်းသား	-11.2682
▁အတတ်	-11.2683
ဇာတ်လမ်းတွဲ	-11.2683
▁ဒေတာကြယ်စုတန်း	-11.2684
စေရာ	-11.2685
ကလ	-11.2687
့ပြည်တွင်းစစ်	-11.2688
▁စစ်တွေမြို့	-11.2688
▁ဦးထွန်း	-11.2689
ကြိမ်မြောက်	-11.269
သွန်း	-11.269
▁အပေါက်	-11.2691
▁စကားလုံးများ	-11.2693
ကြာမြင့်	-11.2694
ဒေသမှာ	-11.2695
▁တက္ကသိုလ်မှ	-11.2695
▁မှည့်ခေါ်	-11.2695
▁ခွဲခြမ်းစိတ်ဖြာ	-11.2696
ပါလို့	-11.2697
▁ခရိုင်များ	-11.2697
▁ကွယ်လွန်သည်။	-11.2698
သရွေ့	-11.2698
အဖွဲ့တွေ	-11.2702
▁ကိုယ်ရေး	-11.2702
▁အင်္ဂလိပ်အစိုးရ	-11.2707
ပို့ဆောင်	-11.2708
ဩဝါဒ	-11.2709
ဆန်ခါတင်	-11.2711
ပထဝီ	-11.2711
ပညတ်	-11.2712
▁ကုန်ဆုံး	-11.2714
▁အစပြု	-11.2716
အခမဲ့မဟုတ်သော	-11.2716
တမ်	-11.2717
▁ရွှံ့	-11.2717
၊သီပေါမြို့နယ်၊	-11.2718
နှင့်လည်း	-11.2718
အားလုံးအ	-11.2718
ချွန်း	-11.2719
ပြုသော	-11.2721
အမှတ်တံဆိပ်	-11.2722
▁အပွင့်	-11.2725
▁ခေတ်အဆက်ဆက်	-11.2729
သေး၏။	-11.273
နိုင်ငံများမှ	-11.2731
▁မရှိခြင်း	-11.2731
ခန္ဓာကိုယ်	-11.2733
▁ဤအက်ဥပဒေကို	-11.2733
▁ဆန္ဒပြမှုများ	-11.2734
ပြီ။	-11.2738
▁တပ်မတော်၏	-11.2739
ဤသို့	-11.274
▁အလေးထား	-11.2742
▁အကျိုးရှိ	-11.2742
စတဲ့	-11.2746
▁နေရာဒေသ	-11.2748
▁မရှိကြောင်း	-11.275
▁အကောင်အထည်	-11.2751
▁ဆက်ပြီး	-11.2751
▁ဗလ	-11.2751
တစ်ဦးဖြစ်သူ	-11.2751
သည်ဖြစ်စေ	-11.2753
ဇုံ	-11.2754
ထုတ်လုပ်ခြင်း	-11.2754
▁ရေးသားခြင်း	-11.2754
တပ်ပေါင်းစု	-11.2755
▁တင်ပို့ရောင်းချ	-11.2755
လီယို	-11.2755
နေကြရ	-11.2758
နဲ့ပတ်သက်ပြီး	-11.2759
▁ဆိုနိုင်သည်။	-11.2759
▁အားကိုး	-11.2761
▁ဒရယ်	-11.2761
ုမ်း	-11.2761
▁ရဟန်းတော်များ	-11.2763
▁ကျောင်းသူ	-11.2764
ပိုမိုကောင်းမွန်	-11.2766
▁ပါဝင်ယှဉ်ပြိုင်	-11.2766
လက်တွေ့	-11.2769
ရက်စ်	-11.277
▁မစား	-11.2771
▁မင်းရဲ	-11.2772
မီဒီယာဝီကီ	-11.2772
▁အတည်ပြုထားသော	-11.2774
ပါပဲ။	-11.2776
ရှေ	-11.2776
ဖျက်သိမ်း	-11.2776
၁၉၉၈	-11.2779
စီမံကိန်းနှင့်	-11.2779
▁မြင်းစီး	-11.2782
ခံနေရ	-11.2782
▁၁၉၀၁	-11.2783
ဂမ်	-11.2784
ဘိုင်	-11.2785
▁ပွား	-11.2785
အဖြစ်မှ	-11.2785
▁ဗကပ	-11.2787
▁၀၂	-11.2788
▁ထွက်ပြေးသွား	-11.2788
▁ချုံ	-11.2789
▁ကျယ်	-11.2789
▁ပြောင်းလဲလာ	-11.2789
ပါဘူး။	-11.2791
ဒဿနိကဗေဒ	-11.2791
ရမည်ဖြစ်ကြောင်း	-11.2792
ခေါင်းလောင်းကြီး	-11.2792
▁လုပ်ပေး	-11.2794
အားလုံးသည်	-11.2796
ထက်ပို	-11.2796
▁ဖင်လန်	-11.2797
▁အမည်စာရင်း	-11.2798
ရွေးကောက်ပွဲ၊	-11.2799
နွေရာသီ	-11.2799
ခဲ့ကြသော်လည်း	-11.2799
တစ်စောင်	-11.2799
ဩဝါဒစာ	-11.2799
▁သုတ်သင်	-11.28
▁ငါးပါး	-11.28
▁ထို့နောက်တွင်	-11.28
ပေမည်။	-11.2801
။၂၃	-11.2801
လိုက်ရာ	-11.2802
▁ငို	-11.2805
▁ကိုလံဘီယာ	-11.2807
▁တက်လာ	-11.2807
▁ချိန်	-11.281
▁ဖွတ်	-11.281
▁သက်သက်	-11.2812
မျိုးစု	-11.2812
ဘူတာမှ	-11.2812
▁နွေ	-11.2813
▁ခိုးယူ	-11.2813
▁တစ်ဦးတစ်ယောက်	-11.2813
▁၁၃၀၀	-11.2815
ဒီမိုကရေစီပါတီ	-11.2816
▁လောင်းကစား	-11.2817
မြို့ရိုး	-11.2817
အဖြစ်လည်း	-11.2817
▁အကြောင်းတရား	-11.2818
▁လူသိများသော	-11.282
မရှိချေ။	-11.282
▁နယ်သာလန်	-11.2821
▁ကျယ်ဝန်း	-11.2823
▁ထောင်စုနှစ်	-11.2826
▁ကတိ	-11.2827
ကမ္မဋ္ဌာန်း	-11.2827
▁အတုအယောင်	-11.2827
ကျရွာ၊	-11.2828
▁ဖြစ်ပွားသော	-11.2829
ဖုံ	-11.2831
ရပေသည်။	-11.2831
ငြိမ်	-11.2831
ငရဲ	-11.2833
လိမ္မာ	-11.2833
ထားတာပါ	-11.2834
▁ပုံနှိပ်တိုက်	-11.2835
မျက်နှာသွင်ပြင်	-11.2835
▁ဝါဒဖြန့်	-11.2835
ခဲ့ကြကြောင်း	-11.2836
▁ဒုံး	-11.2837
▁အာလူး	-11.2837
လုပ်ရန်	-11.2839
ပါလျက်	-11.2839
သားများသည်	-11.2841
နိုင်ငံတော်၏	-11.2841
▁ရန်ကုန်မြို့၊	-11.2842
▁စစ်တမ်း	-11.2842
▁မြန်မာစကား	-11.2845
သဲကုန်းမြို့နယ်	-11.2845
ကျောင်းသူ	-11.2847
မိုင်ရွာ၊	-11.2848
တစ်စု	-11.2849
လှပေသည်။	-11.285
၁၉၄၆	-11.2851
▁စစ်စခန်း	-11.2852
၁၉၇၈	-11.2853
မျိုးဖြင့်	-11.2854
ပြပွဲ	-11.2854
ငှား	-11.2854
ကြွင်း	-11.2855
တိုက်ကြီးများ	-11.2856
တည်ဆောက်မှု	-11.2858
▁အတောင်	-11.2862
▁လူငယ်များကို	-11.2862
၁၀၂	-11.2862
တွင်ပါဝင်သော	-11.2862
တွဲဖက်	-11.2864
ရုံ၊	-11.2865
▁ဒိုက်ဦးမြို့နယ်	-11.2867
▁ကာလပတ်လုံး	-11.2868
▁ဆေးခန်း	-11.2868
▁အက်ဖ်	-11.287
အင်ပိုင်ယာ	-11.287
▁သို	-11.2871
င်းပြုသည်ရှိသော်	-11.2872
အဝတ်	-11.2874
▁မနီလာ	-11.2875
▁အဖန်ဖန်	-11.2875
စည်းရုံး	-11.2876
ဂျော	-11.2877
ဗြိတိန်	-11.2877
▁အကောင်း	-11.2879
ကော်မရှင်က	-11.288
သေချာ	-11.288
၁၉၇၉	-11.2881
အုပ်စုများ	-11.2881
ဆန်ဆန်	-11.2882
▁ကျေးဇူးတင်	-11.2883
ကားလမ်း	-11.2883
▁ပါလာ	-11.2885
ဘွဲ့ခံ	-11.2886
▁လုပ်ဆောင်နေ	-11.2888
▁တည်ငြိမ်	-11.289
တစ်ခုနှင့်	-11.289
▁ငြိမ်းချမ်းစွာ	-11.2891
အရပ်သို့	-11.2891
ာနံ	-11.2891
▁တာဝန်များ	-11.2892
၁၂၈	-11.2897
များထံ	-11.29
▁ခုနှင့်	-11.29
▁ဒီးမော့ဆို	-11.2901
ပြီးခဲ့သည့်	-11.2901
▁ပါရှိသော	-11.2901
▁လူး	-11.2902
လှေကား	-11.2902
▁ကုန်းလမ်း	-11.2904
သည့်အလျောက်	-11.2905
▁အိမ်တော်	-11.2906
သုံးဆယ်	-11.2907
▁လိုချင်	-11.2908
သင်ခန်းစာများ	-11.2908
တစ်ခုလည်း	-11.2909
ခွဲ၍	-11.2912
▁၀၃၅	-11.2914
ဇာတ်ဗုဒ္ဓဘာသာ	-11.2915
▁အု	-11.2918
ပြက်	-11.2918
လျှပ်စစ်စွမ်းအား	-11.292
▁ဇို	-11.292
▁စာဆိုတော်များ	-11.2921
▁ဦးရွှေ	-11.2921
တည့်	-11.2922
ကိတ်	-11.2922
▁ကြိတ်	-11.2922
▁၇၀၀	-11.2923
ွက်	-11.2926
ဖွဲ့စည်းခဲ့သည်။	-11.2927
ငဲ့	-11.2929
ဂျော့	-11.293
ကြီး၊မကွေးခရိုင်	-11.293
ဖလ	-11.2931
▁တစ်ဝက်	-11.2931
▁ခေါင်းလောင်း	-11.2933
လိုး	-11.2933
▁နံ့သာ	-11.2936
▁ရိုသေ	-11.2937
နေပါပြီ	-11.2938
▁အဆ	-11.2938
အပိုင်းသစ်စာတွဲ	-11.294
▁အာဖဂန်နစ္စတန်	-11.294
▁နောက်ကျ	-11.294
▁၀၅၅	-11.2942
▁ပြတ်	-11.2942
၂ဝ	-11.2942
တိုင်းကို	-11.2943
ဖြစ်ရန်	-11.2943
▁သဘင်	-11.2943
ဆုံးရှုံး	-11.2945
ဖြစ်ပါတယ်။	-11.2945
မိုင်းယန်း	-11.2946
ဇိုင်း	-11.2946
▁သမ္မတများ	-11.2947
တတ်မြောက်	-11.295
▁ယဉ်ကျေးမှုများ	-11.2952
▁အော	-11.2952
▁ထင်ရှားစွာ	-11.2952
မြူး	-11.2953
▁အထွက်	-11.2953
▁မှန်ကန်သော	-11.2955
▁ဘူး	-11.2956
မြစ်၊	-11.2957
▁စစ်လက်နက်	-11.2958
ုံ	-11.2958
▁ဆင်ဖြူတော်	-11.2961
အကြမ်းဖက်စစ်တပ်က	-11.2964
▁ကွက်	-11.2965
ကြသည်ဟု	-11.2967
သူနှင့်	-11.2967
▁တပ်ရင်းမှူး	-11.2968
▁ကျေနပ်	-11.2969
မစား	-11.297
▁မဇ္ဈိမ	-11.2972
လျှင်လည်း	-11.2973
ဖြစ်တော်မူသော	-11.2973
ဒီပနီ	-11.2974
အောင်မြင်မှု	-11.2974
▁လွှတ်တော်အမတ်	-11.2974
▁နှစ်မြောက်	-11.2975
လေထု	-11.2975
▁ဖြုတ်ချ	-11.2976
▁လေယာဉ်ကွင်း	-11.2977
ဖွန်	-11.2977
သေးပါဘူး	-11.2978
ဆရာများ	-11.2979
ကြားမှာ	-11.298
▁ဂိုဏ်း	-11.2981
ပုသိမ်	-11.2981
ကမ္ဘာလုံးခြမ်း	-11.2981
ထောက်လှမ်းရေး	-11.2982
ပဋိ	-11.2983
မူဝါဒများ	-11.2983
နိယ	-11.2984
▁အင်္ကျီ	-11.2984
ကုန်းတွင်းပိတ်	-11.2985
▁အလီ	-11.2985
▁အုပ်ချုပ်သော	-11.2986
▁သိမ်းသွင်း	-11.2988
အလုံး	-11.299
နေကျ	-11.2991
ခံခဲ့ရသည်	-11.2992
ပါ၏။	-11.2992
ပရောဂျက်	-11.2992
အလောင်း	-11.2994
▁စားသောက်ဆိုင်	-11.2995
▁မိခင်ဖြစ်သူ	-11.2996
ပ်စ်	-11.2996
နေရင်း	-11.2996
▁အဲ့ဒီ	-11.2998
သေးသည်	-11.2999
များအားလုံး	-11.3
ရှေ့လောင်ဂျီတွဒ်	-11.3004
▁အသိအမှတ်	-11.3005
▁ခြေလျင်တပ်ရင်း	-11.3006
▁ဂျီဩမေတြီ	-11.3007
လာခဲ့ရာ	-11.3008
▁ဘန့်ဘွေး	-11.3008
ကျွန်းလှမြို့နယ်	-11.3009
▁အလယ်အလတ်	-11.3011
ကောက်ခံ	-11.3012
လေလေ	-11.3012
ပြစ်ဒဏ်	-11.3013
သံတမန်	-11.3013
▁ရစ်ချတ်	-11.3015
▁ပံ့ပိုးပေး	-11.3015
▁ဘာသာရေးဆိုင်ရာ	-11.3016
ကျမ်းများ	-11.3017
▁ယူကရိန်းနိုင်ငံ	-11.3017
သိမ်းတိုက်ပွဲ	-11.3019
ရှိနေပြီး	-11.3019
ဇယားများထည့်	-11.302
▁လွတ်လပ်	-11.3022
ပေးရ	-11.3022
▁မိန့်တော်မူကာ	-11.3023
▁လေးပါး	-11.3023
ဇေယျာ	-11.3024
ရန်ပုံငွေ	-11.3025
▁ကမ္ဘာ့ဖလား	-11.3025
▁ပိုင်းခြားထား	-11.3027
အလှူ	-11.303
▁နှစ်ပြည့်	-11.303
ကွန်မြူနစ်	-11.303
တို့တွင်လည်း	-11.3031
▁လျစ်လျူရှု	-11.3033
▁ဗာရာဏသီပြည်ဝယ်	-11.3033
လောက်ကိုင်	-11.3035
▁၁၆၉	-11.3035
▁ဖွဲ့စည်းထားသော	-11.3035
▁ထိမှန်	-11.3036
ဖေါက်	-11.3036
▁မှီခို	-11.3038
မေး၏။	-11.3038
အရေးကြီး	-11.3038
မြတ်နိုး	-11.3042
▁ပိုင်ရှင်	-11.3043
▁ငွေစက္ကူ	-11.3044
▁စာလုံးပေါင်း	-11.3047
တက်ကြွ	-11.3048
ပုံများကို	-11.3049
စို့	-11.305
▁သုတေသီ	-11.305
▁သွပ်	-11.3051
ရာဇ်	-11.3051
ဏိ	-11.3052
▁ငါးနှစ်	-11.3052
▁ကြည်းတပ်	-11.3053
▁၁၆၇	-11.3053
အလံတော်	-11.3055
▁ပထမတွဲ	-11.3056
▁ဘိုင်	-11.3056
▁ပထမဦးစွာ	-11.3057
အင်ဂျန်းယန်	-11.3057
၁၉၆၈	-11.3057
ုန်း	-11.3058
▁ဦးချို	-11.3058
▁စစ်အာဏာရှင်စနစ်	-11.3062
တကား	-11.3062
အကြီးဆုံးမြို့	-11.3063
နိုင်စွမ်းရှိ	-11.3064
▁စစ်တပ်မှ	-11.3064
ကျင့်စဉ်	-11.3066
▁ဘာသာပြန်ဆို	-11.3068
▁မနေ့က	-11.3068
▁ဧည့်သည်	-11.307
နေထိုင်မှု	-11.3071
▁ကျေးရွာများ	-11.3075
▁နှစ်ပတ်လည်	-11.3077
အီလက်ထရွန်	-11.308
▁လျော့	-11.308
ရှိကြသည်။	-11.3083
ကျေ	-11.3087
ပြည်သို့	-11.3088
▁ယူနန်ပြည်နယ်	-11.3088
ထွက်သွား	-11.3088
▁မြတ်နိုး	-11.3089
ထိုးစစ်	-11.309
ယန်ရွာ၊	-11.3091
အကြီး	-11.3092
၂၃၄	-11.3092
ဝင်ဘာဒီဇင်ဘာဝက်	-11.3092
ဗန်းမော်	-11.3096
ရန်ကုန်မြို့၊	-11.3096
▁ပျောက်ကွယ်သွား	-11.3096
▁သိသာ	-11.3096
ဇလုပ်	-11.3096
လိုအပ်သော	-11.3098
▁နံနက်ပိုင်း	-11.3098
ခဲ့တယ်။	-11.3099
▁စီးဖြင့်	-11.31
▁ကြီးထွား	-11.3101
▁တည်ရှိရာ	-11.3101
▁ပြောထားပါတယ်	-11.3108
တိမ်း	-11.3109
▁သဘောကျ	-11.3109
ဘဝတွင်	-11.3109
▁ဗုဒ္ဓဘာသာကို	-11.311
နွန်	-11.311
▁စာအုပ်ကို	-11.311
▁ကျောင်းအုပ်ကြီး	-11.311
ရေလက်ကြား	-11.3113
ထုတ်ပေး	-11.3115
▁အဂ္ဂ	-11.3116
ြန်မာလူပုဂ္ဂိုလ်	-11.3117
▁ဘာတွေ	-11.3118
▁ဂျိမ်း	-11.3118
နေရတဲ့	-11.3121
တွန့်	-11.3121
အဖွဲ့များက	-11.3122
ကပဲ	-11.3123
အတိုင်းပင်	-11.3123
▁ထုတ်ပြော	-11.3123
▁ကြီးကျယ်	-11.3123
တိုက်ရိုက်	-11.3123
ချား	-11.3124
▁နှစ်အရွယ်တွင်	-11.3124
အလယ်တွင်	-11.3127
တိုက်ခိုက်မှုတွေ	-11.3128
▁စိုင်း	-11.3129
▁ဗိုလ်တထောင်	-11.3129
ညောင်း	-11.313
မတ္တရာမြို့နယ်	-11.3132
နတ်မင်း	-11.3134
▁ပါမောက္ခချုပ်	-11.3136
▁စက်ဝိုင်း	-11.3136
စုကျေးရွာအုပ်စု	-11.3136
▁အနတ္တ	-11.3137
၁၀၅	-11.3137
ပုံဖော်	-11.3137
များပင်	-11.3138
▁နာကျင်	-11.3139
ကုန်သွယ်မှု	-11.3139
▁ဗားရှင်း	-11.314
▁မအူ	-11.3141
ရပေမည်။	-11.3141
အထက်ပိုင်း	-11.3141
လိဂ်	-11.3142
▁အလေ့အကျင့်	-11.3142
တိုင်ပင်	-11.3146
▁အထင်ကရ	-11.3146
▁အာယသ်	-11.3148
▁အဘိုး	-11.3151
လောင်းမြို့နယ်၊	-11.3153
▁အလွတ်	-11.3153
အထောက်အထား	-11.3154
▁သာယာကုန်း	-11.3155
ထမ်းဆောင်	-11.3158
▁တပင်ရွှေထီး	-11.3158
ခေတ်သစ်	-11.316
▁ဗုဒ္ဓသာသနာ	-11.316
▁အမရပူရမြို့နယ်	-11.316
▁တံတားဦး	-11.3162
ဝက်ဝံ	-11.3163
▁သက်ကြီး	-11.3165
ကုံ	-11.3165
၂၀၀၁	-11.3165
ကြတော့	-11.3167
ဇမ်	-11.3168
▁၇၁	-11.317
ဖြ	-11.317
▁ကမ္ဘာလှည့်	-11.3172
▁ခေတ်စား	-11.3173
နိုင်ငံလူမျိုး	-11.3174
▁ဗိုက်	-11.3176
▁ဓမ္မာ	-11.3176
▁ထိုသူသည်	-11.3176
အစုအဖွဲ့	-11.3179
▁စဝ်	-11.3179
▁ပြီးခဲ့သည့်	-11.318
▁သင်ပုန်းကြီး	-11.3182
တိုက်ခိုက်ခြင်း	-11.3184
▁ကန္တာရ	-11.3184
▁ဥပေက္ခာ	-11.3185
ဒရီ	-11.3186
▁အထက်လွှတ်တော်	-11.3186
တာတော့	-11.3188
▁အိုနဗီတမန်တော်	-11.3188
လှည့်လည်	-11.319
▁စာဆိုတော်	-11.3191
▁တပ်ဖွဲ့ဝင်များ	-11.3193
▁အင်္ဂ	-11.3193
အားနည်း	-11.3193
၁၉၅၀	-11.3194
▁ဏ	-11.3195
အာဖရိကတိုက်	-11.3198
ပိတ်ပင်	-11.3199
▁ရေစီး	-11.32
▁ရရှိထားသော	-11.3202
ခရိုင်ရှိ	-11.3202
ကျိုက်	-11.3204
▁စစ်ရာဇဝတ်မှု	-11.3204
▁လက်ကိုင်	-11.3205
▁ရပ်စဲ	-11.3205
ကိစ္စများ	-11.3207
▁တရုပ်	-11.3208
ရိုနာဗိုင်းရပ်စ်	-11.3208
အင်ဒိုချိုင်းနား	-11.3208
နေခဲ့	-11.3209
သမိုင်းဝင်	-11.3211
▁ဝတ်ပြု	-11.3212
စစ်ဌာနချုပ်	-11.3212
▁တရားသူကြီးချုပ်	-11.3212
▁ကျောင်းတော်	-11.3213
▁ဗလာ	-11.3214
စပ်ဆို	-11.3214
ယာမ	-11.3215
▁ဖန်တီးခြင်း	-11.3215
▁အင်ဒို	-11.3215
▁လုပ်ငန်းတာဝန်	-11.3216
▁မနေ	-11.3218
▁အံ့ဩ	-11.3218
▁အမြင့်ပေ	-11.3219
▁ရေးဖွဲ့	-11.3219
▁၁၉၆ဝ	-11.322
ပြောပြပါတယ်	-11.322
တလန်	-11.322
မိတ်ဆွေ	-11.322
▁ရွေးကောက်ပွဲကို	-11.3222
ကွီ	-11.3223
▁ဖြစ်သူ	-11.3223
မှည့်	-11.3224
နန်းတက်	-11.3225
ခဲ့ရတဲ့	-11.3225
▁ပလ္လင်	-11.3227
▁ပဒေသရာဇ်	-11.3228
▁ပျော်ရွှင်	-11.3229
▁ကျွန်ုပ်တို့၏	-11.323
▁စဉ့်	-11.323
▁တောင်ထိပ်	-11.323
သုပ်	-11.3232
အင်န်	-11.3234
▁ထိုမှတစ်ပါး	-11.3235
ဒြပ်	-11.3236
ဘဲ၊	-11.3236
▁၁၃၅	-11.3237
ပြုရန်	-11.3237
▁အာရ	-11.3238
ဒလ	-11.3239
▁ပါဝါ	-11.3239
ဒေါင်	-11.324
အားလုံးမြန်မာ	-11.324
တာမို့	-11.3242
▁နောက်ပိုင်းမှာ	-11.3243
▁ထုထည်	-11.3243
▁တရုတ်ဘက်က	-11.3246
▁အီကွေတာ	-11.3246
▁အရှေ့အာရှ	-11.3247
▁အဖမ်းခံရ	-11.3248
ကြီ	-11.3248
ခဲ့ရလေသည်။	-11.3251
ဘာသာပြန်ရမည့်	-11.3251
ကုသိုလ်ကောင်းမှု	-11.3255
သမ္မတရုံး	-11.3256
ဖေး	-11.3256
▁၁၈၅၂	-11.3257
သင်္ဘောများ	-11.3257
နိုင်ငံတို့	-11.3258
▁ခုမြောက်	-11.3258
▁အကြီးဆုံးသော	-11.326
▁ထုတ်လုပ်သော	-11.3263
ဘရာ	-11.3264
တောင်ထိပ်	-11.3264
▁ထိုထို	-11.3267
လေးဦး	-11.3269
▁ဂျူ	-11.3272
▁ပန်းတောင်း	-11.3272
▁ရှန်	-11.3273
လှသည်	-11.3274
▁တစ်ဦးတည်း	-11.3275
▁ဆိုကာ	-11.3275
▁လွတ်လပ်မှု	-11.3276
▁ထိုးဖောက်	-11.3278
ခဲ့ရကြောင်း	-11.328
▁ခေါင်	-11.3282
ပါတဲ့	-11.3282
စ္	-11.3282
▁နိဒါန်း	-11.3283
▁အတင်းအကျပ်	-11.3285
▁ကန်တော့	-11.3285
နေသူများ	-11.3287
▁တီးတိန်မြို့နယ်	-11.3287
သက်ရှိ	-11.3288
ပြင်သစ်ဘာသာစကား	-11.3288
▁အိန္ဒိယသမုဒ္ဒရာ	-11.3288
ဖတ်ရှု	-11.3289
▁နိုင်ငံတွင်	-11.3291
ရပ်စ်	-11.3292
ကောင်းကင်	-11.3292
▁ဝန်ထမ်းများ	-11.3292
▁အများစုက	-11.3293
ဇိုး	-11.3293
ကြီးကြပ်	-11.3295
▁တရားကို	-11.3295
▁အမွှေး	-11.3295
▁ကြွရောက်	-11.3295
30	-11.3297
အရောက်	-11.3298
▁သိပ္ပံနည်းကျ	-11.3299
စာသင်ကျောင်း	-11.3299
အမျိုးသားပြတိုက်	-11.3301
▁ထမ်းရွက်	-11.3302
ဝု	-11.3302
ထဲကနေ	-11.3303
ကြိုးပမ်းမှု	-11.3304
ခဲ့သေးသည်။	-11.3306
▁အောက်သို့	-11.3311
▁တပ်စခန်း	-11.3311
ကြွယ်ဝ	-11.3312
အရာရှိများ	-11.3312
▁ပြုတ်	-11.3312
▁ထန်းပင်	-11.3313
တရုတ်ပြည်	-11.3314
▁ဖွဲ့ဆို	-11.3314
မင်းသားသည်	-11.3315
တာဝန်များကို	-11.3315
▁အရေ	-11.3316
နတ်သား	-11.3319
▁စီးပွားရေးအရ	-11.3319
ပဋိပက္ခများ	-11.332
ဟိန္ဒူ	-11.332
▁လေ့လာမှု	-11.332
တော်မူပြီး	-11.3322
▁ကိ	-11.3322
▁ရောင်စုံ	-11.3324
နည်း၊	-11.3324
▁သံဃ	-11.3325
▁တိုင်းသူပြည်သား	-11.3326
▁လျှော့	-11.3327
ကိရိယာများ	-11.3334
ပြောတယ်	-11.3334
▁မအောင်မြင်	-11.3334
တစ်ခုက	-11.3335
ဝန်ကြီးဌာနမှ	-11.3336
ထဲရှိ	-11.3336
။၂၅	-11.3338
ယယ်	-11.3338
အရှေ့တောင်ပိုင်း	-11.3339
▁ရေပြင်	-11.3339
အပိုင်	-11.334
သောသူသည်	-11.334
▁ဇွဲ	-11.3343
လစာ	-11.3343
▁မြူ	-11.3343
ရှို	-11.3344
ိုးမောက်မြို့နယ်	-11.3344
▁ကျွန်းစု	-11.3346
သညာ	-11.3348
▁မကွေးမြို့နယ်	-11.3349
▁အုန်းပင်	-11.3351
ုပ်ခွင့်ရတိုင်း	-11.3351
▁ခဝ	-11.3351
များကုလသမဂ္ဂ	-11.3352
▁သက်ရှိများ	-11.3352
တည်ဆောက်ရေး	-11.3352
တင်ပို့	-11.3353
အရာ၌	-11.3353
▁သရုပ်	-11.3354
▁စစ်ကောင်စီကို	-11.3354
▁စစ်တိုက်	-11.3355
သုံးဦး	-11.3356
▁ကလေးငယ်များ	-11.336
▁သည်လည်း	-11.3361
၁၉၅၅	-11.3361
မန္တလေးတက္ကသိုလ်	-11.3362
များမှာလည်း	-11.3362
ဂုဏ်ပြု	-11.3363
▁ဟိန္ဒူဘာသာ	-11.3364
▁ဂရု	-11.3365
▁ဒေသအလိုက်	-11.3368
များ၂	-11.3368
▁မရရှိ	-11.3369
ပြောင်းလဲခြင်း	-11.337
အုပ်စု၊	-11.3371
▁တကယ်လို့	-11.3372
▁မာရ်နတ်	-11.3373
▁အသွင်အပြင်	-11.3374
▁စတုတ္ထမြောက်	-11.3374
မှတ်တမ်းတင်	-11.3374
▁ဖြစ်ကြပြီး	-11.3375
င်းတည်မြို့နယ်၊	-11.3379
ရပ်နား	-11.338
▁တစ်ခုသော	-11.3384
မတ်လ	-11.3384
▁အယူခံ	-11.3386
စေဘဲ	-11.3386
တပ်မတော်မှ	-11.3388
▁မြင့်တက်	-11.339
▁တနည်း	-11.339
▁စစ်အင်အား	-11.3391
၎င်း၏	-11.3392
▁ရွှေကျင်	-11.3393
ည္	-11.3393
▁စစ်ချီ	-11.3393
▁ရှိလေသည်	-11.3396
ကြမည်	-11.3396
▁တင့်ကား	-11.3397
ခဲ့သည်။၈	-11.3397
တစ်နှစ်	-11.3397
၃၀၄	-11.3397
▁ပြသရန်	-11.3399
တစ်စင်း	-11.3399
▁အနုပညာရှင်များ	-11.3399
▁တနေ့	-11.3402
▁ပင့်ကူ	-11.3402
ရောက်ရှိလာ	-11.3403
▁ကန်ပက်လက်	-11.3403
▁ကရာတေး	-11.3404
▁ဆော့ဖ်ဝဲလ်	-11.3404
မဟုတ်။	-11.3404
ကြီးမှ	-11.3405
▁ဂျန်	-11.3406
ဟေး	-11.3406
ဘွမ်	-11.3409
▁၁၀၄	-11.341
ဆေ	-11.3411
▁ဆူနာမီ	-11.3411
ဆန္ဒပြ	-11.3413
▁ပလတ်စတစ်	-11.3415
▁စိတ်ပညာ	-11.3417
▁အင်းဝခေတ်	-11.3419
ဖြုတ်	-11.3419
သိမ်းဆည်း	-11.3421
▁နီးစပ်	-11.3422
ညီညီ	-11.3425
မြို့နယ်၊နမ့်	-11.3425
ဦ	-11.3426
▁စိတ်နှလုံး	-11.3426
လေးများ	-11.3427
နိုင်ပါ	-11.3428
ရှိလေသည်	-11.343
▁ပယ်ချ	-11.343
▁ဖမ်းဆီးခြင်း	-11.343
၁၉၈၄	-11.3431
မော်ဂျူး	-11.3432
မုဆိုး	-11.3433
▁တောင်သူ	-11.3433
▁ရှေးရှု	-11.3434
20	-11.3434
အနိမ့်ဆုံး	-11.3434
▁ဆင်ယင်	-11.3436
ဆိုရင်တော့	-11.3437
▁၈ဝ	-11.3439
▁၂၀၀၈ကွ	-11.344
လုပ်ကိုင်ခဲ့သည်။	-11.3441
▁ပြန်ပြင်ခဲ့သည်	-11.3442
ီယမ်	-11.3443
▁နိမ့်	-11.3444
▁ဝေါ	-11.3446
ကွမ်းလုံမြို့နယ်	-11.3447
ဖော့	-11.3448
▁လာဘ်	-11.3449
▁ဖွဲ့စည်းခဲ့သည်	-11.3449
လုပ်ရပ်	-11.345
▁ဇော်	-11.345
▁အလျင်အမြန်	-11.345
အမျိုးသမီးများ	-11.3451
▁သတင်းရင်းမြစ်	-11.3451
သရုပ်	-11.3451
▁ဗက်	-11.3451
▁၀၀	-11.3453
▁၁၂၀၀	-11.3453
▁အကြော	-11.3453
အချစ်	-11.3454
မြှင့်	-11.3456
▁အပြင်ဘက်	-11.3457
▁သတ်မှတ်ထားသည်။	-11.3458
▁ယန်	-11.3458
မရှိပေ။	-11.3458
▁ကွန်ဂို	-11.346
▁တက်ရောက်ခဲ့သည်။	-11.346
ဂံ	-11.346
ဟပ်	-11.3461
ခဲ့လျှင်	-11.3462
▁၁၇၆	-11.3462
▁ကျုပ်	-11.3465
▁တနှစ်	-11.3466
ပြည်ထဲရေး	-11.3469
▁သင်ကြားရေး	-11.347
▁သစ်ရွက်	-11.3471
▁အမှတ်၁	-11.3473
▁မရောက်	-11.3477
▁ဆင့်ခေါ်	-11.3477
ရသော်လည်း	-11.3477
ချိုးဖောက်မှု	-11.3478
၂၀၄	-11.3478
မ္ဘ	-11.3479
▁ဖြူ	-11.3479
ဝှက်အမည်မ	-11.348
ဒေသသို့	-11.3484
▁ပုဂံမင်း	-11.3485
▁အခွင့်အလမ်း	-11.3486
▁နယူးယောက်မြို့	-11.3486
ဂျယ်	-11.3486
မီးရထား	-11.3487
▁ရေဖြူမြို့နယ်	-11.3487
▁လှေကား	-11.3488
ဇား	-11.3488
တော့ချေ။	-11.3489
▁နေအိမ်များကို	-11.349
▁လုံခြုံ	-11.3492
▁မရှိတော့	-11.3492
မင်းဘူးခရိုင်	-11.3493
▁ယေ	-11.3494
▁ပံ့ပိုး	-11.3494
▁သူနဲ့	-11.3494
▁မျှော်လင့်ချက်	-11.3495
သားသမီးများ	-11.3496
ဒေသသည်	-11.3497
▁အေအေက	-11.3498
▁ရေးသားခဲ့သော	-11.3498
▁ယို	-11.3498
ထွက်သည်။	-11.3498
ုပ်သံဇာတ်လမ်းတွဲ	-11.3502
ကြောင့်လည်း	-11.3503
၀၃	-11.3504
ဖြစ်သည်။၃	-11.3504
အေးချမ်းသာယာရေးန	-11.3504
ှင့်ဖွံ့ဖြိုးရေး	-11.3505
▁ကျင်းပပြုလုပ်	-11.3505
နှိမ်နင်း	-11.3506
ပုသိမ်မြို့	-11.3507
မြောက်ပိုင်းရှိ	-11.3509
မှာဆိုရင်	-11.3509
▁ပြိုင်ဘက်	-11.3509
မေးခွန်း	-11.3511
ဖြစ်ပေသည်	-11.3511
သွာ	-11.3513
သာစည်မြို့နယ်	-11.3517
ပါဒ	-11.3517
လုပ်ကွက်	-11.3519
တိမ်းရှောင်	-11.3519
▁မည်သို့မည်ပုံ	-11.3519
တည်းဖြတ်မူသို့	-11.3519
တကျ	-11.352
▁တာဝန်ပေးအပ်	-11.352
အိန္ဒိယနိုင်ငံ၏	-11.352
၁၅၀	-11.3521
▁တည်းဖြတ်ရန်လို	-11.3521
▁မိုးလေဝသ	-11.3522
ထို့နောက်	-11.3524
▁ရုပ်သေး	-11.3524
ယနေ့ခေတ်အခြေအနေ	-11.3525
▁ကမ္မဋ္ဌာန်း	-11.3527
အစိုးရအဖွဲ့ရုံး	-11.3528
နှော	-11.3528
▁ဖြတ်သန်းသွား	-11.3529
▁လောက၌	-11.3529
▁ခြေလျင်	-11.3531
သူရဲ	-11.3531
▁ရုံးချုပ်	-11.3531
ပါကစ္စတန်	-11.3534
▁အတွေး	-11.3536
၊ရွှေဘိုခရိုင်၊	-11.3539
▁၁၉၂ဝ	-11.3541
▁လှိုင်သာယာ	-11.3541
များအမေရိကန်	-11.3542
▁စစ်ရုံး	-11.3543
▁အန	-11.3544
ဝိပဿနာ	-11.3544
▁ရဲဘော်သုံးကျိပ်	-11.3545
၁၉၅၃	-11.3545
ခရိုင်တာချီလိတ်	-11.3545
မုံရွာ	-11.3545
▁ကျွန်ုပ်တို့သည်	-11.3547
▁ထူ	-11.3551
မွတ်	-11.3551
လေ့လာရေး	-11.3552
▁နိုင်ငံတစ်	-11.3552
▁၁၄၄	-11.3553
စစ်ဆေးခြင်း	-11.3553
တတ်ကြ	-11.3554
ဖန်း	-11.3554
တက်၍	-11.3555
လေးမျိုး	-11.3556
▁စဉ့်ကိုင်	-11.3557
ဇာတ်လမ်းတွဲများ	-11.3558
ရားဝင်ဝက်ဘ်ဆိုဒ်	-11.3564
ဖယ်ရှား	-11.3566
တဲ့နေရာမှာ	-11.3568
▁တပ်များ	-11.3569
▁ကမ္ဘာကြီး	-11.3569
မြစ်၏	-11.3569
▁ခြေမြန်တပ်ရင်း	-11.3569
မရှိဟု	-11.357
▁ဝေါဟာရများ	-11.357
▁ထပ်မံ၍	-11.3573
ဖျင်	-11.3573
▁ရာစုမှ	-11.3573
▁ထားဝယ်မြို့နယ်	-11.3574
ဘန်ကောက်မြို့	-11.3575
နိဂုံး	-11.3575
▁ဘူတာ	-11.3575
မပြတ်	-11.3576
▁ညပိုင်း	-11.3578
▁စာရွက်စာတမ်း	-11.3578
တို့ထံ	-11.3579
လက္ခဏာများ	-11.358
နေသလို	-11.3581
▁ဦးဆောင်သူ	-11.3581
နိုင်ငံသို့	-11.3582
▁သွတ်သွင်း	-11.3582
▁၈ပါး	-11.3584
ထေရီ	-11.3584
၁၀၄	-11.3585
▁အိမ်တွင်း	-11.3585
စကာ	-11.3587
▁ဋီကာ	-11.3587
▁၂ဝဝဝ	-11.3589
▁သံဖြူဇရပ်	-11.3589
▁ထိုစဉ်	-11.3589
▁ပေါ်ရှိ	-11.3589
ယွမ်	-11.359
▁ဖန်တီးသူ	-11.359
ကြီးစွာ	-11.3591
▁၂၀၂၅အသုံးပြုသူ	-11.3592
▁ဖောင်းပြင်	-11.3592
အောက်သို့	-11.3593
အများအပြားကို	-11.3594
စိုးမိုး	-11.3594
▁မျက်ရည်	-11.3594
▁လက်ဖက်ရည်	-11.3596
▁ရဲတိုက်	-11.3596
စဉ်တွင်	-11.3597
သင်္ကြန်	-11.3597
▁အောက်ဖော်ပြပါ	-11.3599
ဟုပင်	-11.36
/68	-11.3601
မြှောင်	-11.3602
အလောင်းစည်သူမင်း	-11.3606
၁၉၄၂	-11.3606
ခွင့်ပြုချက်	-11.3609
▁တစ်နေ့လျှင်	-11.361
သမုတ်	-11.361
ရွယ်	-11.3611
သံကို	-11.3612
ဦးနု	-11.3613
▁ပါဝင်သရုပ်ဆောင်	-11.3613
▁ပါဝင်ခဲ့သည်	-11.3614
▁၁၉၅ဝ	-11.3615
မြို့နယ်န	-11.3615
▁ထပ်ဆင့်	-11.3617
ပိတ်ဆို့	-11.3618
နေကြသည်	-11.362
တည်နေရာအလိုက်	-11.3624
▁မြောက်ဦး	-11.3625
▁စစ်ရေးအရ	-11.3626
▁ဒုတိယတွဲ	-11.3627
▁မြတ်စွာဘုရားကို	-11.3628
ခဲ့ရာတွင်	-11.3628
ကျောက်တိုင်	-11.3628
နိုင်ဘဲ	-11.3628
တိန်း	-11.3628
▁ဖော်ပြခြင်း	-11.3629
ခံရပြီးနောက်	-11.3629
အင်းဝခေတ်	-11.3631
ကစားခြင်း	-11.3632
ရပြန်သည်။	-11.3633
၁၆၀	-11.3634
ကောင်းမွန်သော	-11.3635
၁၁၅	-11.3635
မင်းတုန်းမင်း	-11.3636
▁တစ်ကောင်	-11.3636
မင်းတုန်း	-11.3636
လျှော	-11.3636
▁မေ့	-11.3639
▁ဝါသနာ	-11.3641
▁ရိုက်နှိပ်	-11.3641
▁သွန်သင်	-11.3642
ပျံ့နှံ့	-11.3642
ပီပီ	-11.3644
ရေးသားခြင်း	-11.3644
▁မရနိုင်	-11.3646
▁ဆောင်းပါးမှာဆော	-11.3646
ဟား	-11.3647
▁မွေးစား	-11.3647
၁၀၁၁	-11.3648
▁မျိုးစေ့	-11.3648
▁တစ်ခုအပါအဝင်	-11.3649
▁မြို့များမှာ	-11.3649
၁၄၅	-11.365
လျက်ရှိရာ	-11.3651
သတ်ဖြတ်မှု	-11.3652
ထားခဲ့သည်။	-11.3652
အမရပူရမြို့နယ်	-11.3652
၁၉၆၇	-11.3653
▁ကမ္ဘာတွင်	-11.3657
သူငယ်	-11.3661
▁ရှိကာ	-11.3662
ဟွေ	-11.3665
များပါ	-11.3666
သုံး၍	-11.3667
ဟောပြော	-11.3667
ရုံးများ	-11.3668
▁မျှတ	-11.3668
▁ချားလ်စ်	-11.3668
▁သိကြား	-11.3668
▁အဆင့်မြှင့်တင်	-11.3668
ကဗျာများ	-11.367
ရခြင်း၊	-11.3671
▁ကျောက်ကပ်	-11.3672
▁ကာကွယ်ခဲ့သည်	-11.3672
ပြားမှုမှတ်တမ်း၂	-11.3673
သံတောင်ကြီး	-11.3674
ကန့်ကွက်	-11.3674
ဂယ်	-11.3677
▁အစီရင်ခံ	-11.3678
ပင်လည်ဘူး	-11.3679
▁အနက်အဓိပ္ပာယ်	-11.368
▁အေးချမ်းသာယာရေး	-11.3681
▁ပြေးဆွဲ	-11.3681
ဘုရင့်နောင်	-11.3681
▁ထန်းတပင်	-11.3681
နောက်ဆက်တွဲ	-11.3681
ကလေးရွာ၊	-11.3682
တဲရွာ၊	-11.3687
ပြားမှုမှတ်တမ်း၃	-11.3687
▁လေးနှစ်	-11.3688
တော်မူသောအရှင်	-11.3689
▁အသတ်ခံရ	-11.369
ကြလေ	-11.3691
▁အချုပ်	-11.3691
ဆရာတော်ဘုရားကြီး	-11.3691
အနှစ်	-11.3692
ကျောင်းစု	-11.3696
အရေးမကြီး	-11.3696
အူး	-11.3697
နိုင်ကြသည်။	-11.3698
အစဉ်	-11.3698
ထိပ်သီးအစည်းအဝေး	-11.3698
အေးချမ်းသာယာရေး	-11.37
နိုင်သလို	-11.37
စားခြင်း	-11.3702
နေတတ်သည်။	-11.3702
ဂိ	-11.3702
လန်ဒန်မြို့	-11.3703
ဒါယကာ	-11.3704
▁ပြုလုပ်ထား	-11.3706
▁တရုတ်နိုင်ငံ၏	-11.3707
▁ပြိုကွဲ	-11.3708
။၂၁	-11.3708
၁၃၇	-11.3711
ရည်ရွယ်ချက်ဖြင့်	-11.3714
▁လုပ်ဆောင်ခဲ့	-11.3714
▁ရှေးရိုး	-11.3715
များဖြစ်ပြီး	-11.3715
▁ရောဘတ်	-11.3715
▁မရှိပါ။	-11.3715
▁ဖမ်းဆီးခံရ	-11.3716
▁အနိုင်	-11.3718
နေကြတာ	-11.3719
▁စကခ	-11.3719
▁အိမ်ရှေ့	-11.372
တိုင်းတာ	-11.372
▁နေထိုင်ကြ	-11.3721
ဌာနီ	-11.3723
▁လမ်းဘေး	-11.3724
ကြသောအခါ	-11.3724
▁ဖုန်	-11.3728
▁အတု	-11.3728
ခဲ့စဉ်က	-11.3728
၀၅	-11.3729
ကနေဒါနိုင်ငံ	-11.3729
အစိုးရမှ	-11.373
း၊	-11.3732
▁သတင်းများ	-11.3732
▁ပိ	-11.3734
ဒိန်	-11.3738
ညီး	-11.3738
ွား	-11.3739
ခေါင်းဆောင်ကြီး	-11.3742
▁စံနှုန်း	-11.3745
ဆင်းသက်	-11.3746
၁၃၁	-11.3746
▁ဂမ်ဘီယာ	-11.3747
▁အသံလွှင့်	-11.3748
▁ပထမအဆင့်	-11.3749
ထည့်၍	-11.375
ရာဇဝင်ကျမ်းများ	-11.3751
ချိုင့်ဝှမ်း	-11.3751
▁မံ	-11.3751
မရှိတဲ့	-11.3752
ပေးခဲ့ပြီး	-11.3752
▁၂၁၄	-11.3753
ပါမယ်	-11.3753
ရောင်ခြင်း၊	-11.3753
အကူအညီဖြင့်	-11.3754
▁လောင်စာ	-11.3755
ရှိခိုးကျောင်း	-11.3756
▁လာမည့်	-11.3758
၁၉၄၀	-11.3759
[...]
